#version: 0.2
Ġ t
Ġ a
h e
i n
r e
o n
Ġt he
e r
Ġ o
a t
Ġ s
Ġ w
i s
Ġ c
e n
i t
a n
e s
o u
o r
Ġ p
Ġ b
Ġ f
Ġo f
Ġa n
a l
Ġt o
e d
Ġ m
in g
Ġ in
a r
i on
Ġ d
Ġan d
i c
l e
Ġ h
r o
Ġt h
a s
â Ģ
Ġ n
en t
v e
o m
i l
Ġ re
Ġ y
Ġ e
Ġ l
c t
Ġ is
s t
Ġb e
Ġy ou
l y
o t
Ġ g
at ion
Ġf or
u t
T he
i m
s e
i d
e t
Ġ on
c e
o w
a y
u r
Ġth at
Ġ u
v er
i g
l l
it h
i r
c h
Ġ it
a m
o l
Ġp ro
a d
Ġw h
Ġw ith
Ġ I
Ġa re
Ġs t
Ġ C
he r
Ġ S
âĢ Ļ
i f
Ġw e
Ġc on
il l
Ġa s
Ġo r
u l
l d
t er
o d
Ġh a
m ent
Ġ A
r a
n d
p e
Ġ he
er s
Ġn ot
es s
Ġc om
at e
Ġd e
es t
r i
k e
o p
Ġ M
g e
it y
Ġs u
an t
Ġn e
o re
is t
Ġe x
Ġha ve
i ve
t h
a b
p p
Ġs e
Ġ E
Ġs h
Ġ P
u s
Ġc an
Ġw as
n t
a in
e m
i es
ig h
re s
Ġ 1
Ġb y
ro m
Ġa l
q u
Ġa t
Ġyou r
or t
ar t
Ġth is
o s
an d
a c
Ġd o
Ġw ill
u m
Ġ r
u st
Ġc h
Ġ v
ou ld
Ġf rom
Ġw or
al l
i v
Ġ 2
Ġ âĢ
e ct
Ġ G
Ġ B
Ġ (
en d
âĢ Ŀ
igh t
T h
Ġa ll
u re
i al
Ġ le
u n
Ġm e
Ġ D
Ġ R
Ġa b
ou t
Ġ k
e l
ou r
o c
re d
t her
ion s
om e
ic h
Ġ F
u d
Ġh as
Ġu s
o st
Ġ H
ver y
Ġcom p
Ġg o
I t
ar d
e ar
c c
Ġp l
Ġ W
Ġw he
Ġ T
p t
g h
Ġt r
a k
Ġ en
Ġ im
as t
i e
al ly
Ġ L
an s
0 0
f f
p er
Ġwh ich
on e
Ġin t
Ġa d
o o
id e
b er
Ġthe y
Ġ j
Ġcon t
a g
Ġ N
r ou
s o
at ed
d u
ic e
ou s
or m
Ġwh o
an ce
Ġthe ir
on g
Ġm an
ation s
im e
Ġon e
' s
in e
ab le
a ke
Ġm ore
Ġ U
I n
am e
i p
o g
i b
a ct
Ġo ther
a ge
Ġre s
Ġp e
n ow
ar y
Ġs a
a re
k s
Ġal so
op le
Ġb ut
e re
Ġo ur
ou nt
i re
Ġm y
W h
Ġp art
in d
ic al
Ġs o
l o
re at
p ort
or d
Ġ J
W e
Th is
âĢ ľ
Ġab out
i a
r y
Ġy ear
i z
. .
c l
ul t
Ġan y
Y ou
Ġt e
Ġa g
Ġp er
Ġo ut
f orm
ay s
re e
Ġpe ople
Ġt ime
Ġl i
en ce
Ġh is
a ce
Ġa pp
Ġk now
Ġu n
Ġthe m
ĠS t
Ġu p
ve l
Ġth an
e p
ig n
Ġthe re
Ġa cc
l ic
u e
Ġd is
o ve
il d
Ġ O
as e
v en
ĠâĢ ľ
u ro
oo k
a p
Ġwh at
ct ion
a u
ĠC h
ac k
it e
r u
Ġit s
a ch
o se
. âĢĿ
er v
ing s
it ion
Ġbe en
Ġf e
Ġ2 0
ir st
Ġne ed
nd er
Ġ qu
Ġli ke
Ġne w
Ġbe c
Ġ if
s ion
Ġn o
Ġp re
Ġon ly
Ġwor k
u b
Ġwe re
a il
Ġa m
ter n
at es
Ġm ay
is h
Ġwhe n
uro pe
Ġc l
Ġpro du
ment s
Ġsh ould
ar k
Ġof f
Ġw ould
c on
or y
om m
Ġs p
Ġe very
Ġs pe
Ġcon s
ĠE urope
Ġw ant
Ġa r
if e
Ġre g
Ġa ct
re n
or s
an c
ers on
ation al
Ġcom m
it ies
Ġbe t
Ġpro v
res s
Ġu nder
Ġs ome
Ġf irst
Ġh ad
H e
H ow
Ġre c
at er
as s
Ġwor ld
c ess
an g
w n
if f
n e
Ġ 3
in k
u al
i an
i ous
if ic
ou gh
se l
Ġh ow
Ġsa id
Ġf o
Ġ her
p l
o v
Ġu se
en s
a v
w e
t e
Ġint o
Ġ "
i ent
ib le
au se
i le
Ġo ver
I f
Ġre l
Ġj ust
Ġin d
Ġm ost
Ġp erson
Ġs y
Ġp r
Ġim p
Wh at
f ter
Ġ K
ou nd
is e
em ber
f ul
cl ud
on s
Ġyear s
Ġc o
he n
Ġt w
Ġg et
j ect
The y
Ġd iff
ad e
Ġd es
h ing
Ġsh all
c re
ol d
Ġ20 1
Ġ1 9
v ent
Ġ ro
er m
Ġr ight
le ct
t s
Ġe m
ĠâĢ ĵ
f ore
A nd
Ġsu ch
l i
os s
Ġc ount
Ġl ife
B ut
rou gh
Ġgo od
The re
Ġh im
l es
Ġthe se
ĠU n
Ġ V
o in
n ing
ĠI n
Ġ very
r it
il ity
l p
Ġs erv
Ġwhe re
Ġin form
ic es
an ge
t ic
Ġe ff
Ġse e
p h
he d
en c
Ġch ild
' t
Ġhe lp
ut h
Ġsu pp
ĠG od
st em
Ġ The
ot her
Ġ -
id ent
at ing
an y
Ġtw o
Ġre qu
u res
Ġman y
pe ct
Ġre m
Ġo b
Ġdo es
Ġm ake
Ġtr ans
Ġs c
e g
u ch
. "
Ġin clud
Ġin v
ul ar
Ġsu b
ol og
ĠEurope an
Ġt ra
a w
Ġ ent
c ial
Ġad d
Ġprodu ct
Ġp h
t ain
Ġc ould
Ġwe ll
Ġl ong
om et
Ġo wn
Ġag ain
Ġc ar
i ed
Ġd on
ic t
o b
g et
ra ct
Ġs he
on d
vel op
Ġth ose
Ġe ven
at a
Ġinform ation
Ġb u
Ġd ay
Ġd id
ĠC omm
Ġw ay
at h
il y
ĠA r
ro w
c k
Ġre f
) .
Ġm ust
Ġth rough
od y
at ive
c ed
Ġdiff ere
Ġsy stem
Ġ 4
p le
is sion
Ġat t
Ġ 5
it ed
Ġto o
Ġa fter
x t
Ġde c
ut ion
.. .
ire ct
ow er
Ġin st
Ġf in
m er
g an
b le
ur ing
al th
Ġn ow
Ġt ake
d ay
ver s
Ġg reat
f t
Ġs m
we en
as ed
Ġl ook
Ġbec ause
sel f
ow n
al s
ic k
e ver
Ġm on
Ġim port
Ġp res
ll ow
ur n
it t
en er
ark et
Ġc all
Ġus ed
Ġas s
Ġs ame
rou nd
Ġde velop
Ġbet ween
Ġbe l
y s
ub lic
iv es
Ġa c
Ġd ata
r am
Ġth ink
Ġh um
e c
Ġm uch
Ġp ol
Ġf u
t en
ri b
h ip
ch n
c er
in ess
Ġex per
Ġl ove
Ġb l
ce pt
Ġ2 00
Ġp ur
Ġpl ay
tic le
ot h
Ġha pp
al ity
Ġfor m
ou n
Ġm in
Ġb ack
uth or
g y
Ġ end
i et
ak ing
Ġpro t
it s
n ess
a ve
Ġthe n
th ing
Ġc ol
Ġ ra
Ġf am
Ġex p
c es
e w
Ġf ind
Ġor d
Ġs ay
r ist
w ays
Ġn um
im es
Ġdiffere nt
Ġ ke
Ġpart ic
Ġst art
Ġeff ect
Ġbe fore
Ġm arket
is ion
Ġs omet
Ġb r
Ġp oss
F or
at her
he re
u ally
is m
Ġs et
Ġm ade
Ġm ed
Ġprov id
Ġpro cess
w ard
S o
s s
e ll
ĠE U
Th at
ĠSt ates
v ed
Ġh igh
v ing
Ġ Y
Ġst r
ul ation
i ence
W hen
Ġg u
Ġa v
ic s
or k
Ġs ur
ie w
in ce
ri es
oin t
o od
Ġst ud
Ġwith out
Ġw om
Ġde f
t y
Ġimport ant
o y
ent s
Ġs im
e f
Ġo p
a x
Ġfo llow
Ġb est
Ġpl ace
D o
n g
and s
Ġin ter
Ġte chn
Ġin s
Ġs oc
Ġa uthor
Ġle g
ar ch
ur al
he s
in es
ect ion
r ic
Ġe ach
Ġcon f
Ġal ways
n er
) ,
Ġb us
A s
Ġs ign
Ġl aw
is s
Ġc re
Ġhe alth
Ġm od
Ġhum an
Ġm et
Ġbe ing
Ġapp ro
Ġd et
al k
Ġre ad
Ġin f
t he
Ġin tern
Ġf l
Ġres p
ar m
Ġchild ren
t ing
re ad
âĢ ¦
Ġe ar
ist s
ĠP ro
ill ion
ĠCh rist
Ġ 6
v es
Ġth ings
Ġre p
rou p
Ġsupp ort
Ġhe re
ri end
Ġfe el
Ġf ound
Ġb ody
Ġc ent
con om
r on
Ġpro g
an k
Ġl ast
ant s
Ġcomp le
Ġex t
Ġo per
Ġl oc
ere st
Ġs er
ver n
Ġp ri
Ġm ain
Ġne ver
Ġst ill
us s
Ġd own
ak es
Ġdis c
Ġres ult
ut e
Ġspe c
Ġle ad
Ġle vel
it al
u es
ra ph
Ġf act
Ġbel ie
Ġde p
Ġsomet hing
at ure
l ed
Ġacc ord
Ġin cre
Ġ1 0
ag es
Ġth ree
a ir
as es
ble m
Ġg ener
Ġc ur
Ġor gan
Ġcom e
e red
Ġa p
ĠC on
Ġcon d
Ġord er
ĠM ember
ir d
Ġapp lic
it ions
A n
Ġt y
Ġv al
Ġh ome
con d
in s
Ġproduct s
Ġl ar
2 0
Ġcomm un
Ġp ublic
Ġa w
Ġnum ber
ĠAr ticle
Ġc our
Ġc er
Ġth ough
Ġwe e
b s
Ġbet ter
Ġv is
ar s
ĠComm ission
Ġex am
Ġcont in
Ġmon th
Ġcount ry
Ġdes ign
Ġpl an
Ġs ol
Ġpro blem
ou se
O n
Ġinclud ing
ĠI s
Ġbus iness
Ġan other
u p
Ġc le
i x
as on
Ġst ate
Ġre ally
u c
iz e
Ġint erest
Ġ est
is hed
Ġinv est
Ġre al
Ġwith in
Ġ 7
ĠâĢ ĺ
o ol
e e
ust om
Ġserv ices
Ġsh ow
Ġp ower
Ġf un
Ġd uring
l ess
Ġc he
is ed
Ġg r
i red
Ġme ans
Ġw ater
mer ic
00 0
ter s
Ġb oth
Ġas k
Ġcont ro
Ġcount ries
i o
Ġact iv
Ġagain st
p os
enc y
st and
ion al
Ġre st
Ġch ar
a red
Ġgo ing
, âĢĿ
ate ly
Ġe v
r ation
Ġall ow
iv ing
Ġc are
Ġch ange
Ġp ay
n ot
Ġr is
Ġe as
one y
y ing
Ġposs ible
Ġre t
Ġwor d
oc k
iz ed
l and
p r
Ġf riend
n ed
Ġre port
ic ally
Ġad v
Ġ 8
S he
Ġfam ily
Ġp ar
c ent
o pe
Ġcomp any
ir on
lo y
Ġop en
t ed
Ġo ld
if ied
Ġs it
Ġpro f
Ġe conom
b ers
ru ct
Ġm at
Ġc or
g est
Ġa round
l ine
olog y
ĠUn ion
Ġg row
iv id
ĠH e
Ġd ays
Ġsm all
Ġwh y
Ġav ail
Ġme as
cc ess
Ġe lect
Ġ 9
Ġg roup
Ġsa f
Wh y
pt ion
Ġc ap
Ġd ist
le ment
re nt
Ġl ist
Ġe qu
m e
Ġcomp et
ĠA meric
Ġto day
Ġf ree
in ation
Ġs k
Ġd irect
Ġl ot
Ġg ive
Ġst and
Ġfo od
r al
Ġacc ount
in ed
Ġne cess
Ġre ce
Ġqu est
ut ure
Ġperson al
iv en
Ġc ase
Ġprog ram
Ġp at
ĠR e
Ġgo vern
Ġfe w
Ġm em
Ġch ang
Ġre le
ro ss
am ent
Ġn ame
Ġacc ess
ĠD e
Ġcall ed
Ġa ff
A ll
ĠA n
Ġpro m
Ġse c
Ġp o
u nd
Ġc ustom
Ġwom en
ent ial
Ġbec ome
Ġme et
i od
Ġde m
p loy
in al
Ġt est
v iron
Ġn ational
Ġc a
Ġe l
ĠR eg
Ġen er
Ġab le
How ever
ab l
Ġse cond
Ġs ince
Ġcon cer
Ġo pp
Ġen s
Ġbe g
ĠS e
w ork
Ġpartic ular
Ġbu ild
Ġfin anc
n ce
Ġwh ile
Ġavail able
Ġ ve
Ġm en
Ġis s
S t
a z
g er
T o
ur ity
ĠSt ate
Ġb ig
Ġa ir
ri ed
Ġt reat
ab ility
Ġhe art
i vers
m ed
Ġin c
The se
Ġle ast
am p
Ġl ess
Ġl ive
Ġle ar
Ġf uture
Ġb as
c il
c y
Ġ You
Ġof ten
Ġprov ide
Ġc r
Ġimp ro
Ġp os
viron ment
Ġener gy
om p
Ġh and
o h
er ing
itt le
Ġm oney
Ġle t
Ġ ide
ch ool
Ġb o
Ġf ore
Ġre se
in a
a ut
Ġde v
Ġcan not
Ġb ro
Ġne xt
or n
Ġcon st
Ġt erm
Ġserv ice
Ġper form
A t
Ġspe cial
en se
are nt
Ġv ar
Ġsoc ial
A l
ur ch
Ġunder stand
Ġm illion
Ġrequ ire
t al
Ġpro ject
Ġm ar
Ġcer tain
Ġpres ent
Ġu nt
Ġnecess ary
ard s
ain s
Ġh our
ort un
al e
Ġe vent
Ġper iod
Ġt imes
ent ion
ĠUn ited
M y
ĠâĢ Ķ
Ġb en
read y
Ġf il
iz ation
Ġcontro l
Ġm ight
Ġke ep
Ġw ar
i ans
pe cial
Ġp op
a j
p ar
Ġt er
ĠW h
ic ial
Ġp ass
C h
anc es
b e
Ġs l
oun cil
W ith
I s
Ġm us
Ġexam ple
m an
Ġ ed
Ġus ing
Ġexper ience
end ed
Ġth ing
Ġresp ons
Ġth ird
Ġh ist
Ġap pe
N ot
Ġal ready
Ġdevelop ment
ĠN ew
c u
Ġcur rent
ĠS p
Ġevery thing
Ġme an
Ġc ost
Ġre du
Ġcons um
Ġwee k
ĠR uss
Ġl ittle
Ġsu ccess
ul es
Ġl ight
it ive
Ġother s
Ġest abl
iet y
Ġte ll
Ġrel ations
Ġintern ational
Ġa ut
ak en
Ġp ut
Ġb re
el s
b al
N o
ivid ual
Ġo cc
ient s
ĠF r
Ġe ver
am es
Ġhapp en
Ġfollow ing
Ġ Th
Ġfinanc ial
ut es
id s
Ġbelie ve
a h
Ġen vironment
Ġd ri
Ġp oint
Ġfu ll
Ġto get
Ġtoget her
ut ions
Ġspec ific
iv ed
v ious
ĠP ar
m in
in c
Ġh ard
i er
ĠU S
Ġ es
Ġan n
at ural
Ġadd ition
ib ility
Ġbe h
Ġl im
Ġf our
Ġag ree
âĢ Ķ
Ġp ract
er red
g ed
Ġwe bs
lo od
ent ly
e ad
id er
ater ial
e x
Ġknow n
Ġyou ng
Ġris k
E very
Ġben ef
Ġprot ect
u g
or ies
Ġqu ality
at ic
in ing
Ġpro per
es us
Ġor ig
Ġf re
Ġneed s
Ġcond itions
Ġc ult
Ġ1 5
t o
sel ves
is ing
ĠC ouncil
Ġem ploy
Ġg ame
Ġreg ard
Ġind ividual
Ġw rit
i um
Ġs ing
ĠIn tern
Ġt alk
Ġright s
ur y
ie ld
Ġsit u
Ġcomple te
Ġ ident
au gh
Ġhe ad
Ġ1 8
Ġs ays
ĠD irect
Ġex pect
Ġunt il
at ch
Ġex pl
Ġm ov
Ġens ure
it her
, "
Ġv iew
O ne
Ġtr ad
Ġres pect
ĠT r
ang u
Ġre ason
ĠG erm
us ed
Ġd r
Ġwork ing
ur ther
Ġcour se
Ġex ist
o k
Ġc ity
Ġgovern ment
or ld
v iew
Ġte am
Ġcomm on
at or
ĠS h
as h
Ġind ust
Ġb ook
Ġare a
ab ly
ct or
f act
oo ks
Ġpol ic
aj or
pecial ly
Ġm aterial
Ġpol it
ific ation
i qu
Ġ .
Ġs chool
S ome
re am
Ġn et
ir it
Ġmonth s
ĠReg ulation
Ġcon n
E C
Ġg l
Ġb ased
Ġbeg in
Ġde ath
Ġm il
Ġbe aut
Ġh ouse
Ġw in
Ġm ove
Ġen ough
Ġfu nd
is ter
if y
Ġob ject
Ġe y
ot e
Ġaw ay
Ġf ar
og n
Ġcle ar
Ġn on
Ġwho le
Ġh ig
Ġam ount
Ġw r
Ġsu ff
le ase
Ġp ain
Ġstr ong
Ġa ge
Ġha ving
Ġf ac
Ġprovid ed
age ment
Ġk ind
Ġ $
Ġlar ge
Ġ1 2
o ice
lo bal
Ġt urn
ro du
o ver
1 0
os ed
i or
Ġse ver
end ing
g es
Ġprot ection
Ġc reat
Ġt em
m ost
Ġsu re
ir l
a im
m b
im ate
is ions
al f
Ġen g
id ence
ru g
p ri
Ġst op
Ġj ob
Ġm ajor
ra in
Ġar t
Ġdis e
Ġp ast
c om
Ġr un
Ġsec urity
Ġn atural
Ġret urn
f or
Ġaccord ance
Ġg ot
res ent
an ies
Ġ ver
Ġper cent
ate g
h ic
ch ie
Ġ19 9
Ġg iven
Ġfriend s
Ġdid n
i ation
Ġd one
as ter
n ers
er c
Ġwhe ther
Ġrec omm
Ġsever al
Ġan im
Ġrelations hip
O ur
Ġvis it
u se
lo se
o id
ag raph
Ġmeas ures
op er
Ġam ong
Ġl angu
ĠA d
Ġleg al
Ġsome one
Ġp ost
Ġmem bers
Ġhour s
Ġ [
h od
Ġdo cu
A fter
Ġm om
Ġcom b
Ġt re
Ġprof ess
Ġword s
a id
o f
Ġon ce
Ġcl ass
1 9
at s
ĠA g
Ġnot hing
p or
ol ution
Ġf a
Ġd est
Ġrequ est
Ġquest ion
Ġc al
Ġc ame
er n
Ġse em
Ġn ight
N ow
Ġro om
Ġd i
Ġpri v
oo se
Ġf ul
Ġcommun ic
Ġpre vent
Ġsub ject
Ġt aken
? âĢĿ
Ġl ater
Ġtr y
ic ult
Ġb lood
ĠL ord
Ġimp lement
Ġoff er
ĠP art
Ġm ind
g le
Ġrese arch
ĠW orld
Ġr ules
Ġ3 0
Ġto p
ĠE x
Ġcom es
Ġk ill
w are
Ġa chie
Ġlong er
ĠJ esus
ou th
Ġeffect ive
m ber
Ġs our
Ġp ot
Ġcre ate
Ġph ys
Ġsh ort
Ġs w
âĢ ĵ
itt ed
ĠI nd
act er
ĠS y
s ide
Ġwebs ite
enc es
Ġprodu ction
u ly
Ġpartic ip
Ġf ive
Ġactiv ities
Ġ '
Ġaccord ing
ĠW e
ne w
Ġon line
lo v
Ġcomp anies
ĠA l
Ġve hic
Ġstud y
Ġany thing
ĠN o
Ġs al
B e
Ġdoes n
Ġty p
if ul
Ġtr ue
b r
Ġse x
Ġo pt
Ġeconom ic
ere nce
c le
Ġyour self
is es
Ġaff ect
Ġinv ol
ce ed
Ġref erred
ub l
ĠP l
s w
Ġdec ision
Ġevery one
et y
le ction
Ġp arent
' re
Ġto ld
Ġ i
Ġcont ract
Ġimpro ve
li ament
a pp
Ġph ot
Ġty pe
Ġrec ogn
Ġac cept
u fact
Ġle ft
Ġy et
inc ip
A re
Ġopp ortun
Ġbr ing
Ġdiff icult
Ġresult s
le ep
W here
Ġauthor ities
Ġst ep
Ġmet hod
a it
lov ak
Ġhist ory
il ities
Ġtreat ment
f ect
Ġpro ced
Ġapp ly
p ose
ĠB e
et s
c rib
Ġm akes
Ġt ax
ure d
Ġne ar
Ġlook ing
v ant
Ġval ue
z e
r or
Ġrec ord
ĠS c
Ġcont ent
Ġ Z
n ov
Ġapplic ation
ac y
t on
Ġh ope
j oy
Ġc lose
Ġfun ction
im um
Ġproblem s
Ġf urther
ol ic
Ġc ases
Ġw on
id es
Ġl iving
Ġh old
Ġtechn ology
l ig
Ġes pecially
Ġrem ain
il ar
Ġwor ks
um p
on es
res ident
Ġs ide
Ġed uc
ĠDirect ive
Ġel se
e le
at t
Ġd ra
Ġl ow
Ġf oc
at ory
Ġincre ase
olog ical
Ġm or
id d
Y our
Ġdet erm
Ġthough t
Ġc ir
ou ra
Ġcont act
un e
w here
Ġdo ing
Ġm aking
Ġsign ific
ĠA nd
Ġpl ac
Ġsing le
Ġan t
is ation
ĠCh urch
d om
ir m
Ġadd ress
ward s
ic ient
Ġrequ ired
Ġsystem s
Ġoff icial
l f
Ġne g
e ople
i ol
Ġg lobal
Ġappro pri
ĠC l
The n
Ġent ire
l ing
Ġpar agraph
Ġm ult
Ġl ives
ar ing
Ġ Q
Ġsh are
Ġbu y
Ġwom an
us es
all en
min ist
C an
Ġqu ick
ivers ity
Ġst ay
Ġan al
Ġp ress
b y
Wh o
Ġmin utes
Ġg irl
Ġj ud
Ġcont rib
ow s
e xt
Ġd ue
Ġmat ter
Ġc rit
Ġcont ain
Ġad op
at ors
Ġdo g
Ġinst it
Ġrep resent
ĠA s
ore d
cl us
Ġt aking
Ġn orm
Ġc ell
ep end
Ġchang es
âĢĿ .
Ġman ufact
un g
Ġde al
it es
l u
Ġinclud e
Ġloc al
med i
er y
u ed
Ġm other
Ġst ory
Ġfa ith
Ġsu per
Ġmus ic
o ly
Ġsub st
or th
on y
' m
ren g
P ro
ĠAmeric an
Ġpr incip
Ġ1 00
it or
iqu e
Ġf av
is on
Ġsu g
Ġen c
Ġke y
Ġman agement
ra el
Ġbeaut iful
Ġsitu ation
Ġa ction
r an
Ġcons ider
ĠY our
og raph
Ġtra vel
i res
Ġf ield
Ġl ab
Ġwant ed
Ġab s
du ct
ĠR ep
Ġc ause
ĠS lovak
an ks
Ġ1 1
Ġn ature
Ġsu m
Ġare as
Ġstart ed
Ġeas y
Ġlear n
Ġcl aim
Ġser ious
Ġf ail
Ġm ot
ĠO r
led ge
iv il
Ġsp ace
a f
Ġrequire ments
L et
Ġ X
Ġal most
Ġcol lect
Ġl and
os p
Ġ1 3
O r
Ġag o
Ġsignific ant
Ġan sw
Ġ ...
Ġha ir
Ġpr ice
Ġf ace
Ġse en
as ing
ĠC an
Ġw ent
Ġpolic y
is l
Ġtoo k
i k
ĠC ent
Ġpro pos
Ġbas is
cre t
2 00
Ġe ither
Ġen joy
ĠE ng
as ons
Ġcomp ut
ur s
Ġv ide
ag n
Ġst at
Ġpolit ical
Ġin it
C on
Ġh y
Ġp ubl
f er
ic ro
Ġask ed
ĠA f
s p
le g
re ct
Ġex erc
u nt
D on
Ġgener al
ĠM in
e ed
Ġcontin ue
Ġappropri ate
M ore
Ġmed ic
Ġe at
Ġup on
Ġb ad
w ay
Ġd am
Ġt ri
Ġind ic
Ġab ove
Ġch oose
end s
ĠP h
Ġpur pose
il t
Ġm iss
Ġ1 4
Ġpr ay
Ġso on
Ġent er
Ġthem selves
Ġhow ever
u ge
Ġl ov
Ġh ot
Ġ1 6
Ġg re
E x
Ġpot ential
Ġo il
om s
Ġgrow th
vent ion
Ġconn ect
Ġf ight
Ġus ers
5 0
r ing
Ġob lig
Ġst reng
Ġdet ail
Ġsim ilar
i ke
R e
ap s
od e
Ġl o
Ġrel ig
Ġs ent
Ġlangu age
ot s
Ġh alf
Ġd ig
Ġit self
Ġpur ch
U n
Ġact ually
Ġle ave
S h
Ġf r
Ġde cl
Ġf all
Ġreg ul
res sion
Ġde li
ver age
Ġm ember
Ġindust ry
Ġper fect
Ġdise ase
l er
it ary
ide red
Ġw ond
er t
Ġs ite
ct ions
Ġd ate
Ġse lf
Ġw ays
Ġsaf ety
ll ing
ĠF or
her s
Ġim m
Ġr ad
p ro
ĠP r
o x
Ġvar ious
Ġl oss
E U
ĠPar liament
g ing
if t
Ġs leep
it iz
Ġcons idered
Ġcre ated
Ġv ol
ĠComm un
Ġpe ace
ord ing
Ġlevel s
Ġ1 7
m it
ful ly
Ġs ix
Ġaut om
Ġro le
ĠCh ina
Ġfil m
ove red
A cc
Ġwe ight
Ġhapp y
c hed
v al
Ġey es
ĠP resident
Ġrele vant
ĠM ar
l im
Ġcustom ers
Ġac ross
ou l
Ġw alk
Ġt ar
ĠL e
Ġsk in
Ġp ort
Ġsp irit
ill s
in ary
ĠIs rael
Ġtr uth
1 1
i ated
Ġre pl
ĠD o
Ġeffect s
s y
âĢ ĺ
Ġv iol
ver t
Ġf ather
Ġ5 0
Ġrem ember
Ġspe ak
Ġneed ed
Ġact ive
Ġto tal
ĠM an
Ġnet work
Ġchar acter
Ġde b
oh n
Ġear ly
ĠR es
ro p
oo gle
ver se
A T
Ġsc ient
w h
Ġd ream
a pe
ir th
Ġso ft
l am
Ġw ait
om es
Ġparent s
Ġa im
Ġtrans port
c ome
ĠIntern ational
u ck
id ed
ition al
Ġimp act
Ġdr ink
ist ic
Ġsaf e
ag ed
Ġmom ent
ang er
re me
ight s
he st
b ody
B y
Ġco oper
ĠS w
ab y
ne y
Ġ ess
Ġm ess
ru ction
Ġbuild ing
Ġsoc iety
1 2
Ġhig her
a pt
ĠM ay
Ġim medi
Ġint eg
Ġm ob
Ġc red
ish ing
Ġtr ade
ruct ure
port s
ra p
ĠB rit
Ġass oc
Ġl ost
Ġt akes
Ġch allen
le t
Ġad minist
Ġany one
Ġbec ame
Ġthere fore
Ġin nov
Ġout side
ĠM y
ĠH is
ot t
e es
Ġex cept
c ing
Ġass ess
Ġsim ple
Ġpro b
p ly
s u
Ġperform ance
at ures
ens ive
ĠRuss ia
se qu
Ġg en
Ġto ol
is c
H is
" .
a per
Ġind epend
Ġbre ak
Ġh arm
f ort
Ġb ank
Ġ er
Ġav oid
Ġv ir
Ġass ist
' ll
Ġterm s
Ġt our
c hes
ĠK ing
an e
en g
Ġmed ia
ron t
ĠCon t
Ġgood s
Ġear th
g o
Ġpos ition
th ough
oin ts
M any
h old
o ber
r ad
Ġcir c
an n
Ġide a
Ġpre vious
h ib
Ġauthor ity
Ġwant s
Acc ording
ĠChrist ian
Ġde l
ac c
Ġwee ks
Ġrecomm end
Ġpre p
A d
Ġg ra
Ġd rug
Ġc y
Ġus ually
Ġpri or
ren ch
Ġse par
Ġde ad
Ġ2 5
Ġob s
it te
Ġlar gest
Ġrespons ible
it er
Ġres our
Ġtr ust
Ġ &
Ġc itiz
Ġus er
od ay
ĠS u
ĠI I
ar ant
ord er
y le
Ġb orn
ic i
b ook
ĠRep ublic
Ġtyp es
ĠO ff
Ġre d
Ġmod ern
Ġth reat
Ġd om
Ġs ound
at ives
Ġpop ular
Ġestabl ished
ĠA ust
ed om
ĠB l
Ġal ong
H ere
Ġactiv ity
Ġtra ining
M ost
re t
Ġh ands
pos es
Ġrel ated
Ġj our
Ġcom ing
en n
Ġknow ledge
Ġcle an
Ġmain tain
Ġreg ular
ron ic
ĠA pp
ur ance
ĠT e
Ġrece ive
ĠC o
Ġoff ers
Ġbegin ning
Ġf ast
Ġtechn ical
Ġs at
Ġre asons
Ġagree ment
Ġinst all
' ve
Ġpart y
Ġc ivil
Ġcomplete ly
Ġd ou
a i
iv al
r ated
ĠM e
Ġorig in
Ġis n
Ġeff ort
er ve
Ġb illion
r ict
en e
ur d
tern al
Ġ ill
Ġadd ed
Ġd iv
E R
Ġl ine
Ġcommun ity
Ġar ticle
Ġl a
Ġhim self
Ġphys ical
Ġpart ies
Ġpur poses
i pp
Ġse arch
Ġc amp
Ġeduc ation
Ġc ook
Ġw ind
Ġe le
o on
ĠAmeric a
Ġhealth y
1 3
Ġk ids
Ġw atch
Ġc ard
Ġm ass
1 5
ĠP ol
ac ks
Ġr ange
Ġachie ve
Ġprovid es
Ġfor ce
Ġf ear
ĠI tal
g n
E ven
Ġt as
Ġappe ar
J ust
Ġdes crib
Ġche ck
Ġfor ward
Ġinvest ment
Ġlike ly
Ġv ict
u le
Ġpriv ate
at ter
Ġansw er
ip ment
Ġp ack
in t
Ġcan cer
s c
Ġiss ue
le x
u ary
ĠGerm any
Ġst ates
a ff
Ġ z
Ġcost s
Ġtar get
Ġwr ong
anc ed
Ġprofess ional
y ear
se c
ec ause
Ġint rodu
ail y
Ġperson s
Ġcap ital
Ġse lect
Ġdesign ed
Ġ19 8
Ġrece ived
Ġquick ly
Ġal one
Ġro ad
ĠM ed
Ġs ens
Ġdocu ment
Ġser ies
ll ed
ĠJ an
e b
Ġpart s
Ġpart ners
ap an
Ġconcer ned
F rom
st ain
em pt
Ġatt ention
ĠT o
er g
Ġcomput er
Ġre v
st it
Ġexper i
Ġvide o
Ġsim ply
Ġget ting
ĠW ar
ĠRuss ian
it ation
Ġpat ients
ĠS erv
m itted
Ġquest ions
Ġfin al
Ġc ross
Ġinf lu
Ġqu ite
Ġp ict
Ġ â
ĠAf ric
Ġter rit
Ġun ique
Ġnorm al
Ġ ur
Ġs old
Ġbe gan
Ġb al
Ġr ather
m y
Ġleg isl
Ġess ential
Ġstand ard
Ġb irth
Ġ2 4
ĠC omp
Ġhe ld
M ay
Ġdef in
Ġc ou
o ke
Ġb it
Ġcar ry
Ġann oun
itte e
Ġreg ist
en ing
Ġon es
ĠB r
Ġh on
Ġa ud
Ġsee k
Ġre view
Ġph one
Ġfore ign
Ġp en
Ġth ous
Ġf ire
Ġsour ce
Ġocc ur
Ġt able
Ġhe ar
Ġc ele
P lease
l ish
op h
An y
Ġsu stain
Ġorig inal
it able
Ġbenef its
os ing
Ġexp ress
Ġfoc us
Ġp le
P eople
Ġ201 5
ĠN ational
Ġpl ant
est s
Ġc ut
ar th
Ġpos itive
ch ange
iv ity
Ġtr ying
T oday
Ġopportun ity
ent al
Ġread y
Ġche m
Ġcor rect
Ġg round
ud e
Ġs ize
Ġwond er
Ġsu n
Ġhe ard
1 4
Ġgu arant
1 8
Ġbro ther
Ġcurrent ly
ĠG o
H ave
Ġco ll
Ġab ility
Ġdirect ly
ri a
Ġbu ilt
Ġatt ack
3 0
Ġsay ing
or row
Ġsh o
Ġinvest ig
oura ge
Ġmil itary
Ġex act
ĠG oogle
Ġr ate
Ġs oul
Ġar ri
Ġs ense
form ation
et h
Ġcond ition
Ġiss ues
ach ing
A r
m p
ĠF rench
it ing
Ġanim als
E S
o le
Ġhappen ed
ip s
Ġcent ury
Ġgroup s
ĠA b
r im
Ġsoft ware
Ġful ly
ud get
Ġmor ning
ĠA ss
Ġdig ital
Ġsa w
Ġde ep
ĠM us
Ġsa ve
Ġd ied
? "
ĠC ar
Ġl ink
Ġprob ably
om en
Ġprov isions
Ġcomp l
Ġmod el
art ment
Ġpr im
Ġevent s
Ġnew s
Ġmed ical
m ore
am ed
ab les
Ġc op
in ks
Ġfo ot
Ġa verage
Ġsol ution
ĠD ay
Ġ4 0
Ġchang ed
Ġaddition al
Ġeconom y
Ġp oints
Ġpay ment
Ġd anger
Ġthrough out
s h
Ġver sion
Ġ Â
Ġto wn
Ġcitiz ens
Ġelect ric
Ġmeet ing
ri age
ce ll
Ġch oice
ut ed
ĠC our
Ġg ames
ĠJ ohn
av ing
Ġcer t
Ġcour t
Ġb aby
Ġdevelop ed
w ise
. âĢĻ
Ġl og
Ġfav or
Ġstud ents
ĠI t
r ate
ro wn
ener al
Ġredu ce
Ġfre edom
Ġwor th
Ġdev ice
ce mber
re g
Ġk ing
Ġre act
Ġs on
li ed
pl ay
ĠA ll
Ġas se
Ġeng ine
Ġoff ice
Ġsug gest
Ġwrit ten
Ġexerc ise
ĠGerm an
ĠE n
m pt
Ġj oin
Ġob tain
Ġf at
Ġproject s
Ġte xt
le ar
Ġop in
Ġp ath
a ven
ure r
Ġequ ipment
Ġstate ment
er cial
Ġcom fort
Ġb ed
Ġk new
Ġmy self
Ġcooper ation
Ġmaterial s
Ġl ower
ough t
st er
n al
Ġd aily
ag ing
Ġsur pr
Ġprocess ing
Ġpop ulation
rough t
O ther
ĠJ apan
P re
Ġreg ion
in o
he m
Ġm ach
Ġpubl ished
Ġgo al
ist ics
Ġvehic le
un ch
Ġup d
Ġ :
ne x
Ġdo ctor
Ġresour ces
ol id
B ecause
Ġw ide
Ġfam il
ĠJan uary
Ġbeh av
âĢ ¢
S ince
us h
Ġb ar
F irst
Ġwho se
j ust
Ġcon duct
Ġknow s
Ġimmedi ately
ast ic
at form
Ġd ark
ĠJ ew
1 6
ĠJ une
ĠFr ance
Ġd iet
ĠG u
ar ian
Ġdec ided
b it
Ġinclud es
ill ed
en ed
ter m
E ach
Ġplay ers
Ġins ide
Ġcustom er
b and
Ġa f
Ġpres ident
all s
r ast
m ission
ive ly
it c
Ġbl ack
Ġc ateg
Ġmean ing
Ġev idence
om an
Ġpress ure
y n
ĠâĢ ¦
Ġgo es
Ġprom ot
Ġst ress
Ġh ost
idd le
Ġsomet imes
Ġloc ated
Ġpract ice
Ġstand ards
Ġinst ru
ĠH im
ar ily
ĠWh at
am er
ĠM on
Ġhelp s
l t
ow ers
ĠDe cember
Ġproper ty
Ġgr ant
I N
ĠA m
ed er
ar ies
Ġfor g
Ġsuccess ful
ac hed
ĠS oc
Ġ201 6
I S
li er
Ġm ax
a ur
Ġproced ure
Ġb rain
ac ity
Ġt en
Ġcol or
O R
Ġto wards
Ġdist rib
ar c
sy ch
Ġpre c
Ġb ooks
P l
Ġestabl ish
Ġst e
m as
ch an
Ġincre ased
Ġfor get
Ġfe atures
Ġs cre
ct ors
Ġext reme
el t
Ġm ention
Ġcred it
G od
Ġinvol ved
ke y
ĠJ uly
n ces
h ood
op s
Ġb udget
Ġeas ily
Ġcompet ent
Ġ201 4
Ġallow s
Ġte le
Ġcar ried
Ġte ac
Ġfre qu
Wh ile
ĠA t
Al so
od ies
Ġc ry
Ġ19 7
Ġaw are
augh ter
There fore
ĠU K
Ġwe b
ace book
ou d
Ġse ason
um e
Ġb i
Ġspe ed
Ġg ave
es e
Ġdiffere nce
ain ed
Ġw ish
Ġh or
u ll
ĠCour t
Ġs ong
enc ed
Ġgreat er
S omet
w ide
pr il
Ġf ront
Ġ 0
in ated
Ġprog ress
olog ies
Ġact ions
Ġl ose
1 7
ĠO ct
Ġcult ure
end er
Ġpre gn
Ġl if
Ġ201 7
On ly
Ġwh ite
Ġg ives
ed d
Ġsol utions
n s
Ġdest ro
f ace
ĠE arth
Ġrespons ibility
b o
Ġad vert
ĠIntern et
Ġcommunic ation
A S
c ient
w o
Ġappro ach
re st
Ġde g
Ġlead ers
P h
ri al
Ġdev ices
ĠUn iversity
Ġad ult
ĠS outh
Ġl ooks
Ġtem per
Ġshow s
Ġb rought
b all
Ġ201 8
Ġplac es
Ġco ver
Ġch ance
ines e
c ri
Ġt ou
ĠG ree
Ġpo or
und red
Ġset t
Ġincre asing
ys is
on se
Ġpart ner
O f
iven ess
Ġs il
S e
Ġch urch
et er
Ġp red
ĠC ol
Ġre ve
Ġcell s
ĠH ow
Ġem b
ra ft
Ġcele br
Ġrec ent
Ġst ore
or ks
i ate
ff ee
Ġs end
Ġrem ov
im ately
i able
pt ember
O N
Ġful f
Ġex c
Ġimplement ation
Ġpol ice
Ġdem and
Ġmon itor
ell ig
Ġbeh ind
ie f
ĠPro t
Ġcons ist
Ġsat is
v ision
ĠT ur
Ġf ru
Ġoper ation
Ġhapp ens
Ġw ife
Ġse ll
ĠEng lish
Ġexpect ed
Ġsur v
Ġatt ract
tic les
Ġlaw s
air s
Ġlim ited
Ġsy mpt
Ġm ag
Ġp lease
Ġparticular ly
lo ad
y l
ĠM arch
g en
um an
Ġwr ite
Ġl ack
itt ing
Ġmeas ure
Ġar ch
Ġit em
m s
Ġse ctor
Ġinstit utions
Ġbas ic
Ġins p
Ġmob ile
Ġcompet ition
Ġvehic les
at ur
Ġthink ing
ĠN orth
ict ion
Ġcirc um
Ġdam age
Ġwas te
et ic
Ġresp ond
Ġter ror
le y
Ġunder t
Ġform s
Ġemploy ees
Ġre pe
ĠA pril
Ġem ot
Ġgre en
ant ly
c ul
A N
Ġenvironment al
Ġsupp ly
Ġexist ing
We ll
her n
ra w
av es
Ġp aid
Ġseem s
ĠCon vention
Ġem ail
Ġintern al
Ġse cret
a ul
Ġg as
Ġdocu ments
ĠA re
ame work
Ġin j
D uring
Ġp age
Ġreport ed
Ġst ri
Ġre ach
ĠOct ober
Ġ19 6
ĠCommun ity
Ġcl imate
Ġadv ant
Ġd ie
Ġcompl ain
anc y
Ġext ra
Ġac qu
Ġcap acity
Ġpl atform
Ġcomm it
he ad
Ġwh om
Ġex ec
ove mber
Ġcons ult
h aps
Ġ2 1
Ġcomm ercial
os es
is is
Ġbig gest
pl es
us band
it le
ĠY ork
Ġe t
ve re
ĠF in
m a
u ff
Ġhig hest
ĠA ct
c oh
Ġlead ing
Ġm er
D id
Ġcon cept
ĠG roup
Ġca used
ro te
oc r
Ġar r
ici ency
it ness
v is
Ġre ality
Ġl ay
b um
ĠH oly
t ies
Ġval ues
ĠSe ptember
ond on
Ġapplic able
Ġlim it
Ġsp end
Ġen em
n a
T r
Ġm ist
ab or
ol ute
r ary
iz ing
v est
Ġf irm
Ġstud ies
l ies
om b
al u
t hen
Ġpre t
Ġallow ed
ĠT V
ous ly
igh b
Ġmarket s
uc lear
Ġal tern
oc ol
Ġl ate
Ġsum mer
Ġatt empt
Ġsl ow
Ġchem ical
Ġwe ap
Ġbel ow
Ġpl ans
Ġm ount
Ġinterest ing
Ġconst it
Y es
Ġconf lic
att le
Ġpower ful
li ke
Ġv ia
l ands
Ġmarket ing
ĠN et
Ġdra w
Ġb odies
Ġcent ral
ear ch
Ġinterest s
Ġt al
iss ions
Ġs we
Ġim ag
l ight
Ġme chan
ad es
Ġcomple x
ĠBrit ish
Ġc at
Ġapplic ations
Ġ201 3
Ġdisc uss
Ġbec omes
Ġresp onse
Ġh undred
ĠF ather
Ġqu al
Ġinclud ed
ĠO n
oun ter
es tern
Ġstreng th
at est
Ġrele ased
ĠComm ittee
Ġ- -
Ġ6 0
Ġs ac
Ġp ie
it am
om ing
m ing
Ġfor mer
Ġmanufact urer
Ġ ir
Ġcomp on
Ġadop ted
Ġanim al
Ġcl ot
Ġdec isions
Ġcont ains
Ġcar s
Ġv oice
Ġrest rict
Ġpro ceed
ĠAn nex
ĠCh inese
2 5
Ġkill ed
ĠIs lam
ĠN ovember
Ġf air
W ill
ĠI m
st ances
re c
Ġhist or
Ġl ic
Ġrem ains
ag er
Ã ©
ĠU k
Ġex change
Ġr ule
Ġbro ad
Ġo ption
A pp
ĠU N
e qu
Ġintern et
Ġorgan ization
at ically
am b
ar ter
Ġindividual s
Ġpres ence
Ġw rote
Ġmult ip
Ġsympt oms
ĠB ar
Ġt ried
Ġsex ual
Ġmethod s
Ġg old
. )
in ate
p ing
Ġf ig
Ġdou b
Ġh osp
Ġscient ific
Ġpr ices
Ġm ig
Ġst age
Ġneg ative
Ġinst ead
Ġbl og
Ġassoc iated
Ġexact ly
Ġdestro y
ra z
Ġth us
Ġm ission
Ġb ott
as c
Ġse ven
re ed
ĠB o
Ġh usband
Ġdec ide
Ġdem on
Ġm ark
Ġplay ing
a ign
Ġc old
Th ose
al ed
Ġterrit ory
Ġbel ong
Ġmar riage
Ġtrans fer
ĠOff ice
Ġthan k
ur t
Ġsm art
Ġtalk ing
Ġf elt
Ġpat ient
Ġgrow ing
Ġwork ers
u x
am a
Ġbenef it
Ġprodu ced
Ġread ing
Ġprovid ing
Ġsh op
ra g
Ġtrans l
ĠF acebook
re l
Ġwrit ing
A R
Ġlov ed
Ġfin ally
ĠL ondon
d e
Ġrequ ires
ĠA ir
for ce
ist ry
p ite
ru ary
Ġindepend ent
Ġhigh ly
Ġ201 0
Ġh uge
ĠY ear
Ġvict im
Ġ /
Ġlegisl ation
erv ed
eb ruary
ĠHe alth
Ġ ut
s er
Ġconcer ning
ze ch
s pect
augh t
ĠPart y
Ġpre par
Ġwork ed
t ime
ĠSlovak ia
Ġant i
ĠSp irit
Ġins urance
Ġn or
Ġmax imum
Ġ2 2
Ġpurch ase
Ġplay er
ree ment
Ġadminist r
ro l
Ġbr and
Ġcontin u
Ġmess age
Ġus es
ĠW ill
it ude
Ġsour ces
Ġcr isis
Ġa id
ur ning
Ã ¡
ess ion
os ition
Ġal bum
Ġproced ures
Ġd ut
R es
Ġcult ural
Ġr out
ra id
Ġ201 2
Ġconn ection
Ġ ,
Ġopin ion
Ġm is
ĠW ith
ac hes
ĠChrist mas
Ġfeel ing
Ġn ut
ĠO ne
Ġ This
ĠP re
Ġne ighb
Ġp ers
Ġour selves
ament al
Ġdo or
Ġcircum stances
ĠC ity
al ing
Ġsp read
ent y
Ġfe ed
Ġwas n
I m
Ġtr uly
p s
Ġm ill
Ġp sych
m es
re et
ild ren
N ew
Ġdetail s
Ġmajor ity
ĠT reat
p art
Ġmove ment
Ġev alu
h a
Ġr ich
e or
Ġlook ed
b ased
An other
Ġc amer
ortun ately
ad a
Ġloc ation
ro om
Ġl atest
or ing
Ġe uro
an a
w orks
ĠG eneral
A m
E D
er ia
if ying
am s
Ġar g
y ond
Ġdri ve
May be
Ġst aff
Ġstep s
Ġspirit ual
Ġtrans act
Ġg iving
Ġcon sequ
Ġb an
vern ment
o very
Ġprincip les
L ook
Ġrelig ious
Ġinterest ed
Ġex cell
Ġen h
Ġprodu ce
Wh ich
Ġy es
Ġpur su
p id
Ġeff icient
Ġse a
Ġadop t
os is
er o
Ġu nd
Ġnum bers
lic k
ric ult
Ġabs olute
Ġco ffee
Ġsal es
Ġanal ysis
Ġoper ations
Ġlear ning
est ic
Ġrec ently
Ġopt ions
ge l
ĠC ath
g ram
so ft
ĠAfric a
ĠK ore
Ġris ks
gy pt
Ġ201 1
Ġfor ces
Ġunderstand ing
Ġ ri
Ġmin imum
k now
coh ol
Ġele ments
b on
Ġint ellig
Ġev il
Ġtechn ologies
ĠC zech
Ġwe l
A b
ĠS er
Ġoper ating
ĠP ri
Ġconsum er
Ġassist ance
Ġb oy
Ġim age
ly ing
Ġbl ock
Ġst yle
Ġtool s
k y
a res
Ġd en
Ġplay ed
R em
Ġfact ors
! âĢĿ
ate ver
. ,
Ġf ix
edd ing
Ġtrad itional
Ġstr ate
Ġstrate gy
d en
Ġdef ined
Ġb reat
Ġsh own
ĠAust ral
Ġc ities
Ġcall s
Ġas pect
Ġj oy
Ġl ed
ĠE uro
d er
Ġelect ronic
id ing
Ġannoun ced
Ġaf raid
ĠF ebruary
E urope
Ġstr ateg
Ġsk ills
Ġet c
Ġdevelop ing
Ġey e
Ġprocess es
ĠP al
ound s
Ġcon cent
he l
Ġopportun ities
Ġs in
Ġ2 8
Ġcamp aign
Ġtra ck
Ġmov ie
av y
Ġrele ase
ĠPar is
Al though
ĠAg reement
Ġdanger ous
ug ust
D e
Ġw arm
r ay
Ġgener ation
Ġref lect
Ġassess ment
ren cy
Ġint ended
r ant
Ġeas ier
Ġn ation
Ġdis play
ib ly
Ġ200 8
ĠE m
use um
Ġp aper
ĠB el
Ġe ight
Ġdemon st
Ġpro p
enc ies
Ġcl os
ĠB ank
Ġconsum ption
Ġorgan iz
Somet imes
Ġcon v
ĠW ind
Ġsustain able
Ġv ot
b an
Ġfamil ies
ĠMin ister
Ġgreat est
Ġwe ak
Ġide as
Ġvir t
ĠM r
Ġ20 20
Ġplan et
Ġf em
Ġl aid
Ġu lt
Ġn uclear
Ġdeli ver
ac ed
Ġex clus
O ver
It s
Ġser ve
ĠL aw
Ġapp lied
c raft
ra ine
ĠH ar
il es
Ġann ual
Ġex ternal
m on
Ġprogram me
C l
icro soft
Ġact s
us iness
Ġlist en
i ations
Ġadv ice
se t
Ġca uses
Ġsy mb
Ġworld wide
Ġf arm
ite ly
Ġd aughter
Ġd er
e an
Ġ2 3
Ġ200 9
Ġ201 9
Ġ19 4
Ġstreng then
Ĥ ¬
ĠS m
Ġst ructure
cl es
P er
Ġv acc
Ġnear ly
Ġbo x
H er
Ġto m
ri an
D es
Ġdis p
p ed
Ġthan ks
Ġcons ent
ol es
c o
Ġs ports
N ext
Ġpr ison
Ġcan d
Ġoblig ations
Ġcou ple
as sion
Do es
Ġturn ed
Ġare n
ro ad
Ġfam ous
it ect
Ġprep ared
Ġfavor ite
ra b
Ġconst ruction
ĠI ran
Ġp ark
Ġconsum ers
Ġprom ote
d o
T ake
Ġclear ly
Ġregard ing
ĠS ec
u ild
Ġprincip le
Ġc ru
Ġca pt
Ġinter p
Ġspec ies
Ġopt im
Ġpolic ies
c ks
Ġstat us
O S
Ġf ish
ce l
ĠI nt
Ġtemper ature
Ġre new
Ġg e
E A
ĠD r
The ir
Ġun f
ru pt
Ġcons c
Ġget s
ĠC or
Ġw is
Ġwe ar
ĠF und
ĠMus lim
Ġfr amework
Ġrecomm ended
Ġimport ance
Ġ9 0
Ġhot el
Ġcl ients
Ġse ction
ĠW ord
it ch
Ġover all
ĠE gypt
Ġgr ad
ĠH ouse
Ġdep end
Ġpret ty
Ġad apt
Ġextreme ly
Ġ ing
Ġlead er
B oth
Ġw ine
Ġthous ands
Ġf lo
Ġn amed
Ġm icro
Ġsur ve
Ġsc ience
ĠKing dom
G o
Ġc overed
Ġdeterm ine
Ġg ift
Ġeffort s
S uch
Ġfun ctions
Ġjob s
av id
E n
Ġ2 7
Ġbe yond
Ġli k
Ġcol lection
ed ic
Ġchar ge
Ġinit i
âĢĿ ,
Ġg one
ip l
as ure
O T
Ġag reed
Ġb atter
Ġcr im
Ġreport s
Ġgo als
Ġpre m
Ġwith d
c ast
ial ly
Ġun less
Ġcre ation
e v
Ġcent er
2 4
Ġm ir
Ġcreat ing
Ġhe aven
Ġpr in
y r
E N
Ġoff ered
res p
ĠE ast
Ġex ceed
con t
Ġcertain ly
Ġa ward
Ġman ner
Ġviol ence
Ġres ist
Ġgirl s
Ġdrug s
Ġpl ants
Ġch o
ĠA ugust
res h
hen s
Ġbal ance
ĠC al
ĠQ u
Ġneg ot
Ġb ase
Ġvol unt
Ġdise ases
Ġtra in
Ġres olution
ac es
Ġinflu ence
Ġtra ff
Ġ2 6
oss ible
I C
por ary
I nd
ar i
ĠItal y
R ead
Ġwhere as
g ment
Ġm ut
ĠSy stem
it led
Ġdes ire
Ġmod els
Ġj oint
Ġcon clud
Ġguarant ee
id ge
On ce
Ġdeb t
Ġcare er
S u
Ġqu ant
Ġfund s
Ġprov ision
Ġ8 0
Ġother wise
Ġuse ful
ĠAg ency
Ġcould n
Ġl iter
Ġcomp ared
ĠCent ral
C omm
) ;
Ġide al
Ġis land
Ġdescrib ed
Ġsepar ate
know n
Ġinstit ution
Ġrun ning
Ġra ce
ĠN ot
Ġtou ch
ĠD ec
Ġmem ory
Ġs an
Ġst ar
is ters
Ġpict ure
Ġpro te
Ġsit es
Ġmar ried
Ġfe ature
Ġacc ident
Ġest im
il it
Ġexcell ent
Ġdri ving
Ġsuff icient
Ġsu itable
Con t
E s
eng th
Ġinter act
Ġsur face
rast ructure
Ġcomm and
Ġd ress
Ġrese arc
Ġf ile
Ġinnov ation
cri ption
Ġorgan is
or age
S ee
Ġsur round
Ġcl ub
iz es
Ġtas k
" ,
Ġes c
Ġopen ed
Ġnot ice
Ġanal y
en sion
ĠTr ans
Ġrepl ace
ra cy
Ġold er
Ġsec ure
Ġthough ts
Ġhe at
ap ter
Ġdi agn
Ġbusiness es
Ġfund amental
Ġsuff ering
Ġv ision
Ġ200 7
ĠW est
Ġgener ally
Ġsp ent
og ue
all ed
s on
G et
ast e
ph one
f erence
Ġval id
T wo
Ġam az
Ġbeaut y
w ith
Ġcook ies
Ġrelationship s
Ġro b
ĠR o
Ġfood s
Ġinc ome
Ġrest aur
pe l
Ġexper t
k en
se e
Ġl ived
ĠChrist ians
I T
ĠInd ia
Ġplac ed
Ġequ al
Ġvar iety
Every one
Ġplan ning
Ġsatis f
ard en
conom ic
m en
L ike
Ġstart ing
Ġe ating
ĠWind ows
erson al
n es
Ġmention ed
Ġ vers
Ġcol le
2 2
ĠR oman
Ġel im
ĠSoc ial
Ġn ice
ĠR ed
ĠP eople
Ġconnect ed
Ġreg ional
Th anks
Ġtre nd
Ġke pt
Ġgl ass
U S
ur g
ord ers
Ġadvant age
ĠG reat
Ġc as
Ġnot e
ĠT ra
Ġear lier
Ġn ames
Ġchallen ges
ĠJ ust
ĠN ations
In st
Ġdo ll
Ġgr and
ĠC ons
Ġfru it
an ish
Ġsymb ol
Ġindust rial
Ġcont ext
al d
Ġcomb ination
Ġrel ating
Ġal cohol
Ġwe ather
Ġc ode
i verse
ĠB ible
Ġcrit eria
ĠD ep
Ġdeterm ined
Ġg ain
Ġaltern ative
Ġre ject
ect ed
idd en
Ġpray er
ain t
Ġcontin ued
Ġexper ts
Ġrem ove
Ġpo ll
Ġweap ons
Ġaffect ed
. [
Ġsu sp
ĠApp le
Ġwor ry
Ġg od
Ġv itam
re p
ut ive
Ġcomm itted
Ġte ach
Ġwor se
n y
Ġr ise
um b
Ġp ick
Ġtr ou
it ors
ĠS on
ĠF irst
Ġ %
us ing
ur ies
U s
Ġthe rap
Ġwonder ful
Ġ3 6
Ġitem s
z er
e y
Ġan cient
ad em
pp ed
Ġconflic t
Ġd im
al y
Ġfe et
ĠCath olic
il os
oy al
Ġc e
C omp
Ġjour ney
Ġm ix
Ġp an
Ġarr ange
ĠOr gan
Ġmov ing
Ġra re
r ants
Ġacc ur
F in
Ġs port
Ġprim ary
Ġh ous
os ure
Ġm id
Ġun ivers
Ġst rug
itc hen
ĠP er
ĠF l
ĠTr ump
ic a
i ers
or ry
Ġphot os
Ġco ord
ĠPro gram
Ġpropos al
h am
Ġext ent
Ġad just
Ġtas ks
Ġsubst ances
Ġhosp ital
Ġv ote
g round
ĠUk raine
p ut
it ure
erv ation
ire ction
ĠD ata
Ġeff iciency
ur ation
erv es
Ġown ers
Ġmat ters
u el
Ġiss ued
e ff
ra q
Ġcl in
ag ue
Ġcon ver
Ġsc he
Ġre ached
Ġw at
2 1
Ġst ated
M ember
al es
Ġreg ions
Ġmultip le
Ġe th
Ġsub s
Ġper man
R ec
Ġrelig ion
Th ank
Ġn ations
Ġman age
ĠE C
ĠSy ria
Ġadvert ising
ĠSec urity
Ġ7 0
Ġobject ive
Ġy e
g g
i ber
ĠE d
ab ilities
Ġident ify
ist an
Ġfil es
ĠServ ice
Ġlangu ages
Ġexper im
Ġst ruct
ĠIn stit
ir ing
ar a
F ind
Ġli ber
Ġinst ruct
Ġsign ed
Ġem issions
Ġha ven
Ġref uge
Ġdog s
.. ..
Ġbo ard
Ġwebs ites
Ġw edding
as hing
Ġjour nal
Ġlear ned
i i
our s
Ġt ree
il leg
ĠI f
Ġatt acks
ar ity
Ġwait ing
T ry
Ġrel ative
Ġmot or
l in
Ġjust ice
Ġobject ives
ĠS und
T e
Ġwill ing
Ġfu el
Ġwin ter
ĠTreat y
id el
Ġfollow ed
Ġprotect ed
R eg
re en
Ġa st
Ġw ood
Ġcomp li
Ġexpl ain
ul ate
Ġs ick
x imately
h ab
Ġclaim s
ograph y
ĠL ife
Ġinf rastructure
Ġmach ine
Ġinstru ments
Ġposs ibility
Ġ ?
Ġprogram s
Ġla un
Ġcal cul
re w
Ġv ill
Ġst orage
Ad d
Ġexist ence
ĠH igh
Ġtom orrow
oc racy
Ġd ial
Ġb order
Ġbehav ior
pp ort
Ġmil k
ĠServ ices
as ion
anc ing
r and
Be fore
ere nces
Ġco ol
ĠE l
ĠP aul
Ġdep ends
Ġt end
Ġw itness
k a
Ġem erg
Ġemploy ment
Ġp u
Ġh olid
Ġ200 6
Ġ That
E B
Ġb anks
ĠM ary
Ġ ign
Ġ illeg
Ġf aster
ĠA nt
W ould
Ġpract ices
Ġag ricult
Ġh om
Ġtrans p
4 0
Ġdisc overed
Ġadult s
Ġcontrib ute
Ġbl ess
Ġarch itect
Ġmedic ine
ĠAss oc
Ġtest s
Ġunder st
Ġing red
Ġprofess ion
ĠM icrosoft
er ous
Ġadministr ative
Ġfl u
Ġgrant ed
Ġapp oint
Ġlab or
Ġconf irm
Ġcor por
Ġve get
Ġc ast
ign ed
rou d
Ġdri ver
Ġsitu ations
ĠD on
Ġcl osed
Ġb and
sel s
ĠSw ed
Ġâ Ĥ¬
Ġm urd
Ġsho ot
Ġde cre
Every thing
in ations
Ġcompon ents
ĠR ec
m ar
Ġref erence
ĠP ort
Ġregist ered
Ġmechan ism
Ġag g
Ġ2 9
Ġsign s
ĠP ark
M ake
Ġnet works
ol f
Ġautom atically
f riend
Ġsh ared
Ġd ivid
ul ations
Ġe p
Ġmov ed
Ġcontin ues
Ġdefin itely
Ġp un
Ġsug ar
Ġrad io
Ġresearc hers
Ġs qu
Ġ3 1
Ġa head
oc ks
i us
Ġra pid
ĠF ore
Ġem p
Ġs ort
a ult
ĠD es
Ġaccount s
ĠF eder
Ġcamer a
ash ion
âĢĻ .
os en
P art
Ġb ra
. '
Ġt itle
velop ment
Ġb urn
Ġen able
Ġpass ed
Ġpursu ant
ĠS o
Ġlet ter
- -
Ġlist ed
Ġreturn ed
il ed
Ġf lex
Ġcomp re
ĠA rab
Ġexp ensive
Ġappro ved
Ġcoll abor
Ġal though
Ġr ates
ĠA cc
Ġm iddle
Ġown er
ĠI raq
Q u
Ġh it
Ġf ine
Ġad equ
yn am
Ġent ry
Ġfore ver
Ġhum ans
Ġd irection
e ep
Ġsol id
Ġl ength
Ġtrad ing
Ġimp ossible
Ġhelp ed
A C
ner gy
O h
Ġbelie ved
Ġr ul
hip s
Ġproceed ings
ad y
Ġdist ance
S p
ĠW ork
Ġscre en
Ġk id
N ever
E O
Ġpresent ed
al t
ĠM arket
C ons
Ġbec oming
ĠH uman
Ġwithd raw
v ation
Ġperform ed
Ġexp and
Ġcert ific
Ġsp ok
ĠG eor
Ġm outh
Ġcl ient
Ġapp lies
resp ond
Ġocc up
at ab
clus ion
Ġchallen ge
ar ation
2 3
Ġs ad
Ġsuff er
c omm
i ver
Ġinnov ative
stand ing
A P
ĠR ights
Ġexperi enced
Ġp et
Ġredu ced
U nder
ĠH er
il ing
Ġregul ations
Ġorganiz ations
Ġjud ge
Ġacc omp
om pl
ĠI S
Ġbeg ins
Ġm agn
Ġres ol
Ġtw ice
ĠComp any
ul a
ib ilities
ap pe
Ġr id
Ġwould n
M an
un ction
Ġselect ed
Ġcrim inal
Ġprep are
Ġdoub t
Ġmonitor ing
p en
O M
Ġfac ilit
Ġtest ing
ĠB est
! !
b ack
Ġcompli ance
Europe an
Ġdisc over
ress ive
Ġd ry
os c
Ġb attle
Ġmill ions
Ġme ant
ĠD is
ant ic
Ġmay be
Ġent itled
ten ance
I I
Ġtri p
Ġse vere
F urther
Ġrel ation
Ġbuild ings
Ġcateg ory
Ġident ity
ĠD avid
i ance
Ġorganis ations
ĠSund ay
Ġpropos ed
ic ed
Ġdom estic
ir med
in y
Ġapp rec
Ġcomple ted
ĠH ung
R E
f ast
Ġre b
ĠItal ian
ĠW estern
Ġdeli very
ub e
Ġh ate
Pre vious
Ġmat ch
us al
Ġamaz ing
Ġfore st
Ġtre ated
ĠJ er
ed s
Ġcur rency
Ġpict ures
Ġd edic
Ġfail ure
c he
Ġcap able
Ġcent re
Ġre form
Ġoff ic
Ġh orm
ĠTe chn
ĠB usiness
ens es
Ġp roud
Ġun it
Ġst ories
Ġlar ger
ur rent
Ġchang ing
Ġwe alth
Ġasse ts
ic o
ĠL ove
Th us
Ġk itchen
Ġsupp lement
ri pt
Ġdistrib ution
Ġst ra
Ġf resh
Ġrel ax
h ouse
o llow
un ic
Ġwh atever
Ġadv ance
Ġst ars
Ġro ck
A L
e ch
i ant
Ġcomp ar
o ll
m ail
Ġim ages
ĠT w
Ġcomfort able
Ġb row
i j
ĠBl ack
Ġam b
Ġair craft
Ġset ting
ocr atic
Ġcomp lic
Ġachie ved
ord s
ĠCan ada
m osp
Ġs ale
cept ion
Ġc ounter
Ġr at
id ay
Ġfound ed
ill ing
Ġmiss ing
' d
D P
ĠG ood
av a
Ġcor respond
Ġpre fer
Ġcand id
Ġsh ip
f erred
Ġappe ars
Ġbr ings
Ġregular ly
Ġso le
Ġpro hib
Ġob vious
Ġfl ow
Ġintrodu ced
Ġ200 0
Ġpriv acy
ĠKore a
Ġinc red
I D
J esus
Ġch ann
Ġen force
Ġfoot ball
Ġadv anced
Ġmain ly
Ġsh ape
Ġschool s
am ing
clud ing
Ġmin or
Ġt ick
Ġhe avy
âĢ ĭ
pl ace
ĠPol and
o ot
Ġcons id
Ġprovid er
in ct
Ġaccept ed
With out
ĠAustral ia
Ġident ified
Ġmot iv
I nt
Ġenc ourage
r is
ens ions
Ġcon vers
ur b
ipp ed
Ġdisc ip
Ġsignificant ly
Ġlead s
ab et
Ġconsequ ences
Ġconf ident
Ġc ourage
Ġb ought
Ġhuman ity
Ġm ental
Ġinter view
ĠSe cret
re land
ĠGo vernment
Ch rist
u ment
ud d
ĠO b
Ġar rest
Ġex port
Ġl ib
2 7
Ġtraff ic
ud i
a el
ĠFr anc
Ġregist ration
Ġst ation
Ġb ound
Ġexperi ences
ĠSp ain
ĠAr ticles
Ġspec ified
Ġcr ime
Ġproper ties
ĠD em
re es
Ġparticip ants
Ġwor st
Ġre ven
Ġph ilos
ĠJew s
Ġres ident
Ġref er
Ġconf erence
I F
ĠA c
o ff
i am
W he
Ġw all
Ġcommit ment
Ġ ice
Ġto t
Ġl uck
L ast
Ġthous and
Ġc lick
Ġmin im
Ġte aching
ĠM ac
Ġconst antly
Ġscient ists
Ġl ines
ul ated
Ġpregn ancy
al se
Ġh ar
Y et
ir t
Ġex hib
ĠM c
Ġadminist ration
in ner
Rem ember
ro id
Ġfl ight
Ġb ath
Ġf if
Ġp ure
ĠPl an
Ġprovid ers
Ġcreat ive
Ġvictim s
Ġme at
ĠPl ay
ost er
ĠCh ar
s hip
Ġto ward
Ġent ered
Ġd atab
Ġat mosp
Ġch osen
ĠH ome
Ġb all
anc ial
Ġex cess
du c
Ġsupport ed
Ġp owers
Ġfund ing
ĠEU R
Ġw ild
Ġopen ing
Ġaspect s
Ġpay ments
g in
Ġ3 5
i ot
ĠV al
Ġ200 5
Ġoblig ation
Ġoff ering
Ġinvestig ation
Ġdream s
Ġlaun ched
os m
Ġc ash
Ġe c
Ġconsc ious
Ġst im
Ġ200 4
us ion
Ġ19 5
G ood
i ar
Ġlink ed
Ġbe ings
j ud
Sh ould
Ġla unch
Ġun its
Ġhon est
on t
Ġinc or
Ġb ird
ĠAs ia
Ġincre ases
Ġany more
U se
Ġdown load
Ġsmall er
ĠTur key
Ġfac ilities
P S
h ow
an i
Ġenem y
ren e
on om
Ġrem ind
Ġdeg ree
Ġm aster
Ġshow ed
6 0
Ġparticip ate
ĠM er
Ġfem ale
Ġhelp ing
Ġbelie f
Ġdirect or
Ġh op
Ġtrans form
Ġsa ved
Ġs n
it ter
Ġmain tenance
ĠEng land
2 8
Ġabsolute ly
Ġman aged
am ily
go ing
i pe
Ġf ans
Ġtrad ition
h y
Ġconcer ns
E T
Ġappro ximately
ĠPart ies
ĠH ot
Ġh oly
Ġrel iable
Ġprote in
Ġphot o
Ġstud ent
Ġbrother s
Ġagree ments
s pe
Ġinit ial
ri ef
ph as
Ġremov ed
mb ly
ĠIn ter
Ġrev olution
l ook
Ġto x
ĠV ol
Ġfor ced
Ġp ages
u y
Ġcrit ical
ĠW hen
omm od
Ġclos er
Ġelectric ity
Un f
ort hern
Ġh urt
Ġcomp ly
Ġact ual
Ġcom ment
Ġprevious ly
Ġreal ize
Ġprogram mes
Ġcy cle
% .
Ġe lection
Ġdel ay
Ġfollow s
Ġg arden
Ġemerg ency
Ġte a
Ġclot hes
ĠPh il
oc ation
ĠA p
Ġtele vision
Ġg lo
Ġlim its
Ġprom ise
il s
Ġmin ute
Ġpl astic
Ġforg ot
ĠS chool
Ġaff ord
Ġsecond s
I V
2 9
Ġc ards
ĠP ope
Ġ5 00
Ġintellig ence
M e
l a
2 6
ĠU s
ĠFr iday
Ġany where
ĠBrit ain
Ġnum erous
Ġun iverse
Ġdep os
Ġpred ict
ĠM ond
ov iet
Ġevery where
ĠWh o
Ġlov es
ĠWh ite
Ġbatter y
ĠR ome
Ġreg ulation
Ġdec ades
Ġorgan isation
em ploy
Ġimag ine
Ġpract ical
Ġhapp iness
ri er
Ġpie ce
Ġthe ory
Ġteam s
ĠJapan ese
S im
Ġdo ctors
ĠA uthor
hens ive
Ġvisit ors
R uss
t es
Ġilleg al
Ġf ra
Ġrecogn ize
Ġproper ly
Ġwel come
ĠAmeric ans
ir ation
Ġf urn
Ġper haps
! "
are n
Ġinstru ment
Ġview s
Ġwind ow
B l
ĠL a
ĠJew ish
ific ations
Unf ortunately
ok ing
Ġparticip ation
ĠIn st
ĠDe velopment
Ġin vent
Ġteac her
um n
Ġconf idence
ĠI reland
Ġap art
ĠAssoc iation
ĠM or
Ġs am
g ent
Ġswe et
Ġsubst ance
Ġdis appe
as tern
Ġr ound
Ġo x
a e
i est
Ġappear ance
ashing ton
Ġdrink ing
qu e
Ġcommunic ations
Ġleg it
Ġhy d
Ġv ac
Ġpregn ant
Ġstart s
Ġag ency
Ġfeel ings
Ġconf irmed
r ance
ore s
Ġan g
Ġcl oud
ĠCent er
ĠP eter
Ġk n
Ġt on
Ġeffective ly
ĠIn formation
ony m
Ġtherap y
ic ians
ĠGree k
Ġinst ance
pect ive
ĠS he
ĠO f
Ġsc ope
Ġconcer n
e al
as k
ar ge
Ġamount s
ich ael
r as
ĠM other
stit ution
Ġimpro ved
O U
Ġofficial s
ad ing
Ġplan ned
Ġregul atory
Ġupd ate
ĠT ime
o e
Ġfight ing
if ts
Ġst ored
Ġdetail ed
y p
y cl
Ġheart s
ĠR el
le ments
Inst ead
Ġdou ble
ck now
Ġcomb ined
Ġenter pr
Ġbl ue
ĠInstit ute
Ġsh aring
Ġbehav i
ĠB en
Ġgu y
Ġk m
m ark
Ġconduct ed
ang ing
Ġbe ar
A M
Ġequ ival
Ġf it
Ġcult iv
Ġst ock
Ġflo or
Ġ200 3
3 5
d den
Ġam end
Ġe gg
Ġperman ent
st e
Ġb ag
Ġsub mitted
ur is
Ġfact s
ot ed
Ġobtain ed
ĠBo ard
et ary
Ġord inary
im b
Ġdut y
at in
port ion
Ġem pt
Ġyou th
ll er
ĠS ol
Ġf ashion
Ġle aving
or ial
ĠA ut
Ġne ither
Ġt aught
ĠAr t
P ol
Ġdecl ared
Ġbu ying
Ġdes pite
Ġd ynam
el p
Ġra ise
Ġtot ally
Ġb ur
Ġcommun ities
Ġl ies
is her
Ġbre ast
Ġtell s
bo ard
ĠM iddle
ĠP C
ang ed
Ġroom s
Ġdiffere nces
atur ally
Ġobject s
y a
Ġshop ping
Ġredu ction
Ġf alse
et ter
Ġf ing
1 00
ger y
om a
ro at
Ġdo se
Ġbro ken
Ġs now
Ġserious ly
Ġstop ped
ĠN e
u k
Ġd rop
Ġval u
Ġsu dden
ct r
Ġcateg ories
c ers
un k
Ġenc oura
Ġhe ro
Ġtransact ions
Ġhistor ical
th at
Ġm and
el lect
8 0
g r
ĠM ore
Ġhappen ing
f ess
ĠS oviet
Ġfin ished
Ġn ine
Ġstr ict
Ġg un
Ġrepe ated
Ġpen al
ĠM od
ĠO ut
Ar ticle
Ġad vent
y m
Ġt aste
Ġgra ce
Ġ4 5
ĠM ot
Ġprec ise
ĠP at
ĠM et
he t
ĠN or
ĠGree ce
Ġask ing
Ġrec overy
ĠSu per
Ġfail ed
Ġl ie
Ġill ness
Es pecially
re m
ĠM ex
ri ble
em bers
Ġsee ing
Ġappe ared
res ents
Ġsu spect
at o
Ġem er
Ġra il
Ġkind s
ar ia
he nt
Ġra ised
ĠP olic
ac le
Ġreg ister
Ġac id
ĠWh y
Ġcharacter istics
Ġde le
Ġmost ly
Ġspe aking
Ġfind ing
Ġatmosp here
est ival
ĠB re
Ġmanufact uring
on a
Ġocc urs
Ġcom ments
Ġt iss
rel ated
rep rene
Ġe lement
Ġingred ients
Ġhundred s
Ġestim ated
Ġstra ight
ĠMond ay
ĠS ch
Ġcomp ens
wh at
z a
Ġcollect ed
Ġv ul
Ġqu iet
Ġfaith ful
Ġfoc used
Ġentire ly
Ġform ed
U p
Ġt ro
Ġco ast
we ll
r ig
Ġent ity
Ġrecord s
Ġens uring
ĠSp anish
ut ing
Ġcontrib ution
ĠS an
ĠCont ract
ly mp
Ġeven ing
Ġdep ending
OR D
ĠE nergy
Ġtre es
Ġreve aled
s k
iqu es
ĠB ut
Ġsub sequ
ĠPro duct
ĠP e
ĠJ ud
Ġprior ity
Ġpri est
Ġf le
Ġme re
ð Ł
Ġte eth
Ġimm ig
abet es
ra ce
ce an
ĠH ave
ĠL ib
Ph one
ĠO ur
Ġserv ed
Ġab road
ro gen
Ġfig ure
Ġdem ocracy
c are
ĠUS A
ress ed
Ġsac r
C he
ang es
L e
b ut
Ġarri ved
ĠC ong
eng ers
ĠB M
Ġfav our
Ġp assion
Ġfour th
s es
ĠProt ection
ru ption
Ġfact or
pp er
he tic
Ġdef end
Ġv es
Ġfield s
ĠB er
um ber
ter day
Ġreg ards
ĠC ount
A ct
ĠWe b
c an
ĠM ad
Ġrece iving
Ġsw im
Ġinvest ors
n el
ĠH ol
ak er
Ġspecific ally
ing u
Ġinform ed
ir ty
Ġrec ip
Ġcrit ic
Ġinteg rated
Ġcommunic ate
ent ed
Ġjud gment
Ġacc ommod
Ġa cknow
Ġmor al
gh an
Per haps
Ġab use
Ġmed ium
idel ines
Ġst reet
ĠAfric an
ĠS af
ĠP ower
Ġgu ys
Ġimpro ving
Ġsho es
Ġsub mit
Ġpat tern
S m
Ġsubst ant
ĠD ef
Ġexp ression
Ġbe ach
ĠT H
Ġdedic ated
Ġmus cle
uris d
Ġspe ech
ect ive
Ġunderst ood
Ġcompre hensive
Ġord ers
A g
Ġcop y
Ġlot s
Ġcontro lled
Ab out
c alled
Ġli qu
ĠSt ud
in ating
ĠG et
ĠE conomic
ĠRes earch
K eep
Ġre con
5 00
Ġfrequ ently
os pel
Ġelect ions
Ġal ive
E P
Ġrep resents
Ġse lection
Ġwis dom
Ġem phas
Ġstrong er
Ġhy p
Ġevent ually
Ġdivid ed
if est
Ġinter ior
ĠW ashington
com ing
ĠDirect or
Ġlo an
Ġf illed
Ġcar bon
ver ty
Ġsim pl
rodu ct
it arian
P r
Ġpo verty
N A
ĠF rom
Ġsound s
Ġindepend ence
Ġpack age
Ġle aves
hent ic
Ġrepl aced
al m
Ġimplement ing
Ġbig ger
Ġenem ies
Ġfor t
Ġair port
Ġh omes
av ig
Ġking dom
Ġacc ompl
Ġadequ ate
l or
or ation
Ġform at
Ġear n
Ġs ides
Ġsc en
Ĩ Ĵ
Ġfe ll
od es
et her
Ġenh ance
Ġrecord ed
Ġappro val
3 7
app oint
ĠF ood
I A
Ġmount ain
or ter
Ġbl ind
Ġtrou ble
Ġstrateg ic
Ġgu ide
Ġgl ad
L ear
rom e
Ġestablish ment
Ġph arm
i xt
Ġc ore
ĠP ost
ive red
Ġinvol ve
ĠQ ue
D A
Ġsubs id
Ġhouse hold
Ġconclud ed
Ġevery day
ual ity
ak ers
Ġmer cy
k ing
Ġp hen
Ġvitam in
Ġman ager
Ġreact ion
C C
ĠDec ision
out hern
Ġprepar ation
Ġd ram
Ġcons ists
Ġsc ale
ĠC ustom
Ġexp osure
Ġar ms
ĠPal est
Ġequival ent
Ġl it
Ġend ed
Ġprocess ed
Ġabs or
Ġposs ess
Ġdep art
b orn
ĠU p
ce ler
Ġar m
Ġcustom s
k ay
Ġp il
Ġcol ors
Ġad m
Ġsupport ing
en ger
Ġch ain
Ġsens itive
Ġemot ional
Ġinterp ret
Ġexpress ed
Ġ200 2
Ġcon ven
Ġm ine
y ou
Ġex ists
ĠPolic y
ĠS un
Ġdial ogue
Ġexcept ion
Ġsh ot
ĠO lymp
Ġfix ed
ad d
E L
Ġrecogn ized
ar r
Ġreason able
Ġbo ost
at ible
te red
Ġdisc rim
Ġinstruct ions
D r
Ġsu c
if orn
Ġmin ister
Ġal le
as ant
ĠM art
Ġbeh alf
e en
Ġ3 00
Ġpre jud
Ġvul ner
Ġgu ess
Ġresult ing
Ġseek ing
Ġclin ical
ĠJust ice
ind ing
Fin ally
end ar
Ġsol ar
re ction
Ġinc ident
it zer
Ġph ase
âĢ¦ ]
Ġprof it
ï ¿
raz y
Ġse lling
Ġm ale
act ers
Ġm al
Ġ #
o oth
ĠIn vest
ĠI P
Ġvol ume
Ġempt y
A meric
Ġapplic ant
ail s
Ġre nt
Ġ200 1
Ġvis ible
Ġfeel s
Ġn one
Ġar my
Ġoper ate
Ġallow ing
ear s
Ġdiv or
Ġan gel
Ġdestroy ed
Ġmy st
Ġsurpr ise
Ġiniti ative
n am
ï¿ ½
Ġsl ight
Ġin n
Ġcontain ing
ĠS ing
Ġrestaur ant
Ġra in
Ġap artment
Ġrecogn ition
) :
ĠS a
Ġg ender
ĠE very
Ġto ler
Ġwatch ing
I P
er al
r ical
Ġinf ection
B C
it age
Ġl inks
Ġob st
ĠE lect
Ġt rib
ĠB ro
r id
Ġlab our
Ġgovern ments
iforn ia
ĠAb out
Ġar ticles
Ġdatab ase
ĠG reen
ipl om
Ġcontract s
us sion
Ġst ability
ĠL ORD
Ġt im
Ġ They
Ġsuc ceed
Ġinstall ed
vis ory
Th rough
Ġdel ivered
9 0
hold ers
Ġnot ed
ut in
Ġclose ly
ater al
Ġqu arter
3 3
Ġj urisd
b ox
Ġrequest ed
ac les
r ight
Ġsp ot
) (
Ġint ellect
C ould
Ġcare fully
if ies
ĠI T
z z
M S
Ġcontrol s
ĠO ld
f ol
Ġmet ab
Ġre tain
atur day
b l
Ġb ond
Ġaccess ible
R el
ber g
Ġprim arily
Ġfunction ing
ĠSe a
I L
Ġtri al
Ġphilos oph
Ġtem porary
Ġw alls
Ġrecommend ations
Ġb acter
ĠS im
ograph ic
amp ions
ĠC ode
âĢ¦ .
Ġh idden
Ġmess ages
Ġâ ĨĴ
Ġc up
Ġk il
n ic
i at
Ġm useum
Ġdra ft
i en
ĠM il
Ġun able
ĠE S
Ġsupport s
Ġsurv ive
ĠII I
oc al
ĠG lobal
k ind
S pe
Ġprof ile
uild ing
Ġres idence
Ġhor se
Ġcall ing
Ġteac hers
Ġholid ay
Ġs ister
Ġsol ve
c ies
Ġvide os
ĠG old
f l
Ġpro ve
Ġoper ator
ĠIslam ic
os ite
Ġsm ile
AT O
w ood
ish ment
Ġexpl ained
Ġoper ators
ĠF ound
ig ital
Ġb ill
Ġsong s
in ter
osc ow
Ġst one
r ors
Ġset s
L ove
Ġlo ad
ific ial
Ġmet al
Ġs en
Ġchar acters
Ġaim s
Ġtest ed
Ġcare ful
og rap
Ġcompet itive
it is
9 9
Ġimmedi ate
C O
Ġcontain ed
Ġansw ers
n o
Ġb ul
Ġbr ight
Ġord ered
ĠSt e
Ġser ver
Ġb read
on ia
ĠPr ime
3 6
ĠG rand
Ġi Phone
Ġd ance
C ome
Ġsur gery
Ġsh ock
Ġrepresent atives
Ġlaw y
qu ality
Ġf ishing
ĠG al
Ġwalk ing
ĠA ff
Not hing
Ġc osm
Ġrelative ly
Ġ iron
Ġenforce ment
duc ation
Ġass um
is hes
Ġsurpr ised
Ġinf ect
em b
Ġg raph
Ġredu cing
Ġremain ing
H ome
Ġinteg r
are t
Ġresist ance
Ġsa v
Ġdefin ition
ĠDep artment
Ġatt end
Ġf ant
b ed
el f
Ġact ing
d own
ĠE astern
3 4
ĠPro v
act ive
More over
Not e
Ġsp l
Ġvis ited
Ġinteg ration
as y
Ġf ly
Ġpie ces
Ġhon or
Ġl augh
Ġdoll ars
Ġun p
ou nder
Ġimprove ment
y pe
Ġtechn iques
ic ide
Ġmist akes
ĠC om
Ġimm une
urs day
Ġch air
and on
Ġincreasing ly
ĠWe bs
Ġnut r
l ines
Ġlegit imate
og ether
Ġfor th
Ġpar liament
Ġdis appoint
F ollow
Ġsal vation
Ġb on
Ġsp ending
ĠM ost
Ġg rown
b its
Ġlif est
v il
Â ®
ag ers
ĠP ersonal
Ġfl ag
f ree
ist ory
Ġag encies
cl aim
Ġtrans mission
Ġconst ruct
usal em
Th ree
Ġ[ âĢ¦]
Ch ildren
ob ile
Ġgu ests
C urrent
Ġend s
Ġpass engers
ĠS am
Ġcorpor ate
Ġse at
St ud
ues day
r ations
Ġsupp osed
Ġhold ing
u a
Ġart ist
Ġn om
Ġch ief
Ġhe aring
Ġaware ness
Ġvis ual
T ra
itzer land
Ġst ake
Ġmag ic
l aw
Ġret ail
ort ion
Ġgl ory
Ġperiod s
Ġent ities
Ġadv is
Ġor g
Ġphen omen
Ġseem ed
Ġcertific ate
G erm
Ġcry pt
Ġmut ual
Ġz one
Ġut il
Ġ x
Ġer ror
ĠS pe
Ġcarry ing
Ġso il
D irect
Ġn orth
Ġg ar
Ġg ather
v a
Ġ >
Ġsm ell
Ġkeep ing
W as
Ġind eed
Ġrem ed
Ġinvest ments
Ġevalu ation
Ġharm ful
Ġm g
Ġse ctors
ere nt
r s
Ġcon form
Ġm ort
ĠCal ifornia
Ġvalu able
Ġd uration
Ġmanufacturer s
Ġst able
ĠMan agement
Ġdep ression
Ġinj ury
ĠC r
og en
Ġoper ational
Ġsp oke
Ġconst ant
Des pite
Ġvolunt e
Ġple asure
Ġrefuge es
Ġst uff
ic on
ate ll
Ġinstall ation
Ġnew sp
Ġfra ud
et ers
Ġarrange ments
Ġpurch ased
ĠC O
Ġharm on
Ġent reprene
Ġ |
Ġsurve y
Ġan x
ĠL eg
Ġp ra
Ġd ro
Whe ther
Ġimplement ed
ĠK now
Ġfound ation
lam m
Ġpro of
Ġdut ies
est ion
J ohn
Ġfl owers
Ġl osing
Ġdest ination
ĠInd ian
Ġfacilit ate
Ġaut hentic
Ġvill age
Ġconcent ration
Ġjoin ed
Ġrepresent ative
W ant
Ġsatisf ied
W ork
Ġmil es
Ġmob ility
Ġobs erved
Ġp ool
ĠS um
ic ing
ĠS ur
ĠS al
ĠF a
R ed
Ġweek end
and er
Ġste el
Ġhous es
ĠM ag
Ġh ur
ĠO ther
ĠC y
io x
Ġdef e
ĠMin istry
Ġstand ing
Ġhe ll
Ġno vel
ĠW omen
cer tain
I M
row d
Ġc atch
Ġl ands
e k
te en
v olution
Ġs orry
Ġbo ys
in cluding
Ġagricult ural
ĠW EB
Ġst ream
Ġsome where
ĠJer usalem
Ġs ins
Ġth r
raz il
7 0
az on
Ġpro portion
Ġsh ut
b re
Ġde leg
ĠA lex
Ġunivers al
ed nes
Ġorgan ic
Ġevery body
Ġn aturally
ĠM al
Ġprejud ice
qu ar
Ġaffect s
Ġ =
ĠS at
Ġa th
3 2
As k
Ġprevent ion
ĠSe cond
Ġf ol
Ġperson ally
âĢĻ ,
Ġ +
t r
Pl ay
Ġsy n
ĠG DP
Ġvers ions
Ġb orders
Ġwide ly
Ġstr ange
Ġappe al
Ġs outh
u nder
Ġold est
Ġ ðŁ
Ġf ill
Ġtra ve
ĠP ay
Ġpolit ics
i as
C o
Ġpos itions
and a
Ġdiv ine
Ġst ands
Ġbreak fast
Ġreport ing
ĠM ichael
Ġche ap
Ġdes cription
Ġstrug gle
ĠU se
ee k
Ġnorm ally
Ġtop ic
3 1
ect s
Ġdisc ussion
Ġsche me
Ġmist ake
Ġpl ays
Ġconsist ent
ld er
app y
Ġbelie ves
Ġb urd
ĠBM W
ĠN OT
Ġtal ks
Ġv ast
olog ist
Ġcelebr ate
Ġm oon
Ġmeet ings
Ġsan ctions
Ġc ra
Ġdi abetes
Ġs itting
Ġslow ly
Ġesc ape
C ol
ivers ary
ĠS aturday
Ġaim ed
Ġhand le
Ġc ere
ak ed
Ġext ended
Ġus ual
or al
Ġeffect iveness
ĠT erm
ĠD iv
Ġremain ed
Ġvict ory
ĠCon ference
Ġoccur red
Ġyoung er
Ġgu ard
Ġprofession als
Ġocc asion
Ġw ake
Ġm ap
Ġpers pective
Ġexc iting
Ġsuccess fully
Ġdis s
t ical
ri ve
Ġcreat es
Ġ15 0
up id
ĠA v
aren cy
Ġe ternal
Ġd iplom
ul g
ober t
in i
Ġinsp ired
wh ich
Ġrep air
ednes day
ĠB ook
cre te
Ġin ner
Ġst re
Ġchar ges
Ġre in
c ar
Ġclass ic
Ġman ifest
com es
r ates
Ġher self
Ġtox ic
ĠJ ames
Ġmult i
Ġplan e
z y
Th ink
u ke
ĠF ree
ĠTh ursday
C om
et t
3 8
iet ies
az ine
Ġfilm s
Ġpl enty
Ġth row
I ON
ĠT est
Ġac celer
ĠFin ancial
ĠAn n
Ġconvers ation
ĠO per
Ġmod e
Ġattract ive
ur ches
Ġcol our
Ġext ensive
ĠNet her
Ġlik ed
ĠPro ject
Ġun known
Ġd ign
Ġb rief
Ġex clud
Ġannoun ce
Ġhe ight
Ġst ages
Ġliqu id
ĠT uesday
Ġpercent age
p et
Ġrequest s
ĠB ig
Ġev olution
ĠS k
Ġj ump
Ġt ired
ic ks
as er
ren ce
3 9
Ġrout e
Ġexpect ations
Ġtw enty
Ġall erg
Ġv ital
iz on
Ġtr ig
ĠQue en
B est
the less
Ġopp osite
Ġpres crib
Ġbirth day
Ġ7 5
ĠAf ghan
k er
Tr ans
app ro
Ġlifest yle
Ġbrow ser
ot ic
Further more
Ġfurn iture
l ong
Ġcent uries
ri ers
w ord
Ġapp s
ĠAuthor ity
Ġaud ience
ĠP ublic
ĠNether lands
pect ed
Ġindic ate
Ġel ig
Ġcont em
ĠSwed en
Ġal t
L ife
Ġsp ring
n ight
Ġdem ands
Ġcal endar
Ġcomb at
ĠM useum
Ġsh ares
du le
Ġfo ol
G u
Ġemot ions
Ġab andon
Ġinf ring
Ġclot hing
ĠF amily
Ġestabl ishing
ag o
Ġreg ime
ĠSecret ary
Ġdescrib e
Ġconsider ation
Ġrequire ment
om ach
N e
Ġg ifts
Ġint ention
Ġshow ing
Ġmom ents
tain ment
il ateral
ĠAnd roid
Ġbehavi our
G oogle
yl um
eg u
Ġnegot iations
ĠV is
Ġmy ster
Ġdri vers
Ġsoul s
Ġthem e
H igh
Ġlib rary
Ġpre f
rodu ction
Ġexperim ent
Ġfinanc ing
ĠM oscow
Ġvir us
ord inary
Ġleaders hip
Ġequ ipped
Ġrestrict ions
Ġcon clusion
Ġcour ts
ĠAust ria
Ġbring ing
Ġtarget s
Ġ199 0
Ġbott le
Ġpain t
z en
Ġstat istics
s we
ĠHot el
Ġmass ive
ĠC ap
Ġperfect ly
i os
et ween
Ġbreat h
Ġcru cial
ĠC reat
M A
Ġsk y
Ġfe e
Ġpromot ing
ĠSt and
ĠF orm
Ġt um
igh ter
Ġknow ing
Ġback ground
es ides
W omen
ocol ate
Ġ rom
Ġjurisd iction
Ġfin ish
Ġfind s
ĠBel g
ĠN eed
G reat
Ġw ise
Ġcas ino
Ġhe aling
Ġyes terday
b order
Ġvirt ual
ten sion
In tern
Ġadopt ion
IN G
Ġaccur ate
Ġen ables
Ġeduc ational
l ife
Ġregard less
ĠR em
oper ation
ound ed
Ġgener ations
ĠMex ico
u gh
Ġorigin ally
Ġmach ines
Ġtransact ion
ut ch
v o
f e
Ġ There
Ġpay ing
Ġofficial ly
Ġincor por
Ġrec ycl
Ġcont rary
Ġsett ings
Ġmov ies
Ġover come
Ġra w
Ġs ight
u ine
Ġdef ense
Ġp ill
Ġlist ening
Ġfriend ly
Che ck
ĠInd ust
Å ¡
ĠWebs ite
ĠSt ar
Ġpo ly
ĠFore ign
Ġto w
ot a
at isl
ĠCh ildren
4 5
Ġin hab
or ters
ĠC ivil
Ġyour s
ĠB udd
anc er
Ġsatis fact
B el
O b
Ġterror ist
Ġintellect ual
Ġdr inks
cri pt
Ġun employ
Ġdis pos
ipp ing
Ġr ide
Ġim pl
A v
Ġbenef icial
Ġn avig
st ate
Ġcho ices
ough ly
end a
ĠSh ould
Ġexp lo
enn is
Ġsc ene
Ġdecl aration
an ied
M ar
Ġ3 2
Ġs ending
Ġdes erve
Ġl ux
wh ile
Ġdest ruction
ens ity
ĠHung ary
ĠU ser
atisl ava
ĠOb ama
Ġne ut
Ġfrequ ency
ĠW ednesday
ag en
Ġincred ible
Ġis ol
Ġfall ing
ĠSw itzerland
Ġexpl ore
Ġopp osition
ĠN ATO
ab led
Ġshould n
Ġc aught
ĠRe port
Ġpartners hip
f rom
Ġant ib
Ġdeb ate
ĠMuslim s
Ġfin ance
Ġform al
ĠC ard
Ġmount ains
Ġlab el
Ġfamil iar
Ġsold iers
ĠÂ »
Ġs and
H aving
Ġexam ples
O ff
Ġmig ration
Ġaward ed
f it
Ġr ank
u ments
Ġsh ar
ĠTw itter
ia h
ĠM ount
Ġpur s
Ġtax es
Ġm ood
Ġs ons
Ġauthor isation
Ġcal c
Ġlic ense
Ġc ab
ed ing
Ġun s
Ġpublic ation
Ġunt o
ĠPalest in
Lear n
Ġgu idelines
Ġb omb
m iss
Ġident ification
u an
li ers
T S
Ġrad ical
Ġc razy
our ce
ĠEn vironment
Ġh ung
itc oin
ĠJ ose
ĠPri v
Ġro of
Ġf eder
Ġper mitted
ap ers
ĠB al
Ġgrad ually
Ġha bit
O P
Ġpropos als
Ġhold s
ĠB y
Ġindic ated
ĠD en
er ation
i h
Ġtrans ition
ĠCon stitution
St art
Ġport fol
ish op
Ġde ar
Ġst omach
Ġun ion
c omp
Ġchemical s
Ġchild hood
Ch ina
Ġper sec
L ist
Ġv ary
Ġun like
g age
ĠF re
ĠGeor ge
Ġf asc
Ġdesign ated
Ġhelp ful
Ġcomm ission
G ive
Ġfac es
Ġabs ence
ĠC he
ĠM ark
Ġstre ets
Ġundert aking
ĠCent re
Ġstate ments
R A
Ġmus cles
ĠSoc iety
Ġh un
Ġart ists
Ġp al
Ġdo ors
ĠNew s
Ġd inner
Ġstruct ures
ic ian
ĠCh ild
Ġemploy ee
ĠN ow
Ġtransl ation
Ġf an
Ġwin ning
ĠOrgan ization
ĠProgram me
Ġbi ological
um in
Ġfe es
he red
it an
Ġvis a
V ery
Ġtyp ical
Ġt ough
ro g
Ġpri ests
20 13
ĠAs se
Ġconstit ution
Ġref used
Ġtransport ation
Ġclaim ed
Ġdis cl
Ġexclus ive
in ning
Ġcompens ation
Ġad verse
em ed
if ice
O L
ĠProt ocol
E m
Ġang ry
ĠW ater
uth ors
Ġmig rants
Ġthreat s
Ġcomm ittee
ĠM aster
Ġinn oc
S A
k ish
b el
Ġth y
Ġposs ibly
Be ing
Ġreal ized
E EC
Ġrem ote
Ġmyst ery
i ability
ĠJ our
ĠV ir
og a
ĠB razil
ĠSt reet
Ġpro sec
Ġc rowd
ĠAcc ount
Ġext ract
Ġcond em
Ġclean ing
Ġnot es
Ġobs erv
S ub
Ġtrend s
Ġri ver
Ġdynam ic
ĠC at
ul s
ĠM at
ak ings
c ific
Ġlov ing
Ġphot ograph
ĠFound ation
Ġ199 9
c ue
Ġas ks
ĠL ight
Ġf rag
S c
ĠDes ign
Ġwar ning
Ġur ban
i ences
ĠN az
Ġsaf egu
Ġpro ven
Ġdep loy
Ġupd ated
l ation
ad ow
Ġdet ect
Ġaut onom
Se cond
ĠTr ade
Ġs ession
T ime
Ġbe er
Ġapprec iate
Ġdign ity
ro s
E F
ans ion
ĠC ross
Ġbott om
Ġh ide
Ġtell ing
ĠS ub
u ing
Ġexpl os
Ġapp arent
Ġco al
Ġper mission
Ġfru its
Ġco vers
Ġcompon ent
Ġun iversity
Ġcolle ge
Ġac adem
Ġturn s
Ġsuff ered
Ġtyp ically
Ġst y
ĠContract ing
enc ing
Ġrapid ly
om as
ĠG l
ism s
Ġch ronic
Ġloc ations
Ġarchitect ure
p ress
orm al
in os
Ġadd ing
as ters
Ġtrans ferred
ram s
Ġreven ue
Ġown ed
y stem
iff erent
Ġjud icial
Ġcon vent
Ġdist ingu
ut or
Ġb le
ic ation
Ġgre w
Ġstrateg ies
Ġ id
Ġcomp osition
par agraph
Â ´
Ġfig ures
Ġconsult ation
t ion
et ime
m al
ĠC roat
op les
Ġorgan ized
Ġbut ton
Ġdi am
Russ ia
ab ies
Ã Ń
Ġr u
Ġ 000
Ġj u
ĠBr atislava
ult ure
Ġclass es
Ġno ise
Ġinvol ves
Ġneighb or
Ġcr imes
Ġli ver
Ġterror ism
m ary
ĠPol ish
Ġlo ans
Ġsc hed
Ġsubject s
ĠR ich
Ġcollabor ation
S w
Ġforgot ten
Ġse es
Ġopin ions
Ġar med
r ich
Ġfa ult
Ġun us
ĠS en
Ġatt rib
W el
Ġtransp arency
Ġst ick
us sels
Ġparagraph s
Ġdisp ute
Ġexerc ises
ig aret
Ġput ting
m et
Ġon going
Ġlegisl ative
Ġconscious ness
ĠL atin
Ġt ips
ust ain
Ġsm ooth
ed ia
ĠG ospel
Ġexpl an
ener ation
ĠNet work
Ġflex ible
Ġelect ed
Ġper f
f in
ĠAr ch
Ġli ability
Ġauthor ised
Ġcorrect ly
Ġpar am
7 5
Ġchar ged
Ġre ward
Ġprodu cers
or gan
oc ated
Ġdiscrim ination
r ust
oc ial
Ġground s
ow ered
if orm
al le
Ġch ose
ĠM ars
Ġref ers
Ġm ent
ay er
Ġme al
E M
ag on
e per
Ġmurd er
Ġse cre
Ġrecogn ised
M us
os h
Ġcal ories
Ġag ent
er ce
ĠW eek
ĠI r
Ġtechn ological
les h
Ġexclus ively
Ġelim inate
Ġfulf ill
Ġbacter ia
Ġdec or
Ġrep ut
Ġsa ving
Ġh at
Ġthere of
Ġmet ers
Ġcomput ers
ce ived
Ġprodu cer
swe red
ag ues
Â ·
n ect
ĠC EO
Ġwrit er
Ġcal m
4 8
Ġgen uine
Ġpresent ation
Ġspok es
Ġun w
Ġun ity
ĠM ake
Ġan onym
Ġsudden ly
Ġdirect ed
Ġundert akings
Ġdeg rees
yr ight
Ġarrest ed
Ġdiscip les
ĠU nder
Ġout come
ĠO pen
M r
ĠH or
Ġh unt
Ġter rible
Ġst upid
Ġpoll ution
Ġvacc ine
Ġno body
Ġbank ing
id ance
Ġadvant ages
Ġdem ocratic
Ġple ased
P resident
Ġdeep ly
D ep
Ġprom ised
Ġdist inct
B ack
Ġs atell
Ġcommon ly
Ġapply ing
ĠF e
ic y
Ġwe aring
m aking
arent s
ang ers
Ġperson ality
Ġrenew able
Ġwat ers
Ġcont rast
Ġeng aged
Ġfac ing
Ġcy ber
ĠE ducation
ot o
Ġw a
f ield
ĠAd minist
Ġfind ings
Ġoffic er
ha ust
el ve
Ġrad iation
ate ful
Ġbird s
it ants
ĠIn c
Ġegg s
r ong
ĠE ff
ĠAm azon
Ġkill ing
4 6
Ġdra wn
ber t
G eneral
ĠE nd
Ġart ificial
Ġmere ly
Ġha z
Ġaccomp anied
un ity
Ġfe llow
ĠIs land
erv ous
ĠS ection
Ġdef ence
Ġw id
y d
Ġsuggest s
ad or
Ġev ol
ĠCong ress
ra ction
Ġint ense
Ġrespect ive
Ġcollect ive
Ġmark ed
Ġexam ination
Ġalle ged
Ġdark ness
Ġbath room
Ġr ing
Ġsm oking
Ġdep th
Ġwin ner
Ġs ought
Ġk iss
ple te
Ġan swered
ent le
ĠSp ace
Ġappoint ed
Ġsupp liers
Ġ Ã
ĠS pecial
Ġatt itude
it ar
Ġ: )
Ġbr idge
Ġd iversity
Ġ4 8
T H
Ġdec ade
w ater
Ġca using
Ġf ert
Ġ19 0
K now
ol a
Ġs ch
Ġtalk ed
Ġaccommod ation
om in
ĠFeder ation
Ġportfol io
Ġassoc iation
ĠM en
Ġsw itch
Ġphilosoph y
Ġcomp r
Ġgen etic
Ġcon crete
Ġsqu are
Ġbe at
tic s
Ġfulf il
Ġbelong s
Ġprotect ing
ĠSw iss
Ġnot iced
Ġsu icide
Ġnot ification
ĠOn line
Ġveget ables
ĠS aint
Ġout put
] .
Ġtro ops
Ġequ ally
Ġexp osed
ĠSy rian
Ġleg s
Ġpromot ion
ĠT our
k es
Ġch apter
Ġvac ation
Ġref use
Ġint ent
Ġag ents
Ġin ject
Ġrun s
Ġbo at
Ġform ation
ĠAsse mbly
u ction
C ar
Ġfunction al
p ir
Ġco ach
Ġsupp lements
T C
Ġdeath s
be ing
ious ly
Ġnut ri
ĠR oyal
Ġdifficult ies
ĠF il
Ġaddress ed
Ġye llow
Ġas ylum
Ġplatform s
Ġinv ited
Ġvulner able
Ġmedic ation
Ġdef ine
Ġt un
Ġcert ification
Ġsy nt
Ġz ero
Ġher itage
ĠAt l
Ġarri ve
Ġl oyal
w w
Ġv ent
Ġkil omet
x ual
Ġun ex
Ġro ots
Ġweak ness
Ġavail ability
Ġresour ce
Ġs isters
Ġw ire
Ġfil ter
ĠHar ry
ĠAc adem
ĠM ess
19 9
Ġper mit
Ġprior ities
Ġphot ograp
Ġeuro s
s per
Ġexpert ise
Ġl atter
Ġ4 00
Ġactive ly
Ġstrug g
Ġoff ices
Ġinsp iration
Ġmetab ol
Ġmedic inal
Ġr ub
Ġdifferent ly
Ġann iversary
nt il
ĠW here
Ġsm oke
ul ed
e ous
ugh t
Ġhy per
Ġtiss ue
Ġha bits
Ġtransp arent
Ġg ained
ĠL ab
Ġsav ings
Ġcre w
Ġinterp re
ain ts
ĠRe al
Ġcomplic ated
ĠP utin
? ?
Am ong
Ġa uthors
Ġind irect
ĠD og
ĠTechn ology
Ġfarm ers
T ell
Ġt ong
ĠA ccess
Ġintrodu ction
b urg
we et
Ġintegr ity
Ġsleep ing
Ġextra ordinary
Ġpeace ful
Ġbr ands
Ġparticip ating
lic ations
Ġhealth care
Ġp us
ob ody
ĠFranc is
Ġn ervous
Ġm ole
Ġwind ows
Ġprec ious
Ġd ies
Ġfac ility
ĠA ction
ĠM o
Ġadvent ure
Ġdam aged
re qu
con s
Ġelig ible
el ess
Ġspok en
Ġext end
ĠDo es
Ġp ig
Ġconfident ial
Ġchann els
Ġ3 4
ĠAt t
Ġ3 3
Ġstrong ly
br id
ist ance
i ary
um er
ĠP an
Ġcomp atible
Ġinterpret ation
y gen
ĠMed ic
Ġexec utive
Ġslight ly
Ag ain
Ġeng age
Ġcor ner
Ġelect rical
ath y
es ome
Ġcomplain t
Ġent ering
it a
ick ed
en a
Ġm m
Ġconsid ering
ste in
Ġcontrib utions
Ġis lands
R ep
Ġb inding
ag ram
Ġsign al
Ġfall s
Ġin her
en ess
Ġp ush
ie ve
Ġlik es
Ġfew er
Ġcont est
C T
Ġre ly
f ord
Ġserv es
Ġpass enger
Ġb urning
ĠHe art
Ġpe oples
Ġpublic ly
ing ly
Ġhe ating
ĠTh ings
Ġsil ence
Ġman ip
Ġtechn ique
nov ation
Ġc art
Ġsac red
lo ved
em s
Ġve ter
Ġacqu ired
ist ical
Ġmove ments
Ġbus y
Ġpre ced
ĠPort ug
ab il
Ġl unch
it als
Ġwor ship
Ġinj ured
Ġfriends hip
ult ane
ĠG ames
ĠSt ep
Ġrec over
Ġdeal ing
ĠâĢ Ŀ
Ġstore s
Ġgr ateful
Ġsome body
ĠM ass
Ġdis order
as p
oles ter
ĠI V
Ġret ire
an ch
Ġex ch
Ġenjoy ed
ĠD igital
Ġreview s
Ġsche dule
s uch
Ġon to
Ġrepresent ed
Ġgreat ly
ĠMus ic
Ġwithdraw al
Ġlet ters
Ġreact ions
ĠS ee
ap y
Ġmix ed
Ġv ib
Ġmaintain ing
Ġo kay
Ġsh ap
Ġag es
Ġlight s
oc ur
ĠMart in
Ġ6 5
Ġexcept ional
ac ing
y al
Ġo d
With in
U N
Ġprom pt
Ġwhe el
in als
Ġrest ore
ĠAr my
Ġd ates
Ġhung ry
re al
Ġleg end
Ġexc ited
u ation
ant ed
Ġso vere
Ġlight ing
i pt
ĠIn s
ĠS M
ĠAd d
Ġweap on
' .
part y
Ġk ne
Ġbroad cast
gr ade
Ġmiss ed
Ġrepe at
Ġinvol ving
tern oon
Ġcontinu ous
Ġm o
Ġexpl ains
ĠBr ussels
Ġdivor ce
Ġposs ibilities
Ġro ot
ran ean
Ġfirm s
ĠI ce
ĠW ay
Ġwas h
Ġcol on
Ġm ixt
ĠAfghan istan
Ġcomp rom
Ġro t
ll s
nd rome
Ġan ger
ĠR obert
Ġsole ly
4 4
Ġwhen ever
Ġdiscuss ed
T ube
it ical
h ost
Ġstud io
Ġstim ul
olester ol
Ġemploy er
Ġtem ple
Ġref ere
Ġm ac
ĠCl ass
Ġacc used
Ġpotential ly
Ġloc k
ĠLe ague
V is
ĠChristian ity
ĠC are
ĠFr ank
Ġreturn s
ĠIsrael i
le an
I R
Ġb orrow
ĠR ob
Ġ9 5
Ġdevelop ments
all ow
ition ally
lic ation
ani el
Ġpro spect
Ġmem ories
Ġth ick
ĠT er
ĠR ight
Ġpark ing
Ġorg ans
Ġd ad
Ġ3 8
ĠCon f
Ġsubsequ ent
Ġme l
Ġc ats
Ġguarant eed
Somet hing
Ġanx iety
ke l
Ġdecre ase
re ate
Ġkeep s
Ġfor um
Ġcho osing
Ġenc ounter
Ġprohib ited
D ef
Ġman kind
ĠPro fess
Ġnecess arily
Ġsal t
Ġmeet s
un ning
Ġsacr ifice
Ġaccount ing
Ġinf lamm
Ġd ating
Ġupd ates
ĠT imes
Ġtreat ments
Ġpack aging
Ġch ocolate
Ġult imately
C A
ĠBer lin
ĠD NA
Ġserv ing
Ġcorrespond ing
Ġreject ed
* *
Ġtour ist
ri e
Ġad s
ĠS ite
P s
Ġfif th
Ġsw ear
Ex per
le vel
Ġf lood
ax y
P ar
in ity
Ġprodu cing
Ġrestaur ants
r d
Ġfeder al
ill ance
Ġte en
Ġest ate
Ġshoot ing
Ġne uro
Ġdiagn osis
Ġequ ality
Ġcut ting
Ġep is
Ġread ers
amb ling
ink ing
Ġimp osed
Ġill ust
Th ough
Ġeng ines
Ġer a
Ġun certain
Ġst ood
ck ing
ĠSc ience
Ġmedic ines
Ġsuper visory
Ġstri ke
Ġ ~
ut er
F i
Ġsub paragraph
Ġdiv ision
Ġele v
Ġw al
Ġqual ified
ĠA D
Ġves sels
pp ing
ide o
Ġintrodu ce
Ġburd en
Current ly
is p
Ġrout ine
Ġadvert ise
ĠTur kish
Ġsen ior
ĠFeder al
Ġph ones
Ġmembers hip
Ġinfring e
r ating
Ġ3 7
Ġse ed
i ov
Ġstud ied
c end
t a
lic it
Ġcomple ment
Ġchann el
Al ways
ic ious
iter ranean
Us ing
ĠC D
Ġdim ension
Ġquant ity
ĠR ef
Ġconver sion
ĠD utch
ĠSa udi
Ġmus ical
ĠHe aven
ell ing
B A
g ia
Ġop ens
Ġaud io
Ġautom atic
Ġlif etime
Ġluck y
ĠS ant
Ġintellig ent
Ġs outhern
Ġm ail
ec utive
Ġtal ent
ĠD el
e h
B en
ors es
Ġcandid ate
Ġconven ient
C H
Ġregard ed
Ġgu idance
ams ung
cess ary
ĠI D
Ġst orm
ĠV ict
Ġhistor ic
ak istan
oster one
s he
g rad
Ġunus ual
av or
Ġconsid ers
Ġt ight
r at
Ġexp end
ĠF ire
ĠR et
H ope
U ntil
Ġprepar ing
Ġcoord ination
Ġmag azine
Ġex haust
ĠS il
Ġgod s
ĠV i
Ġst ret
ograph ical
Ġmechanism s
Ġconf ig
Ġvisit ing
Ġd ying
ft en
ĠG en
ren cies
Ġtarget ed
S T
Ġinter vention
% ,
Ġer rors
ĠAff airs
Ġconform ity
Ġcalcul ated
Ġmov es
Ġpost ed
Ġfl ower
Ġim per
Ġth or
is k
Ġsh ame
l av
St ill
Ġc oun
N obody
ĠC up
ĠCont rol
Ġsearch ing
d ate
Ġrespons ibilities
Ġst ations
ap se
Ġun iform
d ent
Ġe lder
ro c
Ġpl us
Ġan tic
Ġprecise ly
Ġbe loved
Ġ198 0
ĠHe ad
Ġwar rant
Ġspeak s
ĠJour nal
Ġfunction ality
ĠT re
im al
we ight
Ġliter ally
Ġindust ries
atic an
A ss
Ġc rop
Ġox ygen
Ġcompar ison
Ġtele phone
Ġwis hes
Ġf lying
ĠB itcoin
ad ian
Ġprop he
Ġhorm one
Ġdes ired
ĠR ad
Ġsc ript
ĠComm on
Ġo cean
ĠA fter
Ġpain ful
Ġtem pt
olog ists
Ġpubl ish
Ġad mit
Ġor ient
Ġf old
ĠF uture
Ġt ack
Ġpenal ty
Ġinfect ions
Ġc ure
Ġthe r
Ġsp ons
Ġa er
Ġdep artment
Ġun cle
Ġleg ally
M en
ac her
ĠE mp
ri p
Ġth inks
ĠCl ub
_ _
Ġple asant
ĠB ody
Ġus age
Ġ199 8
Americ an
Any one
Ġarri val
ut y
Ġrem ark
Ġbro ke
Ġsim ultane
D ue
c ure
Ġsurpr ising
Ġl au
Ġpr int
Ġgener ated
Ġmaintain ed
Ġaf ternoon
b ration
x it
ĠE st
Ġsw ord
Ġnot ified
ict ed
Ġtour ists
Ġmy th
ĠC ub
Ġult imate
Ġass igned
ot ive
Ġcolle agues
ar row
ĠSaf ety
Ġrecord ing
In formation
ĠD i
h us
Ġl ad
Ġnewsp aper
ĠAcadem y
Ġfree ly
? âĢĻ
Ġsuper vision
w ing
Ġres erves
h and
ron om
Ġsecond ary
Ġreput ation
Ġpolit icians
ut ical
et ing
Ġprodu ces
ĠB ulg
ure au
Ġcor ruption
Pro t
enn a
Ġbon us
Ġear s
abl ing
ĠTerm s
6 5
ĠA L
cel ona
ĠUk rain
ĠB ill
Ġlow est
Ġgra ve
m m
Ġserv ant
, âĢĻ
clus ive
Ġpr ime
ick ing
Ġhead s
M od
Ġo ught
ul f
Ġmedic ations
Ġreg ret
Look ing
Ġoblig ed
Ġoffic ers
Ġlarge ly
Ġsurround ing
ĠCh apter
Ġdi verse
he im
Â °
ĠD et
Ġenterpr ises
ĠT om
Ġprom ises
ĠSc ript
Ġiniti atives
G O
ĠC ond
Ġb abies
p oint
ĠL and
ĠL ong
Ġcl ar
Ġinv ite
Ġv en
Ġloss es
Ġse eds
ĠIn f
Ġfl ights
Ġn orthern
Ġst er
Ġasse t
it ler
id a
ar n
Ġexp enses
Ġb ow
ĠSu pport
Ġt urning
Ġres cue
ov o
pr ing
Ġexcess ive
em ption
ĠPr ince
ĠM ax
Ġresident s
Ġpat ent
um es
ry pt
ĠSt at
t here
let es
k i
Ġpers ist
Ġcandid ates
ce ive
Ġdom in
Ġ4 4
ĠMed ia
S P
Ġro se
ot al
Ġsitu ated
Ġexp ansion
Ġsatisfact ion
Ġindic ates
Ġman aging
Ġprescrib ed
Ġflex ibility
Ġne ck
Ġrare ly
ĠS up
o or
ĠVir gin
Ġche cks
Ġhuman itarian
ĠB uy
Ġgreen house
it ate
Ġan c
Ġens ures
ul ous
Ġp ump
Ġsent ence
ĠS av
Ġpain ting
ĠJ ack
ĠDe ath
Ġf estival
ĠMed iterranean
Ġdis aster
g u
Ġlawy er
ur ities
Ġres ort
Ġpo et
Ġacqu is
Ġachie ving
Ġreve al
F ree
in et
ult s
o ch
Ġe ast
Ġmeas ured
Ġ5 5
Follow ing
Ġper m
Ġp ed
Ġdist urb
Ġris ing
Ġengine ering
Ġreplace ment
Ġsh ips
Ġcert ified
Ġde lic
ace utical
ĠJose ph
P ri
Ġmin istry
ĠL ast
Ġagricult ure
ĠA ge
Ġcap abilities
Ġbal anced
Intern ational
Ġremov al
in ced
ĠM iss
Ġhand ling
Ġcelebr ated
P at
Ġf ounder
Ġder ived
Ġfavour ite
Ġass ume
Ġinj uries
ple ment
Ġbreat hing
le ts
Ġme als
ĠH am
hem ical
Ġsurv ival
Ġex tension
ĠG irl
Ġf lesh
ĠRo ad
Ġdec ent
Ġcitiz en
Ġwar ned
est y
Ġind ex
ĠR iver
Ġhigh light
Ġpres ents
Ġact or
il er
Ġu pper
Ġjust ified
ĠV iet
Ġport ion
Ġcult ures
Ġmir ror
M in
Ġfact ory
Ġmonth ly
y e
Ġf ab
b or
Ġsolid arity
T A
C E
Ġwalk ed
Ġ icon
Ġperson nel
ĠEC B
ĠW all
ĠAir port
er als
ĠT em
Ġexhib ition
Ġfing er
y an
Ġlux ury
Ġch olesterol
Ġphenomen on
ĠSh ow
Ġse ats
ous es
ĠS ky
oc a
ĠF ord
Ġch urches
clus ions
ĠP et
Ġab ortion
ll a
Ġhous ing
ĠB as
l ad
Ġf ro
Ġfulf illed
Ġsett lement
in ent
Ġroad s
ĠH en
ĠV er
Ġpsych ological
L E
ĠW i
Ġmot ion
ĠCh arter
Ġd ust
Ġguarant ees
ĠEx per
M ean
Ġdisappe ar
ĠSat an
Ġdifficult y
Ġhe av
Ġtravel ing
ou red
other apy
ent h
Ġl oud
ur se
A c
Ġsubstant ial
b ally
ast ing
F our
Ġch ances
ĠH istory
ĠPri ze
W orld
ic it
Ġresol ve
Ġhard er
Ġt ail
Ġmind s
Wel come
ill a
ĠW ars
Ġal arm
n ament
Ġg entle
Ġtick et
Ġelect ron
ĠCustom er
ion e
Ġsurve illance
Ġcour ses
v an
Ġnear by
Ġsecre ts
Ġatt ached
ist or
Ġcomp are
Ġdepos it
ĠL ive
Ġforg ive
ĠRe volution
Ġsc hem
Ġsupp lier
Ġswim ming
Ġsc ore
t op
Ġen orm
Ġfant astic
Ġmar ks
Ġp ull
Ġro w
Ġredu ces
ĠM embers
ĠProduct s
Ġwor ried
A D
g i
ic an
Ġtour ism
Ġfl at
at re
Ġir re
P ost
Ġdra g
Ġregul ated
am ber
9 5
Ġpriv ile
ĠV atican
Ġc ow
s en
t ra
Ġcomplain ts
Ġvitam ins
Ġmod ified
Ġb io
Ġshe ep
Ġcop yright
Ġnutr ition
Ġcrypt ocur
Ġde emed
ru it
Ġtar iff
Ġhot els
ĠM oon
Ġdisplay ed
st ream
ĠAd am
or a
ve y
ĠC as
Ġpost s
Ġunex pected
ĠYou Tube
Ġdepend ent
ĠCl in
Ġpro claim
ar io
ĠPe ace
acc o
Ġconstit ute
H as
ĠB ack
Ġperform ing
Ġce ase
Ġfr ame
Ġneighb our
Ġvolunt ary
Ġt ort
g ers
ĠJ ob
Ġsu it
Ġexec ution
Ġinnoc ent
O ut
Ġag ed
Ġtick ets
In cre
Ġpra ise
Ġdraw ing
ĠC ast
Ġprof ound
il ty
Ġh oney
Ġsubst it
Ġright eous
er tain
ĠF riend
H elp
Ġr ic
ĠE xt
Ġspl it
ch ain
ĠSwed ish
ar ks
Ġmanufact ured
ĠAn gel
ish ops
Ġch ick
ĠT im
Ġtrans formation
Ġat tain
ic ip
Ġpro sper
Ġro yal
Ġdom ain
Ġpil ot
ĠFor ce
n ings
Ġb ike
up s
a uthor
st ruction
Ġt ennis
Ġban ned
Ġar ising
Ġsepar ated
p ons
l ow
Ġclass ified
ru ck
ĠOlymp ic
Ġacc um
z one
Some one
port ant
do or
as ures
t t
d isc
O D
p erson
ĠKore an
Ġthere by
ak s
ok ed
ĠK h
Ġc oc
Ġprevent ing
ĠAn ge
P oint
ast s
Ã ¼
ĠEx ecutive
Ġrel ief
ĠTH E
Ġfre ed
ad ays
Ġpray ers
Ġtong ue
Ġexam ine
uc ks
Ġcamer as
Ġphys ically
Ä į
ĠYear s
F e
Ġoper ated
os ystem
Ġacknow led
Ġconsum e
ĠN ext
Ġdis ag
Ġconv inced
Ġcele bration
Ġph r
the y
h op
l ock
S cient
Ġf ib
ĠA ward
Ġconflic ts
Ġres erve
le ge
at hered
Ġsustain ability
Ġrul ing
Ġint ake
cl ass
Ġsuggest ed
Ġdis orders
I G
Ġwat ched
ĠH y
Ġsmart phone
Ġin se
Ġtable ts
M on
He alth
ac he
Ġsched uled
Ġfor b
ĠL ike
Ġnot ify
Ġform ula
ange l
Ġgrad u
Ġw estern
Ġliter ature
Ġcop ies
Ġg all
a wn
im ent
Ġwhere ver
th is
A ut
red it
Ġdel ight
Ġunemploy ment
Ġman ual
Ġgener ate
ch ar
Ġaff il
Ġsur f
Ġ1 20
Ġmed itation
D isc
ĠK en
Ġcy cl
Ġmat hem
Ġg al
ĠA N
Ġdisc overy
Ġsafe ly
ft ware
Ġfac ed
on na
W atch
Ġse qu
Ġpo ison
Ġhas n
p ol
Ġdecl ine
z ing
ĠN ight
Ġaddress es
ene z
ĠAustral ian
ĠBl ue
Ġtra ined
ĠSc ot
ĠTr uth
ĠP R
Ġcover ing
Ġmon etary
ĠV en
Ġ3 9
out s
ut ors
ne cessary
Ġh all
Ġlic ens
Ġjournal ists
Ġmar ry
ĠL ead
pe ction
Ġcar rier
Ġdoll ar
ĠOr der
Ġcontinu ing
ĠIr ish
Ġdele te
B ased
Ġdocument ation
Ġprogram ming
Ġm ask
Ġobvious ly
p in
ĠCh ampions
Ġfun ny
M ed
Ġr an
ever al
Ġsupp lies
Ġmother s
Ġarg ument
p ass
Ġforg iveness
Ġconvent ional
C P
g ency
Ġgrow s
Ġpr ide
Ġsil ver
ur able
ac ific
Ġcons olid
ĠC amp
Ġaccept ance
ad vant
Ġdemonst rate
th ird
Ġt all
Ch oose
ra ham
Ġtri als
D et
ir y
ĠG ame
ĠH elp
Ġshe l
ĠNor way
Ġcommit ments
D is
20 14
yp es
Ġaff airs
Ġt ears
g or
ĠP erson
200 9
Ġmyster ious
Ġins pection
4 9
i ological
an o
Ġsh ower
Ġn ative
ĠD isc
Ġsil ent
hes is
Ġcon sec
s m
Ġinhab itants
Ġcontract ual
H O
Ġsee ks
et ics
in em
Never theless
ation ally
Ġse m
Ġprem ium
d es
Ġpl ug
Ġmand atory
Ġenter tainment
Ġr ural
Ġmanufact ure
Ġtest im
Ġf isher
Ġc igaret
Ġcapt ure
Ġtrou b
Ġinter f
Ġdistrib uted
Ġbatter ies
w rit
R et
Ġcivil ization
ĠT op
v ity
Ġt ank
ĠBelg ium
iff erence
u ct
Ġfrequ ent
w hel
Ġch at
all ing
Ġenterpr ise
Ġ8 5
Ġto ys
Ġhard ware
R ight
ic ago
Ġcontact s
Ġpan el
Ġse vent
ĠH D
it ative
G B
Ġac ids
Ġst ro
Ġattempt s
ĠCor por
Ġ199 7
Ġterrit ories
m arket
Ġdim ensions
er ies
ĠL ady
Ġap ost
angu age
ĠI N
Ġsign als
Ġpen sion
ĠFr amework
Ġd ict
ĠPart ners
Ġprot ocol
Ġpar ad
c f
ĠÂ £
Ġfair ly
E E
as m
Ġ2 50
ĠR ules
ĠL os
Ġdef ault
ĠE conom
ĠP akistan
Ġent hus
ĠN orthern
Ġvot ed
se y
Ġdri ven
i ates
Ġin put
ri ving
Ġab ilities
ĠY OU
Ġg ambling
ib l
Ġexplan ation
Ġre aching
Ġnutri ents
Ġtrans f
Ġam ended
Ġref und
Ġdet er
Ġautom ated
ĠB os
Ġend ing
ĠCroat ia
Ġcont ra
Ġsupp lied
l ive
iox id
Ġantic ip
Ġspe ct
ĠBar celona
Ġ )
Ġcon qu
Ġneut ral
and om
Ġlands c
Ġtemper atures
Ġsatell ite
ĠCommission er
ĠL iber
Ġaw esome
ol er
c hers
ĠP res
ĠArab ia
Ġdirect ive
ĠEn ter
Ġw ars
Ġeth nic
Ġimport s
o ices
Ġprot est
Ġminim al
Ġobst acles
Ġi P
er ry
Ġdesign s
Ġcl imb
Ġbless ed
Ġemploy ed
Ġprison ers
ĠH IV
Ġn arrow
Ġhun ger
Ġtrad itions
Ġtop ics
ĠSer ies
a fter
Ġpass word
Ġsurround ed
it i
Ġ *
Ġjud ges
Ar t
Ġpun ishment
P R
Ġaccomp any
ĠCh air
Ġdiam ond
ĠS ign
Ġde eper
Ġowners hip
Ġviol ent
enez uel
Ġto ile
Ġcook ing
Ġmen u
i ac
P ay
Ġcre am
E ar
Ġsc an
ann a
T w
Ġdo ctr
ĠL ist
ck er
Ġstay ed
ĠL ou
Ind eed
Wh atever
Ġar ise
T O
Ġcooper ate
d s
ro ph
ĠCh ange
Ġver ify
Ġantib iot
Ġinvest ing
ĠSup reme
ĠMed ical
Ġar bit
Ġaccept able
ĠT wo
ĠUkrain ian
it iveness
ĠRe view
Ġoper ates
Ġstake holders
erv ative
Ġholid ays
Ġn ose
ĠV eg
asc ular
v als
ĠO ver
st s
Ġeas tern
ĠM oses
Ġton ight
c ol
oc ate
id ency
ĠMot or
Ġt iny
u ous
Ġrep ly
Ġcomp osed
T M
Ġwere n
ĠDe ad
Ġacqu ire
Ġg athered
Ġr ating
Ġpref erences
Ġag enda
ĠSer b
Ġed itor
isc o
Pro v
on al
H A
Ġ4 2
nd um
ly wood
Ġcont am
Ġmotiv ation
Ġad mitted
Ġrom antic
ĠAn y
Ġb one
Ġl ift
Ġchar ity
Ġtr uck
Ġv an
ph ones
am m
Ġ199 2
Ġl ists
Ġschem es
ult ural
Ġsc ared
Ġinit ially
ov a
Ġatt ach
quar ters
Ġmole c
ĠR est
v ol
ul in
Ġtrans mitted
c her
Ġsp aces
Ġsy ndrome
Ġimmig ration
Ġrece ives
Ġor al
Ġh orses
Ġconsum ed
ĠR ock
here nt
4 7
ĠSt art
Ġimpact s
ĠB aby
Ġproduct ivity
Ġaffect ing
Ġfast est
it ivity
Ġg ate
Ġref rig
Other wise
ob by
Ġbur ied
Ġfr ust
Ġpattern s
Ġnew ly
Ġpres erve
Ġfore cast
4 2
Ġdes k
ĠM a
cl aration
Ġpat ience
Ġlove ly
u is
Ġentreprene urs
Ġgu itar
Ġaud it
Ġany body
ĠAre a
d am
Ġcreat ures
Ġass ign
Ġec osystem
Ġ197 0
Ġpri ze
Ġcompet e
ĠDen mark
Ġp ounds
Ġent rance
Ġemot ion
S everal
Ġp air
Ġgu est
eal ous
Ġb ones
Ġsh ift
Ġacknow ledge
Ġelder ly
Ġout standing
ustain able
Ġenorm ous
Ġman agers
Ġcreat ivity
Ġb oss
Ġbenef ici
Ġ36 5
Ġnational s
Ġsafegu ard
our g
ĠT ele
Ġlabor atory
Ġexpend iture
ĠPriv acy
Ġsuper ior
Ġt ons
Ġcont ents
ĠD am
Ġvot ing
act s
Ġdis pl
Ġl ung
Ġimprove ments
Ġangel s
Ġtw elve
Ġsp ir
g l
Ġvis its
Ġsure ly
Al most
Ġal ter
Ġath letes
5 5
ĠM ill
rag ue
Ġc ouncil
lo ven
con sc
P al
ĠA ud
in f
unic ip
Ġconnect ions
ĠMon t
ĠJ ac
Ġmir acle
ot ion
Ġsam ple
Ġas h
af a
ĠV AT
Ġ199 4
Ġhaz ard
Ġret urning
In ter
Ġover whel
B M
Ġann ually
R ef
Ġcent ers
ĠEmp ire
F ive
Ġdescrib es
P ress
Ġelse where
ĠP ress
Ġact ors
Ġobs erve
Comm ission
an es
Ġocc as
Ġbre ach
Ġw est
ĠWill iam
Ġcontro vers
Ġser vers
Ġbeg un
Ġgu ilty
Ġparam eters
ĠThe se
in ction
Ġmeasure ment
St op
Ġcon clusions
ĠW ays
ĠL o
Ġimp ressive
ĠT ex
m ade
P A
k et
Ġcomp assion
Ġdes per
Ġy ield
ig ious
Un like
itam in
ct ic
ĠEurope ans
r ite
ap h
cont in
a uses
hest er
Is rael
Ġprincip al
Y e
ĠK ong
ĠPalestin ian
Ġl ady
6 6
Ġinter face
b ably
ĠBre xit
st on
Ġstrengthen ing
ven ant
Ġprofess or
Ġrelig ions
S orry
y es
ĠH ill
Ġexp licit
Ġins pect
ĠZ eal
B esides
Ġprotect ive
Ġdefe at
rate gy
Ġche aper
Ġrece ipt
ĠAnge les
App le
Ġcultiv ation
ail ed
H uman
az z
m ony
ĠM oney
B re
Ġless ons
Ġrat io
Ġdes ert
Ġincred ibly
ĠN ob
g ments
are st
uch ar
ĠBro ther
Ġconsc ience
S D
ĠTh ird
Cont in
Ġrail way
ĠThe n
ĠP ot
Ġ Å
ĠInvest ment
Ġsimultane ously
Ġw aves
ĠB ur
Ġlimit ations
ĠRel ations
200 8
Su pport
ess ions
ĠG e
Ġoil s
Ġs ake
Ġ199 5
Ġwire less
Ġt ables
Ġrec ipe
a ire
Ġliber al
wh o
ĠZeal and
Ġs le
N ational
Ġqu ot
Ġprov ed
ress es
Ġretire ment
Ġcol umn
o ids
th rough
Ġc m
lim inary
er ate
Te chn
im a
Ġstrict ly
Ġdisc ount
l og
Ġinf lation
isc al
ĠF our
Ġmixt ure
C alls
st ers
Ġen abling
Ġprof its
ĠR om
L ater
ra pe
ĠCan adian
V D
it z
Ġ9 9
Ġcomb ine
Ġsch ol
ĠH itler
go vernment
Ġge ographical
ir able
ĠRoman ia
Mean while
A ust
Ġe ase
Ġant ioxid
Ġsh ipping
b ar
ĠI M
i ating
Ġglass es
ĠAs ian
Ġmetabol ism
Ġde als
Ġcast le
Ġreve als
ĠSt r
Ġju ice
S ocial
Ġch a
f ather
Ġhorm ones
ĠChar les
Ġacadem ic
ĠD ist
ĠT ax
Ġgovern ance
ut ers
ĠN ame
ind er
Ġcou ples
Ġpurs ue
O W
Ġoptim al
Ġunivers ities
Ġmechan ical
ag s
F r
Ġconcer t
Ġestim ates
Ġglo be
19 8
Ġquant ities
per or
ĠSm ith
] ,
Ġput s
Ġemploy ers
Ġbl ame
Ġ199 6
ĠAd v
ĠC ost
arch y
Ġf allen
Ġcl ock
Ġpurch asing
ĠC op
H ence
ĠM em
D ear
6 7
ĠGu ard
ad o
viron ments
Ġh ol
Ġre j
ab b
T op
ateg ory
ĠA M
Ġtest osterone
ĠCol lege
ist ed
Ġnavig ation
Ġf ought
pl ant
augh ters
Ġagg ressive
A F
Ġp ock
form ance
Ġur gent
ĠSh are
Ġsing er
Ġfl ows
Ġappro aches
Ġsh adow
ĠJ o
Ġdeterm ining
Ġrefere ndum
Ġst ead
Ġproduct ive
ĠM ic
Ġcalc ulation
re y
Ġdiagn osed
Ġpen is
Ġse ctions
ov ing
Sim ilar
Ġl ying
ĠStand ard
Ġhop es
l ights
ĠS T
Ġg aming
ad s
In vest
Ġv ice
ig ration
ount ry
Ġhy brid
ĠIS O
AS A
Ġ198 9
ĠCh icago
Ġdemonst rated
ord an
Ġlog o
ch arge
Ġhe m
D ec
Ġco verage
ud es
ĠH el
B S
ĠFin land
Ġinteract ion
Ġap olog
l s
ĠR en
ell er
Ġaccompl ish
vel ation
Ġrepresent ing
e em
w ar
Ġenh anced
ĠY es
Germ any
lim ited
Ġhard ly
Ġbed room
Ġtreat y
ail able
Ġanc est
Ġstud ying
Ġw ave
Ġpu pp
Ġstat istical
ef its
Ġfear s
Ġpass ing
Ġserv ants
Ġ196 0
ĠPh ot
Ġasse mbly
ĠSm art
Ġcompet ence
Ġtem por
Ġrepl ied
ĠS ome
Ġf ate
T om
Ġrespect ed
Ġdes p
% )
Ġviol ation
w in
Ġbelief s
O ften
Ġsatisf y
St ep
Ħ ¢
Ġs izes
Ġimp ression
Ġindic ators
ĠF estival
Ġcontin ent
erv ing
E xt
Ġsk ill
ĠW atch
Ġcontem porary
w orth
Ġw ww
Ġaccur acy
Ġw ider
Ġdispos al
ro ll
k in
pro ve
st an
Ġevalu ate
Ġhar vest
ĠN ature
our se
Ġbuy er
Ġany way
D em
20 12
Ġp ace
Ġshar p
Ġname ly
ĠH as
ĠO S
Every body
Ġ6 00
ĠSc ient
C reat
n atural
Ġc rown
ĠSc ott
Add itionally
u ce
En joy
pr us
et te
cy cle
Ġtrust ed
Ġst ones
Ġstay ing
c oin
m other
Ġbas ically
Ġl amp
O pen
reg ular
Ġexclud ed
Ġafford able
Ġpharm aceutical
Ġdis advant
es la
at ics
ĠS qu
the w
Ġt ill
Ġthreat ened
P C
w ords
T ur
iz ations
Ġinf in
Ġspecial ist
Ġfoc uses
Ġdeterm ination
ĠJ oint
Ġ199 3
Ġver ification
Ġcir cle
ĠL ook
Ġvacc ines
ĠTh omas
ĠTe am
Ġaccident s
Ġth irty
Ġdisappoint ed
ĠW in
Ġdes ires
ĠM el
ĠAr gent
Ġign ore
Ġreform s
ĠAp ost
Ġcontinu ously
Ġconcept s
A nt
ĠP rague
Ġfocus ing
Ġwork er
ut s
Ġtrave lling
it les
cure ment
Ġen vironments
N on
p read
Ġf ake
ĠL et
Ġspecific ations
Ġr ational
ĠL uc
ides pread
Ġbl ocks
Ġto b
Ġhor izon
con n
ro oms
Ġlay er
Ġfollow ers
Ġchallen ging
4 1
Ġpre ferred
Se lect
V ol
n ormal
Ġj ealous
mb ass
âĢ ĳ
Ġhe al
Ġem ission
o ys
ĠComp et
Ġrob ot
â Ĩ
Ġanal ys
ict ions
4 3
ĠS ac
Ġspe ctr
Ġbless ing
Ġamend ments
Ġd oses
Ġencoura ged
Ġg iant
Ġ4 7
ĠðŁ Ļ
Ġun necessary
ĠVi enna
C ertain
Ġch art
Ġspectr um
E ng
ĠSu pp
Ġbar riers
ĠJ un
Ġemer ging
âĢ¦ âĢĿ
Ġam bit
igh ters
ĠT al
Ġharm ony
Ġm ad
ĠL ear
Ġachieve ment
Ġabandon ed
ĠE nt
Ġdele ted
ĠK ar
W ater
Ġr andom
Ġdiplom atic
Ġun ited
ĠP op
Ġw ins
app ed
Ġc able
Ġrepeated ly
T ogether
Ġro les
E lect
Ġcomple tion
ay ing
E V
Ġmin erals
Ġt act
Ġinvolve ment
â Ħ¢
Res earch
Ġ( âĢľ
ĠB ay
F acebook
ĠCap ital
acks on
Ġexperi encing
Ġdro pped
Ġinflamm ation
ro lled
ĠD an
ĠS ir
Ġglo bally
ĠV enezuel
Ġgovern ed
ĠV ice
Ġvot es
ĠCommun ication
Ġsign ature
Ġex ports
ig er
Ġm erc
Ġteac hes
F orm
Ġimportant ly
Ġorgan ised
is ible
ĠP ass
Ġinf ected
Ġcomp ounds
ie v
Ġp ills
ĠSt rategy
Ġinter medi
on ic
O V
Pl us
S S
ĠB ush
Ġfing ers
ol en
ĠS amsung
e lect
Ġstruct ural
un a
C lick
Ġtable t
ĠMad rid
Ġident ical
ou b
ter y
ĠE uchar
Ġh ole
ĠRich ard
Ġmag ical
Ġcomplic ations
Ġed ge
m akers
Ġk g
tain ing
Ġefficient ly
Ġg ap
F ood
ĠH ong
est ions
Ġgo ver
Ġent rust
ĠH ell
Ġcirc ulation
D ay
Ġsk i
cre en
Ġ199 1
ĠScot land
Ġen l
Tr ump
ĠHung arian
Ġinc omp
rit is
n et
sec urity
ĠE p
em ic
Ġdes erves
ĠInst agram
ĠE th
Ġadd s
Ġopp on
B rit
Ġfil ed
Ġdesign er
Ġgr at
Ġsepar ately
k o
Ġopp osed
tr ans
Ġdist rict
Ġauthor ized
ĠEm ploy
Ġsu p
Ġdev il
ĠJohn son
Ġtob acco
Ġplac ing
ĠP acific
Ġper pet
Ġt or
Ġimp ose
Ġcan ce
6 8
ul ating
T P
T alk
pro fit
Ġterrit orial
Ã ¶
Ġmet res
Ġgr ass
Ġminor ity
Ġtour nament
Ġw idespread
ne ver
Ġrel iability
comm unic
G en
Ġambit ious
Ġex empt
ĠViet nam
Or ig
in ery
ĠP rom
Ġmo ist
so le
Ġdis rupt
Ġmass age
ĠL im
il ation
ĠS ar
Ġrestrict ed
ĠSo ftware
p re
ow ing
ag ine
Ġinst ant
ĠSt ory
Ġhom ose
arm a
ĠTex as
3 00
Ġcampaign s
Ġa wards
ĠD ub
Ġlong est
am il
Ġinvent ed
ĠT or
w hen
oc key
Ġcont rad
Ġd aughters
Ġreal istic
20 11
Ġl aser
Ġgirl friend
ar ry
S y
B I
Ġeconom ies
Ġeth ical
Ġwork place
Ġlast ing
Ġst ocks
Ġp orn
ĠL is
Ġear ned
N or
Ġto oth
Ġtrack ing
i ro
Ġchar ging
ato es
ĠL ux
Ġperf ection
O C
ĠE N
Ġamend ment
ars h
N eed
Ġcent res
Ġburn ed
D F
Ġcoll apse
ĠW il
Ġgover ning
Ġin qu
Ġautom otive
ĠD aniel
Ġup coming
ĠReg ulations
S I
Ġe leg
ag ged
Ġdiff er
r ison
Ġra ising
Ġden ied
Ġdiscuss ions
Ġconf used
Ġr ig
ys ical
Ġ ;
Ġin hib
Ġble eding
F ortunately
ĠMan ager
ast y
Ġdisp utes
Ġro ll
ĠSing le
t le
Ġas leep
Ġrefrig er
ĠYou ng
ut ic
ĠTh ree
Ġphotograph s
Ġinflu enced
af e
b a
w ill
d ef
al ysis
ĠO wn
Ġapplic ants
Ġco ins
Av oid
hy th
an as
ĠL ittle
Ġb icy
ur rection
Ġindic ation
Ġrefer ring
Ġb are
Ġre aches
Â »
Ġindepend ently
row ing
es ity
ap ed
Ġsh ops
ĠRe ad
ad ed
Ġunder lying
ĠAust rian
Ġm it
Ġless on
Ġs ed
Ġprin ting
Ġtown s
oun ced
Ġpro long
rou s
Ġinvest or
Ġcompet itiveness
Ġra c
heim er
n ity
oun ce
ĠPr in
Ġpopular ity
ĠCh ief
ĠðŁĻ Ĥ
Ġhold er
at is
ĠUS B
ĠCond itions
Ġdemand ing
ol ves
Ġj ack
Ġf itness
ov ah
Ġsp r
Qu estion
Ġbreat he
Ġcheck ed
N umber
ĠF al
B as
it ime
Ġrul ed
200 6
Ġb at
Ġli able
Ġmat ches
Ġt ur
eh ovah
Ġremed y
or ious
Ġg ay
Ġdecl are
l ie
ĠT own
Ġqual ities
Ġrespect ively
P ublic
Ġ20 30
Ġl ake
em en
Ġcry ing
Ġautonom ous
S te
x ts
Ġtransl ated
Ġsymbol s
Ġsubsequ ently
Ġrecycl ing
ĠM ain
og an
Ġpract ition
Ġpersec ution
he sion
z es
Ġsub sc
ccess ful
Ġprotect s
Ġatt ended
ĠDe claration
Ġin ev
og y
M ain
ĠE r
Ġint u
Ġrecogn ise
Scient ists
Ġdev ast
Ġd il
âĢ ħ
ĠP en
ĠF er
ĠDon ald
less ly
ĠEng ine
Ġprop ag
as hed
ĠC ook
Ġcon vert
Ġed ition
Ġtre asure
pr int
Ġun c
sel ess
Ġsaf er
Ġwarm ing
L A
ab eth
Ġch amp
Ġsoc ieties
th od
Ġpurch ases
Ġpresident ial
ĠD afa
om ed
Ġsmall est
Ġam ending
e ine
Ġaut o
Ġc ogn
Get ting
Ġsam ples
f unction
g ian
ap ore
At t
F ore
ĠBe aut
Ġcritic ism
20 15
ĠC ancer
Ġdr unk
ero ids
Ġb apt
Ġassoc iations
p at
ĠTra vel
ĠJ ul
Ġdec ides
Ġcook ie
Ġview ed
Ġimag ination
ĠInd ones
ĠPre m
Ġvirt ue
ced es
Ġhe s
7 7
att oo
T V
min ute
ĠM ult
Ġwrit es
B ook
ĠR os
Ġ18 0
Ġt ries
Ġall ies
a ired
Ġas ide
res hold
Ġexist ed
ail and
Ġrel atives
Ġsome what
Ġse gment
ĠL ake
Ġ13 0
Ġintern ationally
ĠCo ll
Ġvolunte ers
Ġg ross
S pecial
row th
Ġmin eral
ĠG r
ĠUn ivers
Ġsing ing
ivid ually
emb ered
id ity
Ġsum mary
ĠH aw
Ġrecommend ation
Ġhat red
Ġacquis ition
R C
20 10
200 7
Ġprote ins
Ġlog ic
g ic
P ray
Ġworld s
Ġder og
ch ing
ĠE qu
ĠGo vern
ĠF ind
L eg
Ġmax im
ĠB on
Ġ4 9
Ġab st
Ġke ys
P ut
Ġth irst
Ġstop s
Ġess ence
s ized
Ġab und
ĠVol vo
Th ings
Ġphot ography
Ġe pid
om y
ĠAg ain
ĠA ng
Ġbound aries
S et
ĠW ild
Sm all
il st
Ġamong st
ĠO cean
ĠT ake
Ġessential ly
Ġconsequ ence
Ġin cent
8 5
Ġbre aking
Ġhead ing
Ġvirt ually
Ġtrig ger
ĠA lp
Ġworth y
' '
S ur
ear ly
ĠHol lywood
Ġimpro ves
Ġcomp act
Ġdeli ber
Ġst abil
Ġconf ess
gor ith
ĠD own
Ġse ar
Ġpoint ed
T oo
st ru
Us ually
Ġcapt ured
ian o
Pol ice
ĠS loven
Ġsum mit
ĠG M
Ġs ke
Ġc ake
Ġi OS
Ġw age
Ġy oga
ĠT F
Ġread er
Ġcertific ates
Ġle ct
Ġmiss ions
Ġte xts
Ġ4 6
ĠBudd h
Ġ4 3
or ia
Ġra cing
Ġemail s
Ġl od
Ġwe lf
v y
Ġsub m
in th
ĠBulg aria
Ġcompet itors
