{
  "version": "1.0",
  "truncation": null,
  "padding": null,
  "added_tokens": [
    {
      "id": 0,
      "content": "<|endoftext|>",
      "single_word": false,
      "lstrip": false,
      "rstrip": false,
      "normalized": true,
      "special": true
    }
  ],
  "normalizer": null,
  "pre_tokenizer": {
    "type": "ByteLevel",
    "add_prefix_space": false,
    "trim_offsets": true,
    "use_regex": true
  },
  "post_processor": {
    "type": "ByteLevel",
    "add_prefix_space": true,
    "trim_offsets": false,
    "use_regex": true
  },
  "decoder": {
    "type": "ByteLevel",
    "add_prefix_space": true,
    "trim_offsets": true,
    "use_regex": true
  },
  "model": {
    "type": "BPE",
    "dropout": null,
    "unk_token": null,
    "continuing_subword_prefix": "",
    "end_of_word_suffix": "",
    "fuse_unk": false,
    "byte_fallback": false,
    "ignore_merges": false,
    "vocab": {
      "<|endoftext|>": 0,
      "!": 1,
      "\"": 2,
      "#": 3,
      "$": 4,
      "%": 5,
      "&": 6,
      "'": 7,
      "(": 8,
      ")": 9,
      "*": 10,
      "+": 11,
      ",": 12,
      "-": 13,
      ".": 14,
      "/": 15,
      "0": 16,
      "1": 17,
      "2": 18,
      "3": 19,
      "4": 20,
      "5": 21,
      "6": 22,
      "7": 23,
      "8": 24,
      "9": 25,
      ":": 26,
      ";": 27,
      "<": 28,
      "=": 29,
      ">": 30,
      "?": 31,
      "@": 32,
      "A": 33,
      "B": 34,
      "C": 35,
      "D": 36,
      "E": 37,
      "F": 38,
      "G": 39,
      "H": 40,
      "I": 41,
      "J": 42,
      "K": 43,
      "L": 44,
      "M": 45,
      "N": 46,
      "O": 47,
      "P": 48,
      "Q": 49,
      "R": 50,
      "S": 51,
      "T": 52,
      "U": 53,
      "V": 54,
      "W": 55,
      "X": 56,
      "Y": 57,
      "Z": 58,
      "[": 59,
      "\\": 60,
      "]": 61,
      "^": 62,
      "_": 63,
      "`": 64,
      "a": 65,
      "b": 66,
      "c": 67,
      "d": 68,
      "e": 69,
      "f": 70,
      "g": 71,
      "h": 72,
      "i": 73,
      "j": 74,
      "k": 75,
      "l": 76,
      "m": 77,
      "n": 78,
      "o": 79,
      "p": 80,
      "q": 81,
      "r": 82,
      "s": 83,
      "t": 84,
      "u": 85,
      "v": 86,
      "w": 87,
      "x": 88,
      "y": 89,
      "z": 90,
      "{": 91,
      "|": 92,
      "}": 93,
      "~": 94,
      "¡": 95,
      "¢": 96,
      "£": 97,
      "¤": 98,
      "¥": 99,
      "¦": 100,
      "§": 101,
      "¨": 102,
      "©": 103,
      "ª": 104,
      "«": 105,
      "¬": 106,
      "®": 107,
      "¯": 108,
      "°": 109,
      "±": 110,
      "²": 111,
      "³": 112,
      "´": 113,
      "µ": 114,
      "¶": 115,
      "·": 116,
      "¸": 117,
      "¹": 118,
      "º": 119,
      "»": 120,
      "¼": 121,
      "½": 122,
      "¾": 123,
      "¿": 124,
      "À": 125,
      "Á": 126,
      "Â": 127,
      "Ã": 128,
      "Ä": 129,
      "Å": 130,
      "Æ": 131,
      "Ç": 132,
      "È": 133,
      "É": 134,
      "Ê": 135,
      "Ë": 136,
      "Ì": 137,
      "Í": 138,
      "Î": 139,
      "Ï": 140,
      "Ð": 141,
      "Ñ": 142,
      "Ò": 143,
      "Ó": 144,
      "Ô": 145,
      "Õ": 146,
      "Ö": 147,
      "×": 148,
      "Ø": 149,
      "Ù": 150,
      "Ú": 151,
      "Û": 152,
      "Ü": 153,
      "Ý": 154,
      "Þ": 155,
      "ß": 156,
      "à": 157,
      "á": 158,
      "â": 159,
      "ã": 160,
      "ä": 161,
      "å": 162,
      "æ": 163,
      "ç": 164,
      "è": 165,
      "é": 166,
      "ê": 167,
      "ë": 168,
      "ì": 169,
      "í": 170,
      "î": 171,
      "ï": 172,
      "ð": 173,
      "ñ": 174,
      "ò": 175,
      "ó": 176,
      "ô": 177,
      "õ": 178,
      "ö": 179,
      "÷": 180,
      "ø": 181,
      "ù": 182,
      "ú": 183,
      "û": 184,
      "ü": 185,
      "ý": 186,
      "þ": 187,
      "ÿ": 188,
      "Ā": 189,
      "ā": 190,
      "Ă": 191,
      "ă": 192,
      "Ą": 193,
      "ą": 194,
      "Ć": 195,
      "ć": 196,
      "Ĉ": 197,
      "ĉ": 198,
      "Ċ": 199,
      "ċ": 200,
      "Č": 201,
      "č": 202,
      "Ď": 203,
      "ď": 204,
      "Đ": 205,
      "đ": 206,
      "Ē": 207,
      "ē": 208,
      "Ĕ": 209,
      "ĕ": 210,
      "Ė": 211,
      "ė": 212,
      "Ę": 213,
      "ę": 214,
      "Ě": 215,
      "ě": 216,
      "Ĝ": 217,
      "ĝ": 218,
      "Ğ": 219,
      "ğ": 220,
      "Ġ": 221,
      "ġ": 222,
      "Ģ": 223,
      "ģ": 224,
      "Ĥ": 225,
      "ĥ": 226,
      "Ħ": 227,
      "ħ": 228,
      "Ĩ": 229,
      "ĩ": 230,
      "Ī": 231,
      "ī": 232,
      "Ĭ": 233,
      "ĭ": 234,
      "Į": 235,
      "į": 236,
      "İ": 237,
      "ı": 238,
      "Ĳ": 239,
      "ĳ": 240,
      "Ĵ": 241,
      "ĵ": 242,
      "Ķ": 243,
      "ķ": 244,
      "ĸ": 245,
      "Ĺ": 246,
      "ĺ": 247,
      "Ļ": 248,
      "ļ": 249,
      "Ľ": 250,
      "ľ": 251,
      "Ŀ": 252,
      "ŀ": 253,
      "Ł": 254,
      "ł": 255,
      "Ń": 256,
      "Ġt": 257,
      "Ġa": 258,
      "he": 259,
      "in": 260,
      "re": 261,
      "on": 262,
      "Ġthe": 263,
      "er": 264,
      "Ġo": 265,
      "at": 266,
      "Ġs": 267,
      "Ġw": 268,
      "is": 269,
      "Ġc": 270,
      "en": 271,
      "it": 272,
      "an": 273,
      "es": 274,
      "ou": 275,
      "or": 276,
      "Ġp": 277,
      "Ġb": 278,
      "Ġf": 279,
      "Ġof": 280,
      "Ġan": 281,
      "al": 282,
      "Ġto": 283,
      "ed": 284,
      "Ġm": 285,
      "ing": 286,
      "Ġin": 287,
      "ar": 288,
      "ion": 289,
      "Ġd": 290,
      "Ġand": 291,
      "ic": 292,
      "le": 293,
      "Ġh": 294,
      "ro": 295,
      "Ġth": 296,
      "as": 297,
      "âĢ": 298,
      "Ġn": 299,
      "ent": 300,
      "ve": 301,
      "om": 302,
      "il": 303,
      "Ġre": 304,
      "Ġy": 305,
      "Ġe": 306,
      "Ġl": 307,
      "ct": 308,
      "Ġis": 309,
      "st": 310,
      "Ġbe": 311,
      "Ġyou": 312,
      "ly": 313,
      "ot": 314,
      "Ġg": 315,
      "ation": 316,
      "Ġfor": 317,
      "ut": 318,
      "The": 319,
      "im": 320,
      "se": 321,
      "id": 322,
      "et": 323,
      "Ġon": 324,
      "ce": 325,
      "ow": 326,
      "ay": 327,
      "ur": 328,
      "Ġthat": 329,
      "Ġu": 330,
      "ver": 331,
      "ig": 332,
      "ll": 333,
      "ith": 334,
      "ir": 335,
      "ch": 336,
      "Ġit": 337,
      "am": 338,
      "ol": 339,
      "Ġpro": 340,
      "ad": 341,
      "Ġwh": 342,
      "Ġwith": 343,
      "ĠI": 344,
      "Ġare": 345,
      "Ġst": 346,
      "ĠC": 347,
      "her": 348,
      "ĠS": 349,
      "âĢĻ": 350,
      "if": 351,
      "Ġwe": 352,
      "Ġcon": 353,
      "ill": 354,
      "Ġas": 355,
      "Ġor": 356,
      "ul": 357,
      "ld": 358,
      "ter": 359,
      "od": 360,
      "Ġha": 361,
      "ment": 362,
      "ĠA": 363,
      "ra": 364,
      "nd": 365,
      "pe": 366,
      "Ġhe": 367,
      "ers": 368,
      "Ġnot": 369,
      "ess": 370,
      "Ġcom": 371,
      "ate": 372,
      "Ġde": 373,
      "est": 374,
      "ri": 375,
      "ke": 376,
      "op": 377,
      "ĠM": 378,
      "ge": 379,
      "ity": 380,
      "Ġsu": 381,
      "ant": 382,
      "Ġne": 383,
      "ore": 384,
      "ist": 385,
      "Ġex": 386,
      "Ġhave": 387,
      "ive": 388,
      "th": 389,
      "ab": 390,
      "pp": 391,
      "Ġse": 392,
      "ĠE": 393,
      "Ġsh": 394,
      "ĠP": 395,
      "us": 396,
      "Ġcan": 397,
      "Ġwas": 398,
      "nt": 399,
      "ain": 400,
      "em": 401,
      "ies": 402,
      "igh": 403,
      "res": 404,
      "Ġ1": 405,
      "Ġby": 406,
      "rom": 407,
      "Ġal": 408,
      "qu": 409,
      "Ġat": 410,
      "Ġyour": 411,
      "ort": 412,
      "art": 413,
      "Ġthis": 414,
      "os": 415,
      "and": 416,
      "ac": 417,
      "Ġdo": 418,
      "Ġwill": 419,
      "um": 420,
      "Ġr": 421,
      "ust": 422,
      "Ġch": 423,
      "Ġv": 424,
      "ould": 425,
      "Ġfrom": 426,
      "Ġwor": 427,
      "all": 428,
      "iv": 429,
      "Ġ2": 430,
      "ĠâĢ": 431,
      "ect": 432,
      "ĠG": 433,
      "ĠB": 434,
      "Ġ(": 435,
      "end": 436,
      "âĢĿ": 437,
      "ight": 438,
      "Th": 439,
      "Ġall": 440,
      "ure": 441,
      "ial": 442,
      "Ġle": 443,
      "un": 444,
      "Ġme": 445,
      "ĠD": 446,
      "ĠR": 447,
      "Ġab": 448,
      "out": 449,
      "Ġk": 450,
      "el": 451,
      "our": 452,
      "oc": 453,
      "red": 454,
      "ther": 455,
      "ions": 456,
      "ome": 457,
      "ich": 458,
      "ĠF": 459,
      "ud": 460,
      "Ġhas": 461,
      "Ġus": 462,
      "ost": 463,
      "ĠH": 464,
      "very": 465,
      "Ġcomp": 466,
      "Ġgo": 467,
      "It": 468,
      "ard": 469,
      "ear": 470,
      "cc": 471,
      "Ġpl": 472,
      "ĠW": 473,
      "Ġwhe": 474,
      "ĠT": 475,
      "pt": 476,
      "gh": 477,
      "Ġtr": 478,
      "ak": 479,
      "Ġen": 480,
      "Ġim": 481,
      "ast": 482,
      "ie": 483,
      "ally": 484,
      "ĠL": 485,
      "ans": 486,
      "00": 487,
      "ff": 488,
      "per": 489,
      "Ġwhich": 490,
      "one": 491,
      "Ġint": 492,
      "Ġad": 493,
      "oo": 494,
      "ide": 495,
      "ber": 496,
      "Ġthey": 497,
      "Ġj": 498,
      "Ġcont": 499,
      "ag": 500,
      "ĠN": 501,
      "rou": 502,
      "so": 503,
      "ated": 504,
      "du": 505,
      "ice": 506,
      "ous": 507,
      "orm": 508,
      "Ġwho": 509,
      "ance": 510,
      "Ġtheir": 511,
      "ong": 512,
      "Ġman": 513,
      "ations": 514,
      "ime": 515,
      "Ġone": 516,
      "'s": 517,
      "ine": 518,
      "able": 519,
      "ake": 520,
      "Ġmore": 521,
      "ĠU": 522,
      "In": 523,
      "ame": 524,
      "ip": 525,
      "og": 526,
      "ib": 527,
      "act": 528,
      "Ġother": 529,
      "age": 530,
      "Ġres": 531,
      "Ġpe": 532,
      "now": 533,
      "ary": 534,
      "Ġsa": 535,
      "are": 536,
      "ks": 537,
      "Ġalso": 538,
      "ople": 539,
      "Ġbut": 540,
      "ere": 541,
      "Ġour": 542,
      "ount": 543,
      "ire": 544,
      "Ġmy": 545,
      "Wh": 546,
      "Ġpart": 547,
      "ind": 548,
      "ical": 549,
      "Ġso": 550,
      "lo": 551,
      "reat": 552,
      "port": 553,
      "ord": 554,
      "ĠJ": 555,
      "We": 556,
      "This": 557,
      "âĢľ": 558,
      "Ġabout": 559,
      "ia": 560,
      "ry": 561,
      "Ġyear": 562,
      "iz": 563,
      "..": 564,
      "cl": 565,
      "ult": 566,
      "Ġany": 567,
      "You": 568,
      "Ġte": 569,
      "Ġag": 570,
      "Ġper": 571,
      "Ġout": 572,
      "form": 573,
      "ays": 574,
      "ree": 575,
      "Ġpeople": 576,
      "Ġtime": 577,
      "Ġli": 578,
      "ence": 579,
      "Ġhis": 580,
      "ace": 581,
      "Ġapp": 582,
      "Ġknow": 583,
      "Ġun": 584,
      "Ġthem": 585,
      "ĠSt": 586,
      "Ġup": 587,
      "vel": 588,
      "Ġthan": 589,
      "ep": 590,
      "ign": 591,
      "Ġthere": 592,
      "Ġacc": 593,
      "lic": 594,
      "ue": 595,
      "Ġdis": 596,
      "ove": 597,
      "ild": 598,
      "ĠO": 599,
      "ase": 600,
      "ven": 601,
      "ĠâĢľ": 602,
      "uro": 603,
      "ook": 604,
      "ap": 605,
      "Ġwhat": 606,
      "ction": 607,
      "au": 608,
      "ĠCh": 609,
      "ack": 610,
      "ite": 611,
      "ru": 612,
      "Ġits": 613,
      "ach": 614,
      "ose": 615,
      ".âĢĿ": 616,
      "erv": 617,
      "ings": 618,
      "ition": 619,
      "Ġbeen": 620,
      "Ġfe": 621,
      "Ġ20": 622,
      "irst": 623,
      "Ġneed": 624,
      "nder": 625,
      "Ġqu": 626,
      "Ġlike": 627,
      "Ġnew": 628,
      "Ġbec": 629,
      "Ġif": 630,
      "sion": 631,
      "Ġno": 632,
      "Ġpre": 633,
      "Ġonly": 634,
      "Ġwork": 635,
      "ub": 636,
      "Ġwere": 637,
      "ail": 638,
      "Ġam": 639,
      "tern": 640,
      "ates": 641,
      "Ġmay": 642,
      "ish": 643,
      "Ġwhen": 644,
      "urope": 645,
      "Ġcl": 646,
      "Ġprodu": 647,
      "ments": 648,
      "Ġshould": 649,
      "ark": 650,
      "Ġoff": 651,
      "Ġwould": 652,
      "con": 653,
      "ory": 654,
      "omm": 655,
      "Ġsp": 656,
      "Ġevery": 657,
      "Ġspe": 658,
      "Ġcons": 659,
      "ĠEurope": 660,
      "Ġwant": 661,
      "Ġar": 662,
      "ife": 663,
      "Ġreg": 664,
      "Ġact": 665,
      "ren": 666,
      "ors": 667,
      "anc": 668,
      "erson": 669,
      "ational": 670,
      "Ġcomm": 671,
      "ities": 672,
      "Ġbet": 673,
      "Ġprov": 674,
      "ress": 675,
      "Ġunder": 676,
      "Ġsome": 677,
      "Ġfirst": 678,
      "Ġhad": 679,
      "He": 680,
      "How": 681,
      "Ġrec": 682,
      "ater": 683,
      "ass": 684,
      "Ġworld": 685,
      "cess": 686,
      "ang": 687,
      "wn": 688,
      "iff": 689,
      "ne": 690,
      "Ġ3": 691,
      "ink": 692,
      "ual": 693,
      "ian": 694,
      "ious": 695,
      "ific": 696,
      "ough": 697,
      "sel": 698,
      "Ġhow": 699,
      "Ġsaid": 700,
      "Ġfo": 701,
      "Ġher": 702,
      "pl": 703,
      "ov": 704,
      "Ġuse": 705,
      "ens": 706,
      "av": 707,
      "we": 708,
      "te": 709,
      "Ġinto": 710,
      "Ġ\"": 711,
      "ient": 712,
      "ible": 713,
      "ause": 714,
      "ile": 715,
      "Ġover": 716,
      "If": 717,
      "Ġrel": 718,
      "Ġjust": 719,
      "Ġind": 720,
      "Ġmost": 721,
      "Ġperson": 722,
      "Ġsy": 723,
      "Ġpr": 724,
      "Ġimp": 725,
      "What": 726,
      "fter": 727,
      "ĠK": 728,
      "ound": 729,
      "ise": 730,
      "ember": 731,
      "ful": 732,
      "clud": 733,
      "ons": 734,
      "Ġyears": 735,
      "Ġco": 736,
      "hen": 737,
      "Ġtw": 738,
      "Ġget": 739,
      "ject": 740,
      "They": 741,
      "Ġdiff": 742,
      "ade": 743,
      "Ġdes": 744,
      "hing": 745,
      "Ġshall": 746,
      "cre": 747,
      "old": 748,
      "Ġ201": 749,
      "Ġ19": 750,
      "vent": 751,
      "Ġro": 752,
      "erm": 753,
      "Ġright": 754,
      "lect": 755,
      "ts": 756,
      "Ġem": 757,
      "ĠâĢĵ": 758,
      "fore": 759,
      "And": 760,
      "Ġsuch": 761,
      "li": 762,
      "oss": 763,
      "Ġcount": 764,
      "Ġlife": 765,
      "But": 766,
      "rough": 767,
      "Ġgood": 768,
      "There": 769,
      "Ġhim": 770,
      "les": 771,
      "Ġthese": 772,
      "ĠUn": 773,
      "ĠV": 774,
      "oin": 775,
      "ning": 776,
      "ĠIn": 777,
      "Ġvery": 778,
      "rit": 779,
      "ility": 780,
      "lp": 781,
      "Ġserv": 782,
      "Ġwhere": 783,
      "Ġinform": 784,
      "ices": 785,
      "ange": 786,
      "tic": 787,
      "Ġeff": 788,
      "Ġsee": 789,
      "ph": 790,
      "hed": 791,
      "enc": 792,
      "Ġchild": 793,
      "'t": 794,
      "Ġhelp": 795,
      "uth": 796,
      "Ġsupp": 797,
      "ĠGod": 798,
      "stem": 799,
      "ĠThe": 800,
      "other": 801,
      "Ġ-": 802,
      "ident": 803,
      "ating": 804,
      "any": 805,
      "Ġtwo": 806,
      "Ġrequ": 807,
      "ures": 808,
      "Ġmany": 809,
      "pect": 810,
      "Ġrem": 811,
      "Ġob": 812,
      "Ġdoes": 813,
      "Ġmake": 814,
      "Ġtrans": 815,
      "Ġsc": 816,
      "eg": 817,
      "uch": 818,
      ".\"": 819,
      "Ġinclud": 820,
      "Ġinv": 821,
      "ular": 822,
      "Ġsub": 823,
      "olog": 824,
      "ĠEuropean": 825,
      "Ġtra": 826,
      "aw": 827,
      "Ġent": 828,
      "cial": 829,
      "Ġadd": 830,
      "Ġproduct": 831,
      "Ġph": 832,
      "tain": 833,
      "Ġcould": 834,
      "Ġwell": 835,
      "Ġlong": 836,
      "omet": 837,
      "Ġown": 838,
      "Ġagain": 839,
      "Ġcar": 840,
      "ied": 841,
      "Ġdon": 842,
      "ict": 843,
      "ob": 844,
      "get": 845,
      "ract": 846,
      "Ġshe": 847,
      "ond": 848,
      "velop": 849,
      "Ġthose": 850,
      "Ġeven": 851,
      "ata": 852,
      "Ġinformation": 853,
      "Ġbu": 854,
      "Ġday": 855,
      "Ġdid": 856,
      "ĠComm": 857,
      "Ġway": 858,
      "ath": 859,
      "ily": 860,
      "ĠAr": 861,
      "row": 862,
      "ck": 863,
      "Ġref": 864,
      ").": 865,
      "Ġmust": 866,
      "Ġthrough": 867,
      "ody": 868,
      "ative": 869,
      "ced": 870,
      "Ġdiffere": 871,
      "Ġsystem": 872,
      "Ġ4": 873,
      "ple": 874,
      "ission": 875,
      "Ġatt": 876,
      "Ġ5": 877,
      "ited": 878,
      "Ġtoo": 879,
      "Ġafter": 880,
      "xt": 881,
      "Ġdec": 882,
      "ution": 883,
      "...": 884,
      "irect": 885,
      "ower": 886,
      "Ġinst": 887,
      "Ġfin": 888,
      "mer": 889,
      "gan": 890,
      "ble": 891,
      "uring": 892,
      "alth": 893,
      "Ġnow": 894,
      "Ġtake": 895,
      "day": 896,
      "vers": 897,
      "Ġgreat": 898,
      "ft": 899,
      "Ġsm": 900,
      "ween": 901,
      "ased": 902,
      "Ġlook": 903,
      "Ġbecause": 904,
      "self": 905,
      "own": 906,
      "als": 907,
      "ick": 908,
      "ever": 909,
      "Ġmon": 910,
      "Ġimport": 911,
      "Ġpres": 912,
      "llow": 913,
      "urn": 914,
      "itt": 915,
      "ener": 916,
      "arket": 917,
      "Ġcall": 918,
      "Ġused": 919,
      "Ġass": 920,
      "Ġsame": 921,
      "round": 922,
      "Ġdevelop": 923,
      "Ġbetween": 924,
      "Ġbel": 925,
      "ys": 926,
      "ublic": 927,
      "ives": 928,
      "Ġac": 929,
      "Ġdata": 930,
      "ram": 931,
      "Ġthink": 932,
      "Ġhum": 933,
      "ec": 934,
      "Ġmuch": 935,
      "Ġpol": 936,
      "Ġfu": 937,
      "ten": 938,
      "rib": 939,
      "hip": 940,
      "chn": 941,
      "cer": 942,
      "iness": 943,
      "Ġexper": 944,
      "Ġlove": 945,
      "Ġbl": 946,
      "cept": 947,
      "Ġ200": 948,
      "Ġpur": 949,
      "Ġplay": 950,
      "ticle": 951,
      "oth": 952,
      "Ġhapp": 953,
      "ality": 954,
      "Ġform": 955,
      "oun": 956,
      "Ġmin": 957,
      "Ġback": 958,
      "uthor": 959,
      "gy": 960,
      "Ġend": 961,
      "iet": 962,
      "aking": 963,
      "Ġprot": 964,
      "its": 965,
      "ness": 966,
      "ave": 967,
      "Ġthen": 968,
      "thing": 969,
      "Ġcol": 970,
      "Ġra": 971,
      "Ġfam": 972,
      "Ġexp": 973,
      "ces": 974,
      "ew": 975,
      "Ġfind": 976,
      "Ġord": 977,
      "Ġsay": 978,
      "rist": 979,
      "ways": 980,
      "Ġnum": 981,
      "imes": 982,
      "Ġdifferent": 983,
      "Ġke": 984,
      "Ġpartic": 985,
      "Ġstart": 986,
      "Ġeffect": 987,
      "Ġbefore": 988,
      "Ġmarket": 989,
      "ision": 990,
      "Ġsomet": 991,
      "Ġbr": 992,
      "Ġposs": 993,
      "For": 994,
      "ather": 995,
      "here": 996,
      "ually": 997,
      "ism": 998,
      "Ġset": 999,
      "Ġmade": 1000,
      "Ġmed": 1001,
      "Ġprovid": 1002,
      "Ġprocess": 1003,
      "ward": 1004,
      "So": 1005,
      "ss": 1006,
      "ell": 1007,
      "ĠEU": 1008,
      "That": 1009,
      "ĠStates": 1010,
      "ved": 1011,
      "Ġhigh": 1012,
      "ving": 1013,
      "ĠY": 1014,
      "Ġstr": 1015,
      "ulation": 1016,
      "ience": 1017,
      "When": 1018,
      "Ġgu": 1019,
      "Ġav": 1020,
      "ics": 1021,
      "ork": 1022,
      "Ġsur": 1023,
      "iew": 1024,
      "ince": 1025,
      "ries": 1026,
      "oint": 1027,
      "ood": 1028,
      "Ġstud": 1029,
      "Ġwithout": 1030,
      "Ġwom": 1031,
      "Ġdef": 1032,
      "ty": 1033,
      "Ġimportant": 1034,
      "oy": 1035,
      "ents": 1036,
      "Ġsim": 1037,
      "ef": 1038,
      "Ġop": 1039,
      "ax": 1040,
      "Ġfollow": 1041,
      "Ġbest": 1042,
      "Ġplace": 1043,
      "Do": 1044,
      "ng": 1045,
      "ands": 1046,
      "Ġinter": 1047,
      "Ġtechn": 1048,
      "Ġins": 1049,
      "Ġsoc": 1050,
      "Ġauthor": 1051,
      "Ġleg": 1052,
      "arch": 1053,
      "ural": 1054,
      "hes": 1055,
      "ines": 1056,
      "ection": 1057,
      "ric": 1058,
      "Ġeach": 1059,
      "Ġconf": 1060,
      "Ġalways": 1061,
      "ner": 1062,
      "),": 1063,
      "Ġbus": 1064,
      "As": 1065,
      "Ġsign": 1066,
      "Ġlaw": 1067,
      "iss": 1068,
      "Ġcre": 1069,
      "Ġhealth": 1070,
      "Ġmod": 1071,
      "Ġhuman": 1072,
      "Ġmet": 1073,
      "Ġbeing": 1074,
      "Ġappro": 1075,
      "Ġdet": 1076,
      "alk": 1077,
      "Ġread": 1078,
      "Ġinf": 1079,
      "the": 1080,
      "Ġintern": 1081,
      "Ġfl": 1082,
      "Ġresp": 1083,
      "arm": 1084,
      "Ġchildren": 1085,
      "ting": 1086,
      "read": 1087,
      "âĢ¦": 1088,
      "Ġear": 1089,
      "ists": 1090,
      "ĠPro": 1091,
      "illion": 1092,
      "ĠChrist": 1093,
      "Ġ6": 1094,
      "ves": 1095,
      "Ġthings": 1096,
      "Ġrep": 1097,
      "roup": 1098,
      "Ġsupport": 1099,
      "Ġhere": 1100,
      "riend": 1101,
      "Ġfeel": 1102,
      "Ġfound": 1103,
      "Ġbody": 1104,
      "Ġcent": 1105,
      "conom": 1106,
      "ron": 1107,
      "Ġprog": 1108,
      "ank": 1109,
      "Ġlast": 1110,
      "ants": 1111,
      "Ġcomple": 1112,
      "Ġext": 1113,
      "Ġoper": 1114,
      "Ġloc": 1115,
      "erest": 1116,
      "Ġser": 1117,
      "vern": 1118,
      "Ġpri": 1119,
      "Ġmain": 1120,
      "Ġnever": 1121,
      "Ġstill": 1122,
      "uss": 1123,
      "Ġdown": 1124,
      "akes": 1125,
      "Ġdisc": 1126,
      "Ġresult": 1127,
      "ute": 1128,
      "Ġspec": 1129,
      "Ġlead": 1130,
      "Ġlevel": 1131,
      "ital": 1132,
      "ues": 1133,
      "raph": 1134,
      "Ġfact": 1135,
      "Ġbelie": 1136,
      "Ġdep": 1137,
      "Ġsomething": 1138,
      "ature": 1139,
      "led": 1140,
      "Ġaccord": 1141,
      "Ġincre": 1142,
      "Ġ10": 1143,
      "ages": 1144,
      "Ġthree": 1145,
      "air": 1146,
      "ases": 1147,
      "blem": 1148,
      "Ġgener": 1149,
      "Ġcur": 1150,
      "Ġorgan": 1151,
      "Ġcome": 1152,
      "ered": 1153,
      "Ġap": 1154,
      "ĠCon": 1155,
      "Ġcond": 1156,
      "Ġorder": 1157,
      "ĠMember": 1158,
      "ird": 1159,
      "Ġapplic": 1160,
      "itions": 1161,
      "An": 1162,
      "Ġty": 1163,
      "Ġval": 1164,
      "Ġhome": 1165,
      "cond": 1166,
      "ins": 1167,
      "Ġproducts": 1168,
      "Ġlar": 1169,
      "20": 1170,
      "Ġcommun": 1171,
      "Ġpublic": 1172,
      "Ġaw": 1173,
      "Ġnumber": 1174,
      "ĠArticle": 1175,
      "Ġcour": 1176,
      "Ġcer": 1177,
      "Ġthough": 1178,
      "Ġwee": 1179,
      "bs": 1180,
      "Ġbetter": 1181,
      "Ġvis": 1182,
      "ars": 1183,
      "ĠCommission": 1184,
      "Ġexam": 1185,
      "Ġcontin": 1186,
      "Ġmonth": 1187,
      "Ġcountry": 1188,
      "Ġdesign": 1189,
      "Ġplan": 1190,
      "Ġsol": 1191,
      "Ġproblem": 1192,
      "ouse": 1193,
      "On": 1194,
      "Ġincluding": 1195,
      "ĠIs": 1196,
      "Ġbusiness": 1197,
      "Ġanother": 1198,
      "up": 1199,
      "Ġcle": 1200,
      "ix": 1201,
      "ason": 1202,
      "Ġstate": 1203,
      "Ġreally": 1204,
      "uc": 1205,
      "ize": 1206,
      "Ġinterest": 1207,
      "Ġest": 1208,
      "ished": 1209,
      "Ġinvest": 1210,
      "Ġreal": 1211,
      "Ġwithin": 1212,
      "Ġ7": 1213,
      "ĠâĢĺ": 1214,
      "ool": 1215,
      "ee": 1216,
      "ustom": 1217,
      "Ġservices": 1218,
      "Ġshow": 1219,
      "Ġpower": 1220,
      "Ġfun": 1221,
      "Ġduring": 1222,
      "less": 1223,
      "Ġche": 1224,
      "ised": 1225,
      "Ġgr": 1226,
      "ired": 1227,
      "Ġmeans": 1228,
      "Ġwater": 1229,
      "meric": 1230,
      "000": 1231,
      "ters": 1232,
      "Ġboth": 1233,
      "Ġask": 1234,
      "Ġcontro": 1235,
      "Ġcountries": 1236,
      "io": 1237,
      "Ġactiv": 1238,
      "Ġagainst": 1239,
      "pos": 1240,
      "ency": 1241,
      "stand": 1242,
      "ional": 1243,
      "Ġrest": 1244,
      "Ġchar": 1245,
      "ared": 1246,
      "Ġgoing": 1247,
      ",âĢĿ": 1248,
      "ately": 1249,
      "Ġev": 1250,
      "ration": 1251,
      "Ġallow": 1252,
      "iving": 1253,
      "Ġcare": 1254,
      "Ġchange": 1255,
      "Ġpay": 1256,
      "not": 1257,
      "Ġris": 1258,
      "Ġeas": 1259,
      "oney": 1260,
      "ying": 1261,
      "Ġpossible": 1262,
      "Ġret": 1263,
      "Ġword": 1264,
      "ock": 1265,
      "ized": 1266,
      "land": 1267,
      "pr": 1268,
      "Ġfriend": 1269,
      "ned": 1270,
      "Ġreport": 1271,
      "ically": 1272,
      "Ġadv": 1273,
      "Ġ8": 1274,
      "She": 1275,
      "Ġfamily": 1276,
      "Ġpar": 1277,
      "cent": 1278,
      "ope": 1279,
      "Ġcompany": 1280,
      "iron": 1281,
      "loy": 1282,
      "Ġopen": 1283,
      "ted": 1284,
      "Ġold": 1285,
      "ified": 1286,
      "Ġsit": 1287,
      "Ġprof": 1288,
      "Ġeconom": 1289,
      "bers": 1290,
      "ruct": 1291,
      "Ġmat": 1292,
      "Ġcor": 1293,
      "gest": 1294,
      "Ġaround": 1295,
      "line": 1296,
      "ology": 1297,
      "ĠUnion": 1298,
      "Ġgrow": 1299,
      "ivid": 1300,
      "ĠHe": 1301,
      "Ġdays": 1302,
      "Ġsmall": 1303,
      "Ġwhy": 1304,
      "Ġavail": 1305,
      "Ġmeas": 1306,
      "ccess": 1307,
      "Ġelect": 1308,
      "Ġ9": 1309,
      "Ġgroup": 1310,
      "Ġsaf": 1311,
      "Why": 1312,
      "ption": 1313,
      "Ġcap": 1314,
      "Ġdist": 1315,
      "lement": 1316,
      "rent": 1317,
      "Ġlist": 1318,
      "Ġequ": 1319,
      "me": 1320,
      "Ġcompet": 1321,
      "ĠAmeric": 1322,
      "Ġtoday": 1323,
      "Ġfree": 1324,
      "ination": 1325,
      "Ġsk": 1326,
      "Ġdirect": 1327,
      "Ġlot": 1328,
      "Ġgive": 1329,
      "Ġstand": 1330,
      "Ġfood": 1331,
      "ral": 1332,
      "Ġaccount": 1333,
      "ined": 1334,
      "Ġnecess": 1335,
      "Ġrece": 1336,
      "Ġquest": 1337,
      "uture": 1338,
      "Ġpersonal": 1339,
      "iven": 1340,
      "Ġcase": 1341,
      "Ġprogram": 1342,
      "Ġpat": 1343,
      "ĠRe": 1344,
      "Ġgovern": 1345,
      "Ġfew": 1346,
      "Ġmem": 1347,
      "Ġchang": 1348,
      "Ġrele": 1349,
      "ross": 1350,
      "ament": 1351,
      "Ġname": 1352,
      "Ġaccess": 1353,
      "ĠDe": 1354,
      "Ġcalled": 1355,
      "Ġaff": 1356,
      "All": 1357,
      "ĠAn": 1358,
      "Ġprom": 1359,
      "Ġsec": 1360,
      "Ġpo": 1361,
      "und": 1362,
      "Ġcustom": 1363,
      "Ġwomen": 1364,
      "ential": 1365,
      "Ġbecome": 1366,
      "Ġmeet": 1367,
      "iod": 1368,
      "Ġdem": 1369,
      "ploy": 1370,
      "inal": 1371,
      "Ġtest": 1372,
      "viron": 1373,
      "Ġnational": 1374,
      "Ġca": 1375,
      "Ġel": 1376,
      "ĠReg": 1377,
      "Ġener": 1378,
      "Ġable": 1379,
      "However": 1380,
      "abl": 1381,
      "Ġsecond": 1382,
      "Ġsince": 1383,
      "Ġconcer": 1384,
      "Ġopp": 1385,
      "Ġens": 1386,
      "Ġbeg": 1387,
      "ĠSe": 1388,
      "work": 1389,
      "Ġparticular": 1390,
      "Ġbuild": 1391,
      "Ġfinanc": 1392,
      "nce": 1393,
      "Ġwhile": 1394,
      "Ġavailable": 1395,
      "Ġve": 1396,
      "Ġmen": 1397,
      "Ġiss": 1398,
      "St": 1399,
      "az": 1400,
      "ger": 1401,
      "To": 1402,
      "urity": 1403,
      "ĠState": 1404,
      "Ġbig": 1405,
      "Ġair": 1406,
      "ried": 1407,
      "Ġtreat": 1408,
      "ability": 1409,
      "Ġheart": 1410,
      "ivers": 1411,
      "med": 1412,
      "Ġinc": 1413,
      "These": 1414,
      "Ġleast": 1415,
      "amp": 1416,
      "Ġless": 1417,
      "Ġlive": 1418,
      "Ġlear": 1419,
      "Ġfuture": 1420,
      "Ġbas": 1421,
      "cil": 1422,
      "cy": 1423,
      "ĠYou": 1424,
      "Ġoften": 1425,
      "Ġprovide": 1426,
      "Ġcr": 1427,
      "Ġimpro": 1428,
      "Ġpos": 1429,
      "vironment": 1430,
      "Ġenergy": 1431,
      "omp": 1432,
      "Ġhand": 1433,
      "oh": 1434,
      "ering": 1435,
      "ittle": 1436,
      "Ġmoney": 1437,
      "Ġlet": 1438,
      "Ġide": 1439,
      "chool": 1440,
      "Ġbo": 1441,
      "Ġfore": 1442,
      "Ġrese": 1443,
      "ina": 1444,
      "aut": 1445,
      "Ġdev": 1446,
      "Ġcannot": 1447,
      "Ġbro": 1448,
      "Ġnext": 1449,
      "orn": 1450,
      "Ġconst": 1451,
      "Ġterm": 1452,
      "Ġservice": 1453,
      "Ġperform": 1454,
      "At": 1455,
      "Ġspecial": 1456,
      "ense": 1457,
      "arent": 1458,
      "Ġvar": 1459,
      "Ġsocial": 1460,
      "Al": 1461,
      "urch": 1462,
      "Ġunderstand": 1463,
      "Ġmillion": 1464,
      "Ġrequire": 1465,
      "tal": 1466,
      "Ġproject": 1467,
      "Ġmar": 1468,
      "Ġcertain": 1469,
      "Ġpresent": 1470,
      "Ġunt": 1471,
      "Ġnecessary": 1472,
      "ards": 1473,
      "ains": 1474,
      "Ġhour": 1475,
      "ortun": 1476,
      "ale": 1477,
      "Ġevent": 1478,
      "Ġperiod": 1479,
      "Ġtimes": 1480,
      "ention": 1481,
      "ĠUnited": 1482,
      "My": 1483,
      "ĠâĢĶ": 1484,
      "Ġben": 1485,
      "ready": 1486,
      "Ġfil": 1487,
      "ization": 1488,
      "Ġcontrol": 1489,
      "Ġmight": 1490,
      "Ġkeep": 1491,
      "Ġwar": 1492,
      "ians": 1493,
      "pecial": 1494,
      "Ġpop": 1495,
      "aj": 1496,
      "par": 1497,
      "Ġter": 1498,
      "ĠWh": 1499,
      "icial": 1500,
      "Ġpass": 1501,
      "Ch": 1502,
      "ances": 1503,
      "be": 1504,
      "Ġsl": 1505,
      "ouncil": 1506,
      "With": 1507,
      "Is": 1508,
      "Ġmus": 1509,
      "Ġexample": 1510,
      "man": 1511,
      "Ġed": 1512,
      "Ġusing": 1513,
      "Ġexperience": 1514,
      "ended": 1515,
      "Ġthing": 1516,
      "Ġrespons": 1517,
      "Ġthird": 1518,
      "Ġhist": 1519,
      "Ġappe": 1520,
      "Not": 1521,
      "Ġalready": 1522,
      "Ġdevelopment": 1523,
      "ĠNew": 1524,
      "cu": 1525,
      "Ġcurrent": 1526,
      "ĠSp": 1527,
      "Ġeverything": 1528,
      "Ġmean": 1529,
      "Ġcost": 1530,
      "Ġredu": 1531,
      "Ġconsum": 1532,
      "Ġweek": 1533,
      "ĠRuss": 1534,
      "Ġlittle": 1535,
      "Ġsuccess": 1536,
      "ules": 1537,
      "Ġlight": 1538,
      "itive": 1539,
      "Ġothers": 1540,
      "Ġestabl": 1541,
      "iety": 1542,
      "Ġtell": 1543,
      "Ġrelations": 1544,
      "Ġinternational": 1545,
      "Ġaut": 1546,
      "aken": 1547,
      "Ġput": 1548,
      "Ġbre": 1549,
      "els": 1550,
      "bal": 1551,
      "No": 1552,
      "ividual": 1553,
      "Ġocc": 1554,
      "ients": 1555,
      "ĠFr": 1556,
      "Ġever": 1557,
      "ames": 1558,
      "Ġhappen": 1559,
      "Ġfollowing": 1560,
      "ĠTh": 1561,
      "Ġfinancial": 1562,
      "utes": 1563,
      "ids": 1564,
      "Ġbelieve": 1565,
      "ah": 1566,
      "Ġenvironment": 1567,
      "Ġdri": 1568,
      "Ġpoint": 1569,
      "Ġfull": 1570,
      "Ġtoget": 1571,
      "Ġtogether": 1572,
      "utions": 1573,
      "Ġspecific": 1574,
      "ived": 1575,
      "vious": 1576,
      "ĠPar": 1577,
      "min": 1578,
      "inc": 1579,
      "Ġhard": 1580,
      "ier": 1581,
      "ĠUS": 1582,
      "Ġes": 1583,
      "Ġann": 1584,
      "atural": 1585,
      "Ġaddition": 1586,
      "ibility": 1587,
      "Ġbeh": 1588,
      "Ġlim": 1589,
      "Ġfour": 1590,
      "Ġagree": 1591,
      "âĢĶ": 1592,
      "Ġpract": 1593,
      "erred": 1594,
      "ged": 1595,
      "Ġwebs": 1596,
      "lood": 1597,
      "ently": 1598,
      "ead": 1599,
      "ider": 1600,
      "aterial": 1601,
      "ex": 1602,
      "Ġknown": 1603,
      "Ġyoung": 1604,
      "Ġrisk": 1605,
      "Every": 1606,
      "Ġbenef": 1607,
      "Ġprotect": 1608,
      "ug": 1609,
      "ories": 1610,
      "Ġquality": 1611,
      "atic": 1612,
      "ining": 1613,
      "Ġproper": 1614,
      "esus": 1615,
      "Ġorig": 1616,
      "Ġfre": 1617,
      "Ġneeds": 1618,
      "Ġconditions": 1619,
      "Ġcult": 1620,
      "Ġ15": 1621,
      "to": 1622,
      "selves": 1623,
      "ising": 1624,
      "ĠCouncil": 1625,
      "Ġemploy": 1626,
      "Ġgame": 1627,
      "Ġregard": 1628,
      "Ġindividual": 1629,
      "Ġwrit": 1630,
      "ium": 1631,
      "Ġsing": 1632,
      "ĠIntern": 1633,
      "Ġtalk": 1634,
      "Ġrights": 1635,
      "ury": 1636,
      "ield": 1637,
      "Ġsitu": 1638,
      "Ġcomplete": 1639,
      "Ġident": 1640,
      "augh": 1641,
      "Ġhead": 1642,
      "Ġ18": 1643,
      "Ġsays": 1644,
      "ĠDirect": 1645,
      "Ġexpect": 1646,
      "Ġuntil": 1647,
      "atch": 1648,
      "Ġexpl": 1649,
      "Ġmov": 1650,
      "Ġensure": 1651,
      "ither": 1652,
      ",\"": 1653,
      "Ġview": 1654,
      "One": 1655,
      "Ġtrad": 1656,
      "Ġrespect": 1657,
      "ĠTr": 1658,
      "angu": 1659,
      "Ġreason": 1660,
      "ĠGerm": 1661,
      "used": 1662,
      "Ġdr": 1663,
      "Ġworking": 1664,
      "urther": 1665,
      "Ġcourse": 1666,
      "Ġexist": 1667,
      "ok": 1668,
      "Ġcity": 1669,
      "Ġgovernment": 1670,
      "orld": 1671,
      "view": 1672,
      "Ġteam": 1673,
      "Ġcommon": 1674,
      "ator": 1675,
      "ĠSh": 1676,
      "ash": 1677,
      "Ġindust": 1678,
      "Ġbook": 1679,
      "Ġarea": 1680,
      "ably": 1681,
      "ctor": 1682,
      "fact": 1683,
      "ooks": 1684,
      "Ġpolic": 1685,
      "ajor": 1686,
      "pecially": 1687,
      "Ġmaterial": 1688,
      "Ġpolit": 1689,
      "ification": 1690,
      "iqu": 1691,
      "Ġ.": 1692,
      "Ġschool": 1693,
      "Some": 1694,
      "ream": 1695,
      "Ġnet": 1696,
      "irit": 1697,
      "Ġmonths": 1698,
      "ĠRegulation": 1699,
      "Ġconn": 1700,
      "EC": 1701,
      "Ġgl": 1702,
      "Ġbased": 1703,
      "Ġbegin": 1704,
      "Ġdeath": 1705,
      "Ġmil": 1706,
      "Ġbeaut": 1707,
      "Ġhouse": 1708,
      "Ġwin": 1709,
      "Ġmove": 1710,
      "Ġenough": 1711,
      "Ġfund": 1712,
      "ister": 1713,
      "ify": 1714,
      "Ġobject": 1715,
      "Ġey": 1716,
      "ote": 1717,
      "Ġaway": 1718,
      "Ġfar": 1719,
      "ogn": 1720,
      "Ġclear": 1721,
      "Ġnon": 1722,
      "Ġwhole": 1723,
      "Ġhig": 1724,
      "Ġamount": 1725,
      "Ġwr": 1726,
      "Ġsuff": 1727,
      "lease": 1728,
      "Ġpain": 1729,
      "Ġstrong": 1730,
      "Ġage": 1731,
      "Ġhaving": 1732,
      "Ġfac": 1733,
      "Ġprovided": 1734,
      "agement": 1735,
      "Ġkind": 1736,
      "Ġ$": 1737,
      "Ġlarge": 1738,
      "Ġ12": 1739,
      "oice": 1740,
      "lobal": 1741,
      "Ġturn": 1742,
      "rodu": 1743,
      "over": 1744,
      "10": 1745,
      "osed": 1746,
      "ior": 1747,
      "Ġsever": 1748,
      "ending": 1749,
      "ges": 1750,
      "Ġprotection": 1751,
      "Ġcreat": 1752,
      "Ġtem": 1753,
      "most": 1754,
      "Ġsure": 1755,
      "irl": 1756,
      "aim": 1757,
      "mb": 1758,
      "imate": 1759,
      "isions": 1760,
      "alf": 1761,
      "Ġeng": 1762,
      "idence": 1763,
      "rug": 1764,
      "pri": 1765,
      "Ġstop": 1766,
      "Ġjob": 1767,
      "Ġmajor": 1768,
      "rain": 1769,
      "Ġart": 1770,
      "Ġdise": 1771,
      "Ġpast": 1772,
      "com": 1773,
      "Ġrun": 1774,
      "Ġsecurity": 1775,
      "Ġnatural": 1776,
      "Ġreturn": 1777,
      "for": 1778,
      "Ġaccordance": 1779,
      "Ġgot": 1780,
      "resent": 1781,
      "anies": 1782,
      "Ġver": 1783,
      "Ġpercent": 1784,
      "ateg": 1785,
      "hic": 1786,
      "chie": 1787,
      "Ġ199": 1788,
      "Ġgiven": 1789,
      "Ġfriends": 1790,
      "Ġdidn": 1791,
      "iation": 1792,
      "Ġdone": 1793,
      "aster": 1794,
      "ners": 1795,
      "erc": 1796,
      "Ġwhether": 1797,
      "Ġrecomm": 1798,
      "Ġseveral": 1799,
      "Ġanim": 1800,
      "Ġrelationship": 1801,
      "Our": 1802,
      "Ġvisit": 1803,
      "use": 1804,
      "lose": 1805,
      "oid": 1806,
      "agraph": 1807,
      "Ġmeasures": 1808,
      "oper": 1809,
      "Ġamong": 1810,
      "Ġlangu": 1811,
      "ĠAd": 1812,
      "Ġlegal": 1813,
      "Ġsomeone": 1814,
      "Ġpost": 1815,
      "Ġmembers": 1816,
      "Ġhours": 1817,
      "Ġ[": 1818,
      "hod": 1819,
      "Ġdocu": 1820,
      "After": 1821,
      "Ġmom": 1822,
      "Ġcomb": 1823,
      "Ġtre": 1824,
      "Ġprofess": 1825,
      "Ġwords": 1826,
      "aid": 1827,
      "of": 1828,
      "Ġonce": 1829,
      "Ġclass": 1830,
      "19": 1831,
      "ats": 1832,
      "ĠAg": 1833,
      "Ġnothing": 1834,
      "por": 1835,
      "olution": 1836,
      "Ġfa": 1837,
      "Ġdest": 1838,
      "Ġrequest": 1839,
      "Ġquestion": 1840,
      "Ġcal": 1841,
      "Ġcame": 1842,
      "ern": 1843,
      "Ġseem": 1844,
      "Ġnight": 1845,
      "Now": 1846,
      "Ġroom": 1847,
      "Ġdi": 1848,
      "Ġpriv": 1849,
      "oose": 1850,
      "Ġful": 1851,
      "Ġcommunic": 1852,
      "Ġprevent": 1853,
      "Ġsubject": 1854,
      "Ġtaken": 1855,
      "?âĢĿ": 1856,
      "Ġlater": 1857,
      "Ġtry": 1858,
      "icult": 1859,
      "Ġblood": 1860,
      "ĠLord": 1861,
      "Ġimplement": 1862,
      "Ġoffer": 1863,
      "ĠPart": 1864,
      "Ġmind": 1865,
      "gle": 1866,
      "Ġresearch": 1867,
      "ĠWorld": 1868,
      "Ġrules": 1869,
      "Ġ30": 1870,
      "Ġtop": 1871,
      "ĠEx": 1872,
      "Ġcomes": 1873,
      "Ġkill": 1874,
      "ware": 1875,
      "Ġachie": 1876,
      "Ġlonger": 1877,
      "ĠJesus": 1878,
      "outh": 1879,
      "Ġeffective": 1880,
      "mber": 1881,
      "Ġsour": 1882,
      "Ġpot": 1883,
      "Ġcreate": 1884,
      "Ġphys": 1885,
      "Ġshort": 1886,
      "Ġsw": 1887,
      "âĢĵ": 1888,
      "itted": 1889,
      "ĠInd": 1890,
      "acter": 1891,
      "ĠSy": 1892,
      "side": 1893,
      "Ġwebsite": 1894,
      "ences": 1895,
      "Ġproduction": 1896,
      "uly": 1897,
      "Ġparticip": 1898,
      "Ġfive": 1899,
      "Ġactivities": 1900,
      "Ġ'": 1901,
      "Ġaccording": 1902,
      "ĠWe": 1903,
      "new": 1904,
      "Ġonline": 1905,
      "lov": 1906,
      "Ġcompanies": 1907,
      "ĠAl": 1908,
      "Ġvehic": 1909,
      "Ġstudy": 1910,
      "Ġanything": 1911,
      "ĠNo": 1912,
      "Ġsal": 1913,
      "Be": 1914,
      "Ġdoesn": 1915,
      "Ġtyp": 1916,
      "iful": 1917,
      "Ġtrue": 1918,
      "br": 1919,
      "Ġsex": 1920,
      "Ġopt": 1921,
      "Ġeconomic": 1922,
      "erence": 1923,
      "cle": 1924,
      "Ġyourself": 1925,
      "ises": 1926,
      "Ġaffect": 1927,
      "Ġinvol": 1928,
      "ceed": 1929,
      "Ġreferred": 1930,
      "ubl": 1931,
      "ĠPl": 1932,
      "sw": 1933,
      "Ġdecision": 1934,
      "Ġeveryone": 1935,
      "ety": 1936,
      "lection": 1937,
      "Ġparent": 1938,
      "'re": 1939,
      "Ġtold": 1940,
      "Ġi": 1941,
      "Ġcontract": 1942,
      "Ġimprove": 1943,
      "liament": 1944,
      "app": 1945,
      "Ġphot": 1946,
      "Ġtype": 1947,
      "Ġrecogn": 1948,
      "Ġaccept": 1949,
      "ufact": 1950,
      "Ġleft": 1951,
      "Ġyet": 1952,
      "incip": 1953,
      "Are": 1954,
      "Ġopportun": 1955,
      "Ġbring": 1956,
      "Ġdifficult": 1957,
      "Ġresults": 1958,
      "leep": 1959,
      "Where": 1960,
      "Ġauthorities": 1961,
      "Ġstep": 1962,
      "Ġmethod": 1963,
      "ait": 1964,
      "lovak": 1965,
      "Ġhistory": 1966,
      "ilities": 1967,
      "Ġtreatment": 1968,
      "fect": 1969,
      "Ġproced": 1970,
      "Ġapply": 1971,
      "pose": 1972,
      "ĠBe": 1973,
      "ets": 1974,
      "crib": 1975,
      "Ġmakes": 1976,
      "Ġtax": 1977,
      "ured": 1978,
      "Ġnear": 1979,
      "Ġlooking": 1980,
      "vant": 1981,
      "Ġvalue": 1982,
      "ze": 1983,
      "ror": 1984,
      "Ġrecord": 1985,
      "ĠSc": 1986,
      "Ġcontent": 1987,
      "ĠZ": 1988,
      "nov": 1989,
      "Ġapplication": 1990,
      "acy": 1991,
      "ton": 1992,
      "Ġhope": 1993,
      "joy": 1994,
      "Ġclose": 1995,
      "Ġfunction": 1996,
      "imum": 1997,
      "Ġproblems": 1998,
      "Ġfurther": 1999,
      "olic": 2000,
      "Ġcases": 2001,
      "Ġwon": 2002,
      "ides": 2003,
      "Ġliving": 2004,
      "Ġhold": 2005,
      "Ġtechnology": 2006,
      "lig": 2007,
      "Ġespecially": 2008,
      "Ġremain": 2009,
      "ilar": 2010,
      "Ġworks": 2011,
      "ump": 2012,
      "ones": 2013,
      "resident": 2014,
      "Ġside": 2015,
      "Ġeduc": 2016,
      "ĠDirective": 2017,
      "Ġelse": 2018,
      "ele": 2019,
      "att": 2020,
      "Ġdra": 2021,
      "Ġlow": 2022,
      "Ġfoc": 2023,
      "atory": 2024,
      "Ġincrease": 2025,
      "ological": 2026,
      "Ġmor": 2027,
      "idd": 2028,
      "Your": 2029,
      "Ġdeterm": 2030,
      "Ġthought": 2031,
      "Ġcir": 2032,
      "oura": 2033,
      "Ġcontact": 2034,
      "une": 2035,
      "where": 2036,
      "Ġdoing": 2037,
      "Ġmaking": 2038,
      "Ġsignific": 2039,
      "ĠAnd": 2040,
      "Ġplac": 2041,
      "Ġsingle": 2042,
      "Ġant": 2043,
      "isation": 2044,
      "ĠChurch": 2045,
      "dom": 2046,
      "irm": 2047,
      "Ġaddress": 2048,
      "wards": 2049,
      "icient": 2050,
      "Ġrequired": 2051,
      "Ġsystems": 2052,
      "Ġofficial": 2053,
      "lf": 2054,
      "Ġneg": 2055,
      "eople": 2056,
      "iol": 2057,
      "Ġglobal": 2058,
      "Ġappropri": 2059,
      "ĠCl": 2060,
      "Then": 2061,
      "Ġentire": 2062,
      "ling": 2063,
      "Ġparagraph": 2064,
      "Ġmult": 2065,
      "Ġlives": 2066,
      "aring": 2067,
      "ĠQ": 2068,
      "Ġshare": 2069,
      "Ġbuy": 2070,
      "Ġwoman": 2071,
      "uses": 2072,
      "allen": 2073,
      "minist": 2074,
      "Can": 2075,
      "Ġquick": 2076,
      "iversity": 2077,
      "Ġstay": 2078,
      "Ġanal": 2079,
      "Ġpress": 2080,
      "by": 2081,
      "Who": 2082,
      "Ġminutes": 2083,
      "Ġgirl": 2084,
      "Ġjud": 2085,
      "Ġcontrib": 2086,
      "ows": 2087,
      "ext": 2088,
      "Ġdue": 2089,
      "Ġmatter": 2090,
      "Ġcrit": 2091,
      "Ġcontain": 2092,
      "Ġadop": 2093,
      "ators": 2094,
      "Ġdog": 2095,
      "Ġinstit": 2096,
      "Ġrepresent": 2097,
      "ĠAs": 2098,
      "ored": 2099,
      "clus": 2100,
      "Ġtaking": 2101,
      "Ġnorm": 2102,
      "Ġcell": 2103,
      "epend": 2104,
      "Ġchanges": 2105,
      "âĢĿ.": 2106,
      "Ġmanufact": 2107,
      "ung": 2108,
      "Ġdeal": 2109,
      "ites": 2110,
      "lu": 2111,
      "Ġinclude": 2112,
      "Ġlocal": 2113,
      "medi": 2114,
      "ery": 2115,
      "ued": 2116,
      "Ġmother": 2117,
      "Ġstory": 2118,
      "Ġfaith": 2119,
      "Ġsuper": 2120,
      "Ġmusic": 2121,
      "oly": 2122,
      "Ġsubst": 2123,
      "orth": 2124,
      "ony": 2125,
      "'m": 2126,
      "reng": 2127,
      "Pro": 2128,
      "ĠAmerican": 2129,
      "Ġprincip": 2130,
      "Ġ100": 2131,
      "itor": 2132,
      "ique": 2133,
      "Ġfav": 2134,
      "ison": 2135,
      "Ġsug": 2136,
      "Ġenc": 2137,
      "Ġkey": 2138,
      "Ġmanagement": 2139,
      "rael": 2140,
      "Ġbeautiful": 2141,
      "Ġsituation": 2142,
      "Ġaction": 2143,
      "ran": 2144,
      "Ġconsider": 2145,
      "ĠYour": 2146,
      "ograph": 2147,
      "Ġtravel": 2148,
      "ires": 2149,
      "Ġfield": 2150,
      "Ġlab": 2151,
      "Ġwanted": 2152,
      "Ġabs": 2153,
      "duct": 2154,
      "ĠRep": 2155,
      "Ġcause": 2156,
      "ĠSlovak": 2157,
      "anks": 2158,
      "Ġ11": 2159,
      "Ġnature": 2160,
      "Ġsum": 2161,
      "Ġareas": 2162,
      "Ġstarted": 2163,
      "Ġeasy": 2164,
      "Ġlearn": 2165,
      "Ġclaim": 2166,
      "Ġserious": 2167,
      "Ġfail": 2168,
      "Ġmot": 2169,
      "ĠOr": 2170,
      "ledge": 2171,
      "ivil": 2172,
      "Ġspace": 2173,
      "af": 2174,
      "Ġrequirements": 2175,
      "Let": 2176,
      "ĠX": 2177,
      "Ġalmost": 2178,
      "Ġcollect": 2179,
      "Ġland": 2180,
      "osp": 2181,
      "Ġ13": 2182,
      "Or": 2183,
      "Ġago": 2184,
      "Ġsignificant": 2185,
      "Ġansw": 2186,
      "Ġ...": 2187,
      "Ġhair": 2188,
      "Ġprice": 2189,
      "Ġface": 2190,
      "Ġseen": 2191,
      "asing": 2192,
      "ĠCan": 2193,
      "Ġwent": 2194,
      "Ġpolicy": 2195,
      "isl": 2196,
      "Ġtook": 2197,
      "ik": 2198,
      "ĠCent": 2199,
      "Ġpropos": 2200,
      "Ġbasis": 2201,
      "cret": 2202,
      "200": 2203,
      "Ġeither": 2204,
      "Ġenjoy": 2205,
      "ĠEng": 2206,
      "asons": 2207,
      "Ġcomput": 2208,
      "urs": 2209,
      "Ġvide": 2210,
      "agn": 2211,
      "Ġstat": 2212,
      "Ġpolitical": 2213,
      "Ġinit": 2214,
      "Con": 2215,
      "Ġhy": 2216,
      "Ġpubl": 2217,
      "fer": 2218,
      "icro": 2219,
      "Ġasked": 2220,
      "ĠAf": 2221,
      "sp": 2222,
      "leg": 2223,
      "rect": 2224,
      "Ġexerc": 2225,
      "unt": 2226,
      "Don": 2227,
      "Ġgeneral": 2228,
      "ĠMin": 2229,
      "eed": 2230,
      "Ġcontinue": 2231,
      "Ġappropriate": 2232,
      "More": 2233,
      "Ġmedic": 2234,
      "Ġeat": 2235,
      "Ġupon": 2236,
      "Ġbad": 2237,
      "way": 2238,
      "Ġdam": 2239,
      "Ġtri": 2240,
      "Ġindic": 2241,
      "Ġabove": 2242,
      "Ġchoose": 2243,
      "ends": 2244,
      "ĠPh": 2245,
      "Ġpurpose": 2246,
      "ilt": 2247,
      "Ġmiss": 2248,
      "Ġ14": 2249,
      "Ġpray": 2250,
      "Ġsoon": 2251,
      "Ġenter": 2252,
      "Ġthemselves": 2253,
      "Ġhowever": 2254,
      "uge": 2255,
      "Ġlov": 2256,
      "Ġhot": 2257,
      "Ġ16": 2258,
      "Ġgre": 2259,
      "Ex": 2260,
      "Ġpotential": 2261,
      "Ġoil": 2262,
      "oms": 2263,
      "Ġgrowth": 2264,
      "vention": 2265,
      "Ġconnect": 2266,
      "Ġfight": 2267,
      "Ġusers": 2268,
      "50": 2269,
      "ring": 2270,
      "Ġoblig": 2271,
      "Ġstreng": 2272,
      "Ġdetail": 2273,
      "Ġsimilar": 2274,
      "ike": 2275,
      "Re": 2276,
      "aps": 2277,
      "ode": 2278,
      "Ġlo": 2279,
      "Ġrelig": 2280,
      "Ġsent": 2281,
      "Ġlanguage": 2282,
      "ots": 2283,
      "Ġhalf": 2284,
      "Ġdig": 2285,
      "Ġitself": 2286,
      "Ġpurch": 2287,
      "Un": 2288,
      "Ġactually": 2289,
      "Ġleave": 2290,
      "Sh": 2291,
      "Ġfr": 2292,
      "Ġdecl": 2293,
      "Ġfall": 2294,
      "Ġregul": 2295,
      "ression": 2296,
      "Ġdeli": 2297,
      "verage": 2298,
      "Ġmember": 2299,
      "Ġindustry": 2300,
      "Ġperfect": 2301,
      "Ġdisease": 2302,
      "ler": 2303,
      "itary": 2304,
      "idered": 2305,
      "Ġwond": 2306,
      "ert": 2307,
      "Ġsite": 2308,
      "ctions": 2309,
      "Ġdate": 2310,
      "Ġself": 2311,
      "Ġways": 2312,
      "Ġsafety": 2313,
      "lling": 2314,
      "ĠFor": 2315,
      "hers": 2316,
      "Ġimm": 2317,
      "Ġrad": 2318,
      "pro": 2319,
      "ĠPr": 2320,
      "ox": 2321,
      "Ġvarious": 2322,
      "Ġloss": 2323,
      "EU": 2324,
      "ĠParliament": 2325,
      "ging": 2326,
      "ift": 2327,
      "Ġsleep": 2328,
      "itiz": 2329,
      "Ġconsidered": 2330,
      "Ġcreated": 2331,
      "Ġvol": 2332,
      "ĠCommun": 2333,
      "Ġpeace": 2334,
      "ording": 2335,
      "Ġlevels": 2336,
      "Ġ17": 2337,
      "mit": 2338,
      "fully": 2339,
      "Ġsix": 2340,
      "Ġautom": 2341,
      "Ġrole": 2342,
      "ĠChina": 2343,
      "Ġfilm": 2344,
      "overed": 2345,
      "Acc": 2346,
      "Ġweight": 2347,
      "Ġhappy": 2348,
      "ched": 2349,
      "val": 2350,
      "Ġeyes": 2351,
      "ĠPresident": 2352,
      "Ġrelevant": 2353,
      "ĠMar": 2354,
      "lim": 2355,
      "Ġcustomers": 2356,
      "Ġacross": 2357,
      "oul": 2358,
      "Ġwalk": 2359,
      "Ġtar": 2360,
      "ĠLe": 2361,
      "Ġskin": 2362,
      "Ġport": 2363,
      "Ġspirit": 2364,
      "ills": 2365,
      "inary": 2366,
      "ĠIsrael": 2367,
      "Ġtruth": 2368,
      "11": 2369,
      "iated": 2370,
      "Ġrepl": 2371,
      "ĠDo": 2372,
      "Ġeffects": 2373,
      "sy": 2374,
      "âĢĺ": 2375,
      "Ġviol": 2376,
      "vert": 2377,
      "Ġfather": 2378,
      "Ġ50": 2379,
      "Ġremember": 2380,
      "Ġspeak": 2381,
      "Ġneeded": 2382,
      "Ġactive": 2383,
      "Ġtotal": 2384,
      "ĠMan": 2385,
      "Ġnetwork": 2386,
      "Ġcharacter": 2387,
      "Ġdeb": 2388,
      "ohn": 2389,
      "Ġearly": 2390,
      "ĠRes": 2391,
      "rop": 2392,
      "oogle": 2393,
      "verse": 2394,
      "AT": 2395,
      "Ġscient": 2396,
      "wh": 2397,
      "Ġdream": 2398,
      "ape": 2399,
      "irth": 2400,
      "Ġsoft": 2401,
      "lam": 2402,
      "Ġwait": 2403,
      "omes": 2404,
      "Ġparents": 2405,
      "Ġaim": 2406,
      "Ġtransport": 2407,
      "come": 2408,
      "ĠInternational": 2409,
      "uck": 2410,
      "ided": 2411,
      "itional": 2412,
      "Ġimpact": 2413,
      "Ġdrink": 2414,
      "istic": 2415,
      "Ġsafe": 2416,
      "aged": 2417,
      "Ġmoment": 2418,
      "anger": 2419,
      "reme": 2420,
      "ights": 2421,
      "hest": 2422,
      "body": 2423,
      "By": 2424,
      "Ġcooper": 2425,
      "ĠSw": 2426,
      "aby": 2427,
      "ney": 2428,
      "Ġess": 2429,
      "Ġmess": 2430,
      "ruction": 2431,
      "Ġbuilding": 2432,
      "Ġsociety": 2433,
      "12": 2434,
      "Ġhigher": 2435,
      "apt": 2436,
      "ĠMay": 2437,
      "Ġimmedi": 2438,
      "Ġinteg": 2439,
      "Ġmob": 2440,
      "Ġcred": 2441,
      "ishing": 2442,
      "Ġtrade": 2443,
      "ructure": 2444,
      "ports": 2445,
      "rap": 2446,
      "ĠBrit": 2447,
      "Ġassoc": 2448,
      "Ġlost": 2449,
      "Ġtakes": 2450,
      "Ġchallen": 2451,
      "let": 2452,
      "Ġadminist": 2453,
      "Ġanyone": 2454,
      "Ġbecame": 2455,
      "Ġtherefore": 2456,
      "Ġinnov": 2457,
      "Ġoutside": 2458,
      "ĠMy": 2459,
      "ĠHis": 2460,
      "ott": 2461,
      "ees": 2462,
      "Ġexcept": 2463,
      "cing": 2464,
      "Ġassess": 2465,
      "Ġsimple": 2466,
      "Ġprob": 2467,
      "ply": 2468,
      "su": 2469,
      "Ġperformance": 2470,
      "atures": 2471,
      "ensive": 2472,
      "ĠRussia": 2473,
      "sequ": 2474,
      "Ġgen": 2475,
      "Ġtool": 2476,
      "isc": 2477,
      "His": 2478,
      "\".": 2479,
      "aper": 2480,
      "Ġindepend": 2481,
      "Ġbreak": 2482,
      "Ġharm": 2483,
      "fort": 2484,
      "Ġbank": 2485,
      "Ġer": 2486,
      "Ġavoid": 2487,
      "Ġvir": 2488,
      "Ġassist": 2489,
      "'ll": 2490,
      "Ġterms": 2491,
      "Ġtour": 2492,
      "ches": 2493,
      "ĠKing": 2494,
      "ane": 2495,
      "eng": 2496,
      "Ġmedia": 2497,
      "ront": 2498,
      "ĠCont": 2499,
      "Ġgoods": 2500,
      "Ġearth": 2501,
      "go": 2502,
      "Ġposition": 2503,
      "though": 2504,
      "oints": 2505,
      "Many": 2506,
      "hold": 2507,
      "ober": 2508,
      "rad": 2509,
      "Ġcirc": 2510,
      "ann": 2511,
      "Ġidea": 2512,
      "Ġprevious": 2513,
      "hib": 2514,
      "Ġauthority": 2515,
      "Ġwants": 2516,
      "According": 2517,
      "ĠChristian": 2518,
      "Ġdel": 2519,
      "acc": 2520,
      "Ġweeks": 2521,
      "Ġrecommend": 2522,
      "Ġprep": 2523,
      "Ad": 2524,
      "Ġgra": 2525,
      "Ġdrug": 2526,
      "Ġcy": 2527,
      "Ġusually": 2528,
      "Ġprior": 2529,
      "rench": 2530,
      "Ġsepar": 2531,
      "Ġdead": 2532,
      "Ġ25": 2533,
      "Ġobs": 2534,
      "itte": 2535,
      "Ġlargest": 2536,
      "Ġresponsible": 2537,
      "iter": 2538,
      "Ġresour": 2539,
      "Ġtrust": 2540,
      "Ġ&": 2541,
      "Ġcitiz": 2542,
      "Ġuser": 2543,
      "oday": 2544,
      "ĠSu": 2545,
      "ĠII": 2546,
      "arant": 2547,
      "order": 2548,
      "yle": 2549,
      "Ġborn": 2550,
      "ici": 2551,
      "book": 2552,
      "ĠRepublic": 2553,
      "Ġtypes": 2554,
      "ĠOff": 2555,
      "Ġred": 2556,
      "Ġmodern": 2557,
      "Ġthreat": 2558,
      "Ġdom": 2559,
      "Ġsound": 2560,
      "atives": 2561,
      "Ġpopular": 2562,
      "Ġestablished": 2563,
      "ĠAust": 2564,
      "edom": 2565,
      "ĠBl": 2566,
      "Ġalong": 2567,
      "Here": 2568,
      "Ġactivity": 2569,
      "Ġtraining": 2570,
      "Most": 2571,
      "ret": 2572,
      "Ġhands": 2573,
      "poses": 2574,
      "Ġrelated": 2575,
      "Ġjour": 2576,
      "Ġcoming": 2577,
      "enn": 2578,
      "Ġknowledge": 2579,
      "Ġclean": 2580,
      "Ġmaintain": 2581,
      "Ġregular": 2582,
      "ronic": 2583,
      "ĠApp": 2584,
      "urance": 2585,
      "ĠTe": 2586,
      "Ġreceive": 2587,
      "ĠCo": 2588,
      "Ġoffers": 2589,
      "Ġbeginning": 2590,
      "Ġfast": 2591,
      "Ġtechnical": 2592,
      "Ġsat": 2593,
      "Ġreasons": 2594,
      "Ġagreement": 2595,
      "Ġinstall": 2596,
      "'ve": 2597,
      "Ġparty": 2598,
      "Ġcivil": 2599,
      "Ġcompletely": 2600,
      "Ġdou": 2601,
      "ai": 2602,
      "ival": 2603,
      "rated": 2604,
      "ĠMe": 2605,
      "Ġorigin": 2606,
      "Ġisn": 2607,
      "Ġeffort": 2608,
      "erve": 2609,
      "Ġbillion": 2610,
      "rict": 2611,
      "ene": 2612,
      "urd": 2613,
      "ternal": 2614,
      "Ġill": 2615,
      "Ġadded": 2616,
      "Ġdiv": 2617,
      "ER": 2618,
      "Ġline": 2619,
      "Ġcommunity": 2620,
      "Ġarticle": 2621,
      "Ġla": 2622,
      "Ġhimself": 2623,
      "Ġphysical": 2624,
      "Ġparties": 2625,
      "Ġpurposes": 2626,
      "ipp": 2627,
      "Ġsearch": 2628,
      "Ġcamp": 2629,
      "Ġeducation": 2630,
      "Ġcook": 2631,
      "Ġwind": 2632,
      "Ġele": 2633,
      "oon": 2634,
      "ĠAmerica": 2635,
      "Ġhealthy": 2636,
      "13": 2637,
      "Ġkids": 2638,
      "Ġwatch": 2639,
      "Ġcard": 2640,
      "Ġmass": 2641,
      "15": 2642,
      "ĠPol": 2643,
      "acks": 2644,
      "Ġrange": 2645,
      "Ġachieve": 2646,
      "Ġprovides": 2647,
      "Ġforce": 2648,
      "Ġfear": 2649,
      "ĠItal": 2650,
      "gn": 2651,
      "Even": 2652,
      "Ġtas": 2653,
      "Ġappear": 2654,
      "Just": 2655,
      "Ġdescrib": 2656,
      "Ġcheck": 2657,
      "Ġforward": 2658,
      "Ġinvestment": 2659,
      "Ġlikely": 2660,
      "Ġvict": 2661,
      "ule": 2662,
      "Ġprivate": 2663,
      "atter": 2664,
      "Ġanswer": 2665,
      "ipment": 2666,
      "Ġpack": 2667,
      "int": 2668,
      "Ġcancer": 2669,
      "sc": 2670,
      "Ġissue": 2671,
      "lex": 2672,
      "uary": 2673,
      "ĠGermany": 2674,
      "Ġstates": 2675,
      "aff": 2676,
      "Ġz": 2677,
      "Ġcosts": 2678,
      "Ġtarget": 2679,
      "Ġwrong": 2680,
      "anced": 2681,
      "Ġprofessional": 2682,
      "year": 2683,
      "sec": 2684,
      "ecause": 2685,
      "Ġintrodu": 2686,
      "aily": 2687,
      "Ġpersons": 2688,
      "Ġcapital": 2689,
      "Ġselect": 2690,
      "Ġdesigned": 2691,
      "Ġ198": 2692,
      "Ġreceived": 2693,
      "Ġquickly": 2694,
      "Ġalone": 2695,
      "Ġroad": 2696,
      "ĠMed": 2697,
      "Ġsens": 2698,
      "Ġdocument": 2699,
      "Ġseries": 2700,
      "lled": 2701,
      "ĠJan": 2702,
      "eb": 2703,
      "Ġparts": 2704,
      "Ġpartners": 2705,
      "apan": 2706,
      "Ġconcerned": 2707,
      "From": 2708,
      "stain": 2709,
      "empt": 2710,
      "Ġattention": 2711,
      "ĠTo": 2712,
      "erg": 2713,
      "Ġcomputer": 2714,
      "Ġrev": 2715,
      "stit": 2716,
      "Ġexperi": 2717,
      "Ġvideo": 2718,
      "Ġsimply": 2719,
      "Ġgetting": 2720,
      "ĠWar": 2721,
      "ĠRussian": 2722,
      "itation": 2723,
      "Ġpatients": 2724,
      "ĠServ": 2725,
      "mitted": 2726,
      "Ġquestions": 2727,
      "Ġfinal": 2728,
      "Ġcross": 2729,
      "Ġinflu": 2730,
      "Ġquite": 2731,
      "Ġpict": 2732,
      "Ġâ": 2733,
      "ĠAfric": 2734,
      "Ġterrit": 2735,
      "Ġunique": 2736,
      "Ġnormal": 2737,
      "Ġur": 2738,
      "Ġsold": 2739,
      "Ġbegan": 2740,
      "Ġbal": 2741,
      "Ġrather": 2742,
      "my": 2743,
      "Ġlegisl": 2744,
      "Ġessential": 2745,
      "Ġstandard": 2746,
      "Ġbirth": 2747,
      "Ġ24": 2748,
      "ĠComp": 2749,
      "Ġheld": 2750,
      "May": 2751,
      "Ġdefin": 2752,
      "Ġcou": 2753,
      "oke": 2754,
      "Ġbit": 2755,
      "Ġcarry": 2756,
      "Ġannoun": 2757,
      "ittee": 2758,
      "Ġregist": 2759,
      "ening": 2760,
      "Ġones": 2761,
      "ĠBr": 2762,
      "Ġhon": 2763,
      "Ġaud": 2764,
      "Ġseek": 2765,
      "Ġreview": 2766,
      "Ġphone": 2767,
      "Ġforeign": 2768,
      "Ġpen": 2769,
      "Ġthous": 2770,
      "Ġfire": 2771,
      "Ġsource": 2772,
      "Ġoccur": 2773,
      "Ġtable": 2774,
      "Ġhear": 2775,
      "Ġcele": 2776,
      "Please": 2777,
      "lish": 2778,
      "oph": 2779,
      "Any": 2780,
      "Ġsustain": 2781,
      "Ġoriginal": 2782,
      "itable": 2783,
      "Ġbenefits": 2784,
      "osing": 2785,
      "Ġexpress": 2786,
      "Ġfocus": 2787,
      "Ġple": 2788,
      "People": 2789,
      "Ġ2015": 2790,
      "ĠNational": 2791,
      "Ġplant": 2792,
      "ests": 2793,
      "Ġcut": 2794,
      "arth": 2795,
      "Ġpositive": 2796,
      "change": 2797,
      "ivity": 2798,
      "Ġtrying": 2799,
      "Today": 2800,
      "Ġopportunity": 2801,
      "ental": 2802,
      "Ġready": 2803,
      "Ġchem": 2804,
      "Ġcorrect": 2805,
      "Ġground": 2806,
      "ude": 2807,
      "Ġsize": 2808,
      "Ġwonder": 2809,
      "Ġsun": 2810,
      "Ġheard": 2811,
      "14": 2812,
      "Ġguarant": 2813,
      "18": 2814,
      "Ġbrother": 2815,
      "Ġcurrently": 2816,
      "ĠGo": 2817,
      "Have": 2818,
      "Ġcoll": 2819,
      "Ġability": 2820,
      "Ġdirectly": 2821,
      "ria": 2822,
      "Ġbuilt": 2823,
      "Ġattack": 2824,
      "30": 2825,
      "Ġsaying": 2826,
      "orrow": 2827,
      "Ġsho": 2828,
      "Ġinvestig": 2829,
      "ourage": 2830,
      "Ġmilitary": 2831,
      "Ġexact": 2832,
      "ĠGoogle": 2833,
      "Ġrate": 2834,
      "Ġsoul": 2835,
      "Ġarri": 2836,
      "Ġsense": 2837,
      "formation": 2838,
      "eth": 2839,
      "Ġcondition": 2840,
      "Ġissues": 2841,
      "aching": 2842,
      "Ar": 2843,
      "mp": 2844,
      "ĠFrench": 2845,
      "iting": 2846,
      "Ġanimals": 2847,
      "ES": 2848,
      "ole": 2849,
      "Ġhappened": 2850,
      "ips": 2851,
      "Ġcentury": 2852,
      "Ġgroups": 2853,
      "ĠAb": 2854,
      "rim": 2855,
      "Ġsoftware": 2856,
      "Ġfully": 2857,
      "udget": 2858,
      "Ġmorning": 2859,
      "ĠAss": 2860,
      "Ġdigital": 2861,
      "Ġsaw": 2862,
      "Ġdeep": 2863,
      "ĠMus": 2864,
      "Ġsave": 2865,
      "Ġdied": 2866,
      "?\"": 2867,
      "ĠCar": 2868,
      "Ġlink": 2869,
      "Ġprobably": 2870,
      "omen": 2871,
      "Ġprovisions": 2872,
      "Ġcompl": 2873,
      "Ġmodel": 2874,
      "artment": 2875,
      "Ġprim": 2876,
      "Ġevents": 2877,
      "Ġnews": 2878,
      "Ġmedical": 2879,
      "more": 2880,
      "amed": 2881,
      "ables": 2882,
      "Ġcop": 2883,
      "inks": 2884,
      "Ġfoot": 2885,
      "Ġaverage": 2886,
      "Ġsolution": 2887,
      "ĠDay": 2888,
      "Ġ40": 2889,
      "Ġchanged": 2890,
      "Ġadditional": 2891,
      "Ġeconomy": 2892,
      "Ġpoints": 2893,
      "Ġpayment": 2894,
      "Ġdanger": 2895,
      "Ġthroughout": 2896,
      "sh": 2897,
      "Ġversion": 2898,
      "ĠÂ": 2899,
      "Ġtown": 2900,
      "Ġcitizens": 2901,
      "Ġelectric": 2902,
      "Ġmeeting": 2903,
      "riage": 2904,
      "cell": 2905,
      "Ġchoice": 2906,
      "uted": 2907,
      "ĠCour": 2908,
      "Ġgames": 2909,
      "ĠJohn": 2910,
      "aving": 2911,
      "Ġcert": 2912,
      "Ġcourt": 2913,
      "Ġbaby": 2914,
      "Ġdeveloped": 2915,
      "wise": 2916,
      ".âĢĻ": 2917,
      "Ġlog": 2918,
      "Ġfavor": 2919,
      "Ġstudents": 2920,
      "ĠIt": 2921,
      "rate": 2922,
      "rown": 2923,
      "eneral": 2924,
      "Ġreduce": 2925,
      "Ġfreedom": 2926,
      "Ġworth": 2927,
      "Ġdevice": 2928,
      "cember": 2929,
      "reg": 2930,
      "Ġking": 2931,
      "Ġreact": 2932,
      "Ġson": 2933,
      "lied": 2934,
      "play": 2935,
      "ĠAll": 2936,
      "Ġasse": 2937,
      "Ġengine": 2938,
      "Ġoffice": 2939,
      "Ġsuggest": 2940,
      "Ġwritten": 2941,
      "Ġexercise": 2942,
      "ĠGerman": 2943,
      "ĠEn": 2944,
      "mpt": 2945,
      "Ġjoin": 2946,
      "Ġobtain": 2947,
      "Ġfat": 2948,
      "Ġprojects": 2949,
      "Ġtext": 2950,
      "lear": 2951,
      "Ġopin": 2952,
      "Ġpath": 2953,
      "aven": 2954,
      "urer": 2955,
      "Ġequipment": 2956,
      "Ġstatement": 2957,
      "ercial": 2958,
      "Ġcomfort": 2959,
      "Ġbed": 2960,
      "Ġknew": 2961,
      "Ġmyself": 2962,
      "Ġcooperation": 2963,
      "Ġmaterials": 2964,
      "Ġlower": 2965,
      "ought": 2966,
      "ster": 2967,
      "nal": 2968,
      "Ġdaily": 2969,
      "aging": 2970,
      "Ġsurpr": 2971,
      "Ġprocessing": 2972,
      "Ġpopulation": 2973,
      "rought": 2974,
      "Other": 2975,
      "ĠJapan": 2976,
      "Pre": 2977,
      "Ġregion": 2978,
      "ino": 2979,
      "hem": 2980,
      "Ġmach": 2981,
      "Ġpublished": 2982,
      "Ġgoal": 2983,
      "istics": 2984,
      "Ġvehicle": 2985,
      "unch": 2986,
      "Ġupd": 2987,
      "Ġ:": 2988,
      "nex": 2989,
      "Ġdoctor": 2990,
      "Ġresources": 2991,
      "olid": 2992,
      "Because": 2993,
      "Ġwide": 2994,
      "Ġfamil": 2995,
      "ĠJanuary": 2996,
      "Ġbehav": 2997,
      "âĢ¢": 2998,
      "Since": 2999,
      "ush": 3000,
      "Ġbar": 3001,
      "First": 3002,
      "Ġwhose": 3003,
      "just": 3004,
      "Ġconduct": 3005,
      "Ġknows": 3006,
      "Ġimmediately": 3007,
      "astic": 3008,
      "atform": 3009,
      "Ġdark": 3010,
      "ĠJew": 3011,
      "16": 3012,
      "ĠJune": 3013,
      "ĠFrance": 3014,
      "Ġdiet": 3015,
      "ĠGu": 3016,
      "arian": 3017,
      "Ġdecided": 3018,
      "bit": 3019,
      "Ġincludes": 3020,
      "illed": 3021,
      "ened": 3022,
      "term": 3023,
      "Each": 3024,
      "Ġplayers": 3025,
      "Ġinside": 3026,
      "Ġcustomer": 3027,
      "band": 3028,
      "Ġaf": 3029,
      "Ġpresident": 3030,
      "alls": 3031,
      "rast": 3032,
      "mission": 3033,
      "ively": 3034,
      "itc": 3035,
      "Ġblack": 3036,
      "Ġcateg": 3037,
      "Ġmeaning": 3038,
      "Ġevidence": 3039,
      "oman": 3040,
      "Ġpressure": 3041,
      "yn": 3042,
      "ĠâĢ¦": 3043,
      "Ġgoes": 3044,
      "Ġpromot": 3045,
      "Ġstress": 3046,
      "Ġhost": 3047,
      "iddle": 3048,
      "Ġsometimes": 3049,
      "Ġlocated": 3050,
      "Ġpractice": 3051,
      "Ġstandards": 3052,
      "Ġinstru": 3053,
      "ĠHim": 3054,
      "arily": 3055,
      "ĠWhat": 3056,
      "amer": 3057,
      "ĠMon": 3058,
      "Ġhelps": 3059,
      "lt": 3060,
      "owers": 3061,
      "ĠDecember": 3062,
      "Ġproperty": 3063,
      "Ġgrant": 3064,
      "IN": 3065,
      "ĠAm": 3066,
      "eder": 3067,
      "aries": 3068,
      "Ġforg": 3069,
      "Ġsuccessful": 3070,
      "ached": 3071,
      "ĠSoc": 3072,
      "Ġ2016": 3073,
      "IS": 3074,
      "lier": 3075,
      "Ġmax": 3076,
      "aur": 3077,
      "Ġprocedure": 3078,
      "Ġbrain": 3079,
      "acity": 3080,
      "Ġten": 3081,
      "Ġcolor": 3082,
      "OR": 3083,
      "Ġtowards": 3084,
      "Ġdistrib": 3085,
      "arc": 3086,
      "sych": 3087,
      "Ġprec": 3088,
      "Ġbooks": 3089,
      "Pl": 3090,
      "Ġestablish": 3091,
      "Ġste": 3092,
      "mas": 3093,
      "chan": 3094,
      "Ġincreased": 3095,
      "Ġforget": 3096,
      "Ġfeatures": 3097,
      "Ġscre": 3098,
      "ctors": 3099,
      "Ġextreme": 3100,
      "elt": 3101,
      "Ġmention": 3102,
      "Ġcredit": 3103,
      "God": 3104,
      "Ġinvolved": 3105,
      "key": 3106,
      "ĠJuly": 3107,
      "nces": 3108,
      "hood": 3109,
      "ops": 3110,
      "Ġbudget": 3111,
      "Ġeasily": 3112,
      "Ġcompetent": 3113,
      "Ġ2014": 3114,
      "Ġallows": 3115,
      "Ġtele": 3116,
      "Ġcarried": 3117,
      "Ġteac": 3118,
      "Ġfrequ": 3119,
      "While": 3120,
      "ĠAt": 3121,
      "Also": 3122,
      "odies": 3123,
      "Ġcry": 3124,
      "Ġ197": 3125,
      "Ġaware": 3126,
      "aughter": 3127,
      "Therefore": 3128,
      "ĠUK": 3129,
      "Ġweb": 3130,
      "acebook": 3131,
      "oud": 3132,
      "Ġseason": 3133,
      "ume": 3134,
      "Ġbi": 3135,
      "Ġspeed": 3136,
      "Ġgave": 3137,
      "ese": 3138,
      "Ġdifference": 3139,
      "ained": 3140,
      "Ġwish": 3141,
      "Ġhor": 3142,
      "ull": 3143,
      "ĠCourt": 3144,
      "Ġsong": 3145,
      "enced": 3146,
      "Ġgreater": 3147,
      "Somet": 3148,
      "wide": 3149,
      "pril": 3150,
      "Ġfront": 3151,
      "Ġ0": 3152,
      "inated": 3153,
      "Ġprogress": 3154,
      "ologies": 3155,
      "Ġactions": 3156,
      "Ġlose": 3157,
      "17": 3158,
      "ĠOct": 3159,
      "Ġculture": 3160,
      "ender": 3161,
      "Ġpregn": 3162,
      "Ġlif": 3163,
      "Ġ2017": 3164,
      "Only": 3165,
      "Ġwhite": 3166,
      "Ġgives": 3167,
      "edd": 3168,
      "Ġsolutions": 3169,
      "ns": 3170,
      "Ġdestro": 3171,
      "face": 3172,
      "ĠEarth": 3173,
      "Ġresponsibility": 3174,
      "bo": 3175,
      "Ġadvert": 3176,
      "ĠInternet": 3177,
      "Ġcommunication": 3178,
      "AS": 3179,
      "cient": 3180,
      "wo": 3181,
      "Ġapproach": 3182,
      "rest": 3183,
      "Ġdeg": 3184,
      "Ġleaders": 3185,
      "Ph": 3186,
      "rial": 3187,
      "Ġdevices": 3188,
      "ĠUniversity": 3189,
      "Ġadult": 3190,
      "ĠSouth": 3191,
      "Ġlooks": 3192,
      "Ġtemper": 3193,
      "Ġshows": 3194,
      "Ġbrought": 3195,
      "ball": 3196,
      "Ġ2018": 3197,
      "Ġplaces": 3198,
      "Ġcover": 3199,
      "Ġchance": 3200,
      "inese": 3201,
      "cri": 3202,
      "Ġtou": 3203,
      "ĠGree": 3204,
      "Ġpoor": 3205,
      "undred": 3206,
      "Ġsett": 3207,
      "Ġincreasing": 3208,
      "ysis": 3209,
      "onse": 3210,
      "Ġpartner": 3211,
      "Of": 3212,
      "iveness": 3213,
      "Ġsil": 3214,
      "Se": 3215,
      "Ġchurch": 3216,
      "eter": 3217,
      "Ġpred": 3218,
      "ĠCol": 3219,
      "Ġreve": 3220,
      "Ġcells": 3221,
      "ĠHow": 3222,
      "Ġemb": 3223,
      "raft": 3224,
      "Ġcelebr": 3225,
      "Ġrecent": 3226,
      "Ġstore": 3227,
      "orks": 3228,
      "iate": 3229,
      "ffee": 3230,
      "Ġsend": 3231,
      "Ġremov": 3232,
      "imately": 3233,
      "iable": 3234,
      "ptember": 3235,
      "ON": 3236,
      "Ġfulf": 3237,
      "Ġexc": 3238,
      "Ġimplementation": 3239,
      "Ġpolice": 3240,
      "Ġdemand": 3241,
      "Ġmonitor": 3242,
      "ellig": 3243,
      "Ġbehind": 3244,
      "ief": 3245,
      "ĠProt": 3246,
      "Ġconsist": 3247,
      "Ġsatis": 3248,
      "vision": 3249,
      "ĠTur": 3250,
      "Ġfru": 3251,
      "Ġoperation": 3252,
      "Ġhappens": 3253,
      "Ġwife": 3254,
      "Ġsell": 3255,
      "ĠEnglish": 3256,
      "Ġexpected": 3257,
      "Ġsurv": 3258,
      "Ġattract": 3259,
      "ticles": 3260,
      "Ġlaws": 3261,
      "airs": 3262,
      "Ġlimited": 3263,
      "Ġsympt": 3264,
      "Ġmag": 3265,
      "Ġplease": 3266,
      "Ġparticularly": 3267,
      "load": 3268,
      "yl": 3269,
      "ĠMarch": 3270,
      "gen": 3271,
      "uman": 3272,
      "Ġwrite": 3273,
      "Ġlack": 3274,
      "itting": 3275,
      "Ġmeasure": 3276,
      "Ġarch": 3277,
      "Ġitem": 3278,
      "ms": 3279,
      "Ġsector": 3280,
      "Ġinstitutions": 3281,
      "Ġbasic": 3282,
      "Ġinsp": 3283,
      "Ġmobile": 3284,
      "Ġcompetition": 3285,
      "Ġvehicles": 3286,
      "atur": 3287,
      "Ġthinking": 3288,
      "ĠNorth": 3289,
      "iction": 3290,
      "Ġcircum": 3291,
      "Ġdamage": 3292,
      "Ġwaste": 3293,
      "etic": 3294,
      "Ġrespond": 3295,
      "Ġterror": 3296,
      "ley": 3297,
      "Ġundert": 3298,
      "Ġforms": 3299,
      "Ġemployees": 3300,
      "Ġrepe": 3301,
      "ĠApril": 3302,
      "Ġemot": 3303,
      "Ġgreen": 3304,
      "antly": 3305,
      "cul": 3306,
      "AN": 3307,
      "Ġenvironmental": 3308,
      "Ġsupply": 3309,
      "Ġexisting": 3310,
      "Well": 3311,
      "hern": 3312,
      "raw": 3313,
      "aves": 3314,
      "Ġpaid": 3315,
      "Ġseems": 3316,
      "ĠConvention": 3317,
      "Ġemail": 3318,
      "Ġinternal": 3319,
      "Ġsecret": 3320,
      "aul": 3321,
      "Ġgas": 3322,
      "Ġdocuments": 3323,
      "ĠAre": 3324,
      "amework": 3325,
      "Ġinj": 3326,
      "During": 3327,
      "Ġpage": 3328,
      "Ġreported": 3329,
      "Ġstri": 3330,
      "Ġreach": 3331,
      "ĠOctober": 3332,
      "Ġ196": 3333,
      "ĠCommunity": 3334,
      "Ġclimate": 3335,
      "Ġadvant": 3336,
      "Ġdie": 3337,
      "Ġcomplain": 3338,
      "ancy": 3339,
      "Ġextra": 3340,
      "Ġacqu": 3341,
      "Ġcapacity": 3342,
      "Ġplatform": 3343,
      "Ġcommit": 3344,
      "head": 3345,
      "Ġwhom": 3346,
      "Ġexec": 3347,
      "ovember": 3348,
      "Ġconsult": 3349,
      "haps": 3350,
      "Ġ21": 3351,
      "Ġcommercial": 3352,
      "oses": 3353,
      "isis": 3354,
      "Ġbiggest": 3355,
      "ples": 3356,
      "usband": 3357,
      "itle": 3358,
      "ĠYork": 3359,
      "Ġet": 3360,
      "vere": 3361,
      "ĠFin": 3362,
      "ma": 3363,
      "uff": 3364,
      "Ġhighest": 3365,
      "ĠAct": 3366,
      "coh": 3367,
      "Ġleading": 3368,
      "Ġmer": 3369,
      "Did": 3370,
      "Ġconcept": 3371,
      "ĠGroup": 3372,
      "Ġcaused": 3373,
      "rote": 3374,
      "ocr": 3375,
      "Ġarr": 3376,
      "iciency": 3377,
      "itness": 3378,
      "vis": 3379,
      "Ġreality": 3380,
      "Ġlay": 3381,
      "bum": 3382,
      "ĠHoly": 3383,
      "ties": 3384,
      "Ġvalues": 3385,
      "ĠSeptember": 3386,
      "ondon": 3387,
      "Ġapplicable": 3388,
      "Ġlimit": 3389,
      "Ġspend": 3390,
      "Ġenem": 3391,
      "na": 3392,
      "Tr": 3393,
      "Ġmist": 3394,
      "abor": 3395,
      "olute": 3396,
      "rary": 3397,
      "izing": 3398,
      "vest": 3399,
      "Ġfirm": 3400,
      "Ġstudies": 3401,
      "lies": 3402,
      "omb": 3403,
      "alu": 3404,
      "then": 3405,
      "Ġpret": 3406,
      "Ġallowed": 3407,
      "ĠTV": 3408,
      "ously": 3409,
      "ighb": 3410,
      "Ġmarkets": 3411,
      "uclear": 3412,
      "Ġaltern": 3413,
      "ocol": 3414,
      "Ġlate": 3415,
      "Ġsummer": 3416,
      "Ġattempt": 3417,
      "Ġslow": 3418,
      "Ġchemical": 3419,
      "Ġweap": 3420,
      "Ġbelow": 3421,
      "Ġplans": 3422,
      "Ġmount": 3423,
      "Ġinteresting": 3424,
      "Ġconstit": 3425,
      "Yes": 3426,
      "Ġconflic": 3427,
      "attle": 3428,
      "Ġpowerful": 3429,
      "like": 3430,
      "Ġvia": 3431,
      "lands": 3432,
      "Ġmarketing": 3433,
      "ĠNet": 3434,
      "Ġdraw": 3435,
      "Ġbodies": 3436,
      "Ġcentral": 3437,
      "earch": 3438,
      "Ġinterests": 3439,
      "Ġtal": 3440,
      "issions": 3441,
      "Ġswe": 3442,
      "Ġimag": 3443,
      "light": 3444,
      "Ġmechan": 3445,
      "ades": 3446,
      "Ġcomplex": 3447,
      "ĠBritish": 3448,
      "Ġcat": 3449,
      "Ġapplications": 3450,
      "Ġ2013": 3451,
      "Ġdiscuss": 3452,
      "Ġbecomes": 3453,
      "Ġresponse": 3454,
      "Ġhundred": 3455,
      "ĠFather": 3456,
      "Ġqual": 3457,
      "Ġincluded": 3458,
      "ĠOn": 3459,
      "ounter": 3460,
      "estern": 3461,
      "Ġstrength": 3462,
      "atest": 3463,
      "Ġreleased": 3464,
      "ĠCommittee": 3465,
      "Ġ--": 3466,
      "Ġ60": 3467,
      "Ġsac": 3468,
      "Ġpie": 3469,
      "itam": 3470,
      "oming": 3471,
      "ming": 3472,
      "Ġformer": 3473,
      "Ġmanufacturer": 3474,
      "Ġir": 3475,
      "Ġcompon": 3476,
      "Ġadopted": 3477,
      "Ġanimal": 3478,
      "Ġclot": 3479,
      "Ġdecisions": 3480,
      "Ġcontains": 3481,
      "Ġcars": 3482,
      "Ġvoice": 3483,
      "Ġrestrict": 3484,
      "Ġproceed": 3485,
      "ĠAnnex": 3486,
      "ĠChinese": 3487,
      "25": 3488,
      "Ġkilled": 3489,
      "ĠIslam": 3490,
      "ĠNovember": 3491,
      "Ġfair": 3492,
      "Will": 3493,
      "ĠIm": 3494,
      "stances": 3495,
      "rec": 3496,
      "Ġhistor": 3497,
      "Ġlic": 3498,
      "Ġremains": 3499,
      "ager": 3500,
      "Ã©": 3501,
      "ĠUk": 3502,
      "Ġexchange": 3503,
      "Ġrule": 3504,
      "Ġbroad": 3505,
      "Ġoption": 3506,
      "App": 3507,
      "ĠUN": 3508,
      "equ": 3509,
      "Ġinternet": 3510,
      "Ġorganization": 3511,
      "atically": 3512,
      "amb": 3513,
      "arter": 3514,
      "Ġindividuals": 3515,
      "Ġpresence": 3516,
      "Ġwrote": 3517,
      "Ġmultip": 3518,
      "Ġsymptoms": 3519,
      "ĠBar": 3520,
      "Ġtried": 3521,
      "Ġsexual": 3522,
      "Ġmethods": 3523,
      "Ġgold": 3524,
      ".)": 3525,
      "inate": 3526,
      "ping": 3527,
      "Ġfig": 3528,
      "Ġdoub": 3529,
      "Ġhosp": 3530,
      "Ġscientific": 3531,
      "Ġprices": 3532,
      "Ġmig": 3533,
      "Ġstage": 3534,
      "Ġnegative": 3535,
      "Ġinstead": 3536,
      "Ġblog": 3537,
      "Ġassociated": 3538,
      "Ġexactly": 3539,
      "Ġdestroy": 3540,
      "raz": 3541,
      "Ġthus": 3542,
      "Ġmission": 3543,
      "Ġbott": 3544,
      "asc": 3545,
      "Ġseven": 3546,
      "reed": 3547,
      "ĠBo": 3548,
      "Ġhusband": 3549,
      "Ġdecide": 3550,
      "Ġdemon": 3551,
      "Ġmark": 3552,
      "Ġplaying": 3553,
      "aign": 3554,
      "Ġcold": 3555,
      "Those": 3556,
      "aled": 3557,
      "Ġterritory": 3558,
      "Ġbelong": 3559,
      "Ġmarriage": 3560,
      "Ġtransfer": 3561,
      "ĠOffice": 3562,
      "Ġthank": 3563,
      "urt": 3564,
      "Ġsmart": 3565,
      "Ġtalking": 3566,
      "Ġfelt": 3567,
      "Ġpatient": 3568,
      "Ġgrowing": 3569,
      "Ġworkers": 3570,
      "ux": 3571,
      "ama": 3572,
      "Ġbenefit": 3573,
      "Ġproduced": 3574,
      "Ġreading": 3575,
      "Ġproviding": 3576,
      "Ġshop": 3577,
      "rag": 3578,
      "Ġtransl": 3579,
      "ĠFacebook": 3580,
      "rel": 3581,
      "Ġwriting": 3582,
      "AR": 3583,
      "Ġloved": 3584,
      "Ġfinally": 3585,
      "ĠLondon": 3586,
      "de": 3587,
      "Ġrequires": 3588,
      "ĠAir": 3589,
      "force": 3590,
      "istry": 3591,
      "pite": 3592,
      "ruary": 3593,
      "Ġindependent": 3594,
      "Ġhighly": 3595,
      "Ġ2010": 3596,
      "Ġhuge": 3597,
      "ĠYear": 3598,
      "Ġvictim": 3599,
      "Ġ/": 3600,
      "Ġlegislation": 3601,
      "erved": 3602,
      "ebruary": 3603,
      "ĠHealth": 3604,
      "Ġut": 3605,
      "ser": 3606,
      "Ġconcerning": 3607,
      "zech": 3608,
      "spect": 3609,
      "aught": 3610,
      "ĠParty": 3611,
      "Ġprepar": 3612,
      "Ġworked": 3613,
      "time": 3614,
      "ĠSlovakia": 3615,
      "Ġanti": 3616,
      "ĠSpirit": 3617,
      "Ġinsurance": 3618,
      "Ġnor": 3619,
      "Ġmaximum": 3620,
      "Ġ22": 3621,
      "Ġpurchase": 3622,
      "Ġplayer": 3623,
      "reement": 3624,
      "Ġadministr": 3625,
      "rol": 3626,
      "Ġbrand": 3627,
      "Ġcontinu": 3628,
      "Ġmessage": 3629,
      "Ġuses": 3630,
      "ĠWill": 3631,
      "itude": 3632,
      "Ġsources": 3633,
      "Ġcrisis": 3634,
      "Ġaid": 3635,
      "urning": 3636,
      "Ã¡": 3637,
      "ession": 3638,
      "osition": 3639,
      "Ġalbum": 3640,
      "Ġprocedures": 3641,
      "Ġdut": 3642,
      "Res": 3643,
      "Ġcultural": 3644,
      "Ġrout": 3645,
      "raid": 3646,
      "Ġ2012": 3647,
      "Ġconnection": 3648,
      "Ġ,": 3649,
      "Ġopinion": 3650,
      "Ġmis": 3651,
      "ĠWith": 3652,
      "aches": 3653,
      "ĠChristmas": 3654,
      "Ġfeeling": 3655,
      "Ġnut": 3656,
      "ĠOne": 3657,
      "ĠThis": 3658,
      "ĠPre": 3659,
      "Ġneighb": 3660,
      "Ġpers": 3661,
      "Ġourselves": 3662,
      "amental": 3663,
      "Ġdoor": 3664,
      "Ġcircumstances": 3665,
      "ĠCity": 3666,
      "aling": 3667,
      "Ġspread": 3668,
      "enty": 3669,
      "Ġfeed": 3670,
      "Ġwasn": 3671,
      "Im": 3672,
      "Ġtruly": 3673,
      "ps": 3674,
      "Ġmill": 3675,
      "Ġpsych": 3676,
      "mes": 3677,
      "reet": 3678,
      "ildren": 3679,
      "New": 3680,
      "Ġdetails": 3681,
      "Ġmajority": 3682,
      "ĠTreat": 3683,
      "part": 3684,
      "Ġmovement": 3685,
      "Ġevalu": 3686,
      "ha": 3687,
      "Ġrich": 3688,
      "eor": 3689,
      "Ġlooked": 3690,
      "based": 3691,
      "Another": 3692,
      "Ġcamer": 3693,
      "ortunately": 3694,
      "ada": 3695,
      "Ġlocation": 3696,
      "room": 3697,
      "Ġlatest": 3698,
      "oring": 3699,
      "Ġeuro": 3700,
      "ana": 3701,
      "works": 3702,
      "ĠGeneral": 3703,
      "Am": 3704,
      "ED": 3705,
      "eria": 3706,
      "ifying": 3707,
      "ams": 3708,
      "Ġarg": 3709,
      "yond": 3710,
      "Ġdrive": 3711,
      "Maybe": 3712,
      "Ġstaff": 3713,
      "Ġsteps": 3714,
      "Ġspiritual": 3715,
      "Ġtransact": 3716,
      "Ġgiving": 3717,
      "Ġconsequ": 3718,
      "Ġban": 3719,
      "vernment": 3720,
      "overy": 3721,
      "Ġprinciples": 3722,
      "Look": 3723,
      "Ġreligious": 3724,
      "Ġinterested": 3725,
      "Ġexcell": 3726,
      "Ġenh": 3727,
      "Ġproduce": 3728,
      "Which": 3729,
      "Ġyes": 3730,
      "Ġpursu": 3731,
      "pid": 3732,
      "Ġefficient": 3733,
      "Ġsea": 3734,
      "Ġadopt": 3735,
      "osis": 3736,
      "ero": 3737,
      "Ġund": 3738,
      "Ġnumbers": 3739,
      "lick": 3740,
      "ricult": 3741,
      "Ġabsolute": 3742,
      "Ġcoffee": 3743,
      "Ġsales": 3744,
      "Ġanalysis": 3745,
      "Ġoperations": 3746,
      "Ġlearning": 3747,
      "estic": 3748,
      "Ġrecently": 3749,
      "Ġoptions": 3750,
      "gel": 3751,
      "ĠCath": 3752,
      "gram": 3753,
      "soft": 3754,
      "ĠAfrica": 3755,
      "ĠKore": 3756,
      "Ġrisks": 3757,
      "gypt": 3758,
      "Ġ2011": 3759,
      "Ġforces": 3760,
      "Ġunderstanding": 3761,
      "Ġri": 3762,
      "Ġminimum": 3763,
      "know": 3764,
      "cohol": 3765,
      "Ġelements": 3766,
      "bon": 3767,
      "Ġintellig": 3768,
      "Ġevil": 3769,
      "Ġtechnologies": 3770,
      "ĠCzech": 3771,
      "Ġwel": 3772,
      "Ab": 3773,
      "ĠSer": 3774,
      "Ġoperating": 3775,
      "ĠPri": 3776,
      "Ġconsumer": 3777,
      "Ġassistance": 3778,
      "Ġboy": 3779,
      "Ġimage": 3780,
      "lying": 3781,
      "Ġblock": 3782,
      "Ġstyle": 3783,
      "Ġtools": 3784,
      "ky": 3785,
      "ares": 3786,
      "Ġden": 3787,
      "Ġplayed": 3788,
      "Rem": 3789,
      "Ġfactors": 3790,
      "!âĢĿ": 3791,
      "atever": 3792,
      ".,": 3793,
      "Ġfix": 3794,
      "edding": 3795,
      "Ġtraditional": 3796,
      "Ġstrate": 3797,
      "Ġstrategy": 3798,
      "den": 3799,
      "Ġdefined": 3800,
      "Ġbreat": 3801,
      "Ġshown": 3802,
      "ĠAustral": 3803,
      "Ġcities": 3804,
      "Ġcalls": 3805,
      "Ġaspect": 3806,
      "Ġjoy": 3807,
      "Ġled": 3808,
      "ĠEuro": 3809,
      "der": 3810,
      "Ġelectronic": 3811,
      "iding": 3812,
      "Ġannounced": 3813,
      "Ġafraid": 3814,
      "ĠFebruary": 3815,
      "Europe": 3816,
      "Ġstrateg": 3817,
      "Ġskills": 3818,
      "Ġetc": 3819,
      "Ġdeveloping": 3820,
      "Ġeye": 3821,
      "Ġprocesses": 3822,
      "ĠPal": 3823,
      "ounds": 3824,
      "Ġconcent": 3825,
      "hel": 3826,
      "Ġopportunities": 3827,
      "Ġsin": 3828,
      "Ġ28": 3829,
      "Ġcampaign": 3830,
      "Ġtrack": 3831,
      "Ġmovie": 3832,
      "avy": 3833,
      "Ġrelease": 3834,
      "ĠParis": 3835,
      "Although": 3836,
      "ĠAgreement": 3837,
      "Ġdangerous": 3838,
      "ugust": 3839,
      "De": 3840,
      "Ġwarm": 3841,
      "ray": 3842,
      "Ġgeneration": 3843,
      "Ġreflect": 3844,
      "Ġassessment": 3845,
      "rency": 3846,
      "Ġintended": 3847,
      "rant": 3848,
      "Ġeasier": 3849,
      "Ġnation": 3850,
      "Ġdisplay": 3851,
      "ibly": 3852,
      "Ġ2008": 3853,
      "ĠEm": 3854,
      "useum": 3855,
      "Ġpaper": 3856,
      "ĠBel": 3857,
      "Ġeight": 3858,
      "Ġdemonst": 3859,
      "Ġprop": 3860,
      "encies": 3861,
      "Ġclos": 3862,
      "ĠBank": 3863,
      "Ġconsumption": 3864,
      "Ġorganiz": 3865,
      "Sometimes": 3866,
      "Ġconv": 3867,
      "ĠWind": 3868,
      "Ġsustainable": 3869,
      "Ġvot": 3870,
      "ban": 3871,
      "Ġfamilies": 3872,
      "ĠMinister": 3873,
      "Ġgreatest": 3874,
      "Ġweak": 3875,
      "Ġideas": 3876,
      "Ġvirt": 3877,
      "ĠMr": 3878,
      "Ġ2020": 3879,
      "Ġplanet": 3880,
      "Ġfem": 3881,
      "Ġlaid": 3882,
      "Ġult": 3883,
      "Ġnuclear": 3884,
      "Ġdeliver": 3885,
      "aced": 3886,
      "Ġexclus": 3887,
      "Over": 3888,
      "Its": 3889,
      "Ġserve": 3890,
      "ĠLaw": 3891,
      "Ġapplied": 3892,
      "craft": 3893,
      "raine": 3894,
      "ĠHar": 3895,
      "iles": 3896,
      "Ġannual": 3897,
      "Ġexternal": 3898,
      "mon": 3899,
      "Ġprogramme": 3900,
      "Cl": 3901,
      "icrosoft": 3902,
      "Ġacts": 3903,
      "usiness": 3904,
      "Ġlisten": 3905,
      "iations": 3906,
      "Ġadvice": 3907,
      "set": 3908,
      "Ġcauses": 3909,
      "Ġsymb": 3910,
      "Ġworldwide": 3911,
      "Ġfarm": 3912,
      "itely": 3913,
      "Ġdaughter": 3914,
      "Ġder": 3915,
      "ean": 3916,
      "Ġ23": 3917,
      "Ġ2009": 3918,
      "Ġ2019": 3919,
      "Ġ194": 3920,
      "Ġstrengthen": 3921,
      "Ĥ¬": 3922,
      "ĠSm": 3923,
      "Ġstructure": 3924,
      "cles": 3925,
      "Per": 3926,
      "Ġvacc": 3927,
      "Ġnearly": 3928,
      "Ġbox": 3929,
      "Her": 3930,
      "Ġtom": 3931,
      "rian": 3932,
      "Des": 3933,
      "Ġdisp": 3934,
      "ped": 3935,
      "Ġthanks": 3936,
      "Ġconsent": 3937,
      "oles": 3938,
      "co": 3939,
      "Ġsports": 3940,
      "Next": 3941,
      "Ġprison": 3942,
      "Ġcand": 3943,
      "Ġobligations": 3944,
      "Ġcouple": 3945,
      "assion": 3946,
      "Does": 3947,
      "Ġturned": 3948,
      "Ġaren": 3949,
      "road": 3950,
      "Ġfamous": 3951,
      "itect": 3952,
      "Ġprepared": 3953,
      "Ġfavorite": 3954,
      "rab": 3955,
      "Ġconstruction": 3956,
      "ĠIran": 3957,
      "Ġpark": 3958,
      "Ġconsumers": 3959,
      "Ġpromote": 3960,
      "do": 3961,
      "Take": 3962,
      "Ġclearly": 3963,
      "Ġregarding": 3964,
      "ĠSec": 3965,
      "uild": 3966,
      "Ġprinciple": 3967,
      "Ġcru": 3968,
      "Ġcapt": 3969,
      "Ġinterp": 3970,
      "Ġspecies": 3971,
      "Ġoptim": 3972,
      "Ġpolicies": 3973,
      "cks": 3974,
      "Ġstatus": 3975,
      "OS": 3976,
      "Ġfish": 3977,
      "cel": 3978,
      "ĠInt": 3979,
      "Ġtemperature": 3980,
      "Ġrenew": 3981,
      "Ġge": 3982,
      "EA": 3983,
      "ĠDr": 3984,
      "Their": 3985,
      "Ġunf": 3986,
      "rupt": 3987,
      "Ġconsc": 3988,
      "Ġgets": 3989,
      "ĠCor": 3990,
      "Ġwis": 3991,
      "Ġwear": 3992,
      "ĠFund": 3993,
      "ĠMuslim": 3994,
      "Ġframework": 3995,
      "Ġrecommended": 3996,
      "Ġimportance": 3997,
      "Ġ90": 3998,
      "Ġhotel": 3999,
      "Ġclients": 4000,
      "Ġsection": 4001,
      "ĠWord": 4002,
      "itch": 4003,
      "Ġoverall": 4004,
      "ĠEgypt": 4005,
      "Ġgrad": 4006,
      "ĠHouse": 4007,
      "Ġdepend": 4008,
      "Ġpretty": 4009,
      "Ġadapt": 4010,
      "Ġextremely": 4011,
      "Ġing": 4012,
      "Ġleader": 4013,
      "Both": 4014,
      "Ġwine": 4015,
      "Ġthousands": 4016,
      "Ġflo": 4017,
      "Ġnamed": 4018,
      "Ġmicro": 4019,
      "Ġsurve": 4020,
      "Ġscience": 4021,
      "ĠKingdom": 4022,
      "Go": 4023,
      "Ġcovered": 4024,
      "Ġdetermine": 4025,
      "Ġgift": 4026,
      "Ġefforts": 4027,
      "Such": 4028,
      "Ġfunctions": 4029,
      "Ġjobs": 4030,
      "avid": 4031,
      "En": 4032,
      "Ġ27": 4033,
      "Ġbeyond": 4034,
      "Ġlik": 4035,
      "Ġcollection": 4036,
      "edic": 4037,
      "Ġcharge": 4038,
      "Ġiniti": 4039,
      "âĢĿ,": 4040,
      "Ġgone": 4041,
      "ipl": 4042,
      "asure": 4043,
      "OT": 4044,
      "Ġagreed": 4045,
      "Ġbatter": 4046,
      "Ġcrim": 4047,
      "Ġreports": 4048,
      "Ġgoals": 4049,
      "Ġprem": 4050,
      "Ġwithd": 4051,
      "cast": 4052,
      "ially": 4053,
      "Ġunless": 4054,
      "Ġcreation": 4055,
      "ev": 4056,
      "Ġcenter": 4057,
      "24": 4058,
      "Ġmir": 4059,
      "Ġcreating": 4060,
      "Ġheaven": 4061,
      "Ġprin": 4062,
      "yr": 4063,
      "EN": 4064,
      "Ġoffered": 4065,
      "resp": 4066,
      "ĠEast": 4067,
      "Ġexceed": 4068,
      "cont": 4069,
      "Ġcertainly": 4070,
      "Ġaward": 4071,
      "Ġmanner": 4072,
      "Ġviolence": 4073,
      "Ġresist": 4074,
      "Ġgirls": 4075,
      "Ġdrugs": 4076,
      "Ġplants": 4077,
      "Ġcho": 4078,
      "ĠAugust": 4079,
      "resh": 4080,
      "hens": 4081,
      "Ġbalance": 4082,
      "ĠCal": 4083,
      "ĠQu": 4084,
      "Ġnegot": 4085,
      "Ġbase": 4086,
      "Ġvolunt": 4087,
      "Ġdiseases": 4088,
      "Ġtrain": 4089,
      "Ġresolution": 4090,
      "aces": 4091,
      "Ġinfluence": 4092,
      "Ġtraff": 4093,
      "Ġ26": 4094,
      "ossible": 4095,
      "IC": 4096,
      "porary": 4097,
      "Ind": 4098,
      "ari": 4099,
      "ĠItaly": 4100,
      "Read": 4101,
      "Ġwhereas": 4102,
      "gment": 4103,
      "Ġmut": 4104,
      "ĠSystem": 4105,
      "itled": 4106,
      "Ġdesire": 4107,
      "Ġmodels": 4108,
      "Ġjoint": 4109,
      "Ġconclud": 4110,
      "Ġguarantee": 4111,
      "idge": 4112,
      "Once": 4113,
      "Ġdebt": 4114,
      "Ġcareer": 4115,
      "Su": 4116,
      "Ġquant": 4117,
      "Ġfunds": 4118,
      "Ġprovision": 4119,
      "Ġ80": 4120,
      "Ġotherwise": 4121,
      "Ġuseful": 4122,
      "ĠAgency": 4123,
      "Ġcouldn": 4124,
      "Ġliter": 4125,
      "Ġcompared": 4126,
      "ĠCentral": 4127,
      "Comm": 4128,
      ");": 4129,
      "Ġideal": 4130,
      "Ġisland": 4131,
      "Ġdescribed": 4132,
      "Ġseparate": 4133,
      "known": 4134,
      "Ġinstitution": 4135,
      "Ġrunning": 4136,
      "Ġrace": 4137,
      "ĠNot": 4138,
      "Ġtouch": 4139,
      "ĠDec": 4140,
      "Ġmemory": 4141,
      "Ġsan": 4142,
      "Ġstar": 4143,
      "isters": 4144,
      "Ġpicture": 4145,
      "Ġprote": 4146,
      "Ġsites": 4147,
      "Ġmarried": 4148,
      "Ġfeature": 4149,
      "Ġaccident": 4150,
      "Ġestim": 4151,
      "ilit": 4152,
      "Ġexcellent": 4153,
      "Ġdriving": 4154,
      "Ġsufficient": 4155,
      "Ġsuitable": 4156,
      "Cont": 4157,
      "Es": 4158,
      "ength": 4159,
      "Ġinteract": 4160,
      "Ġsurface": 4161,
      "rastructure": 4162,
      "Ġcommand": 4163,
      "Ġdress": 4164,
      "Ġresearc": 4165,
      "Ġfile": 4166,
      "Ġinnovation": 4167,
      "cription": 4168,
      "Ġorganis": 4169,
      "orage": 4170,
      "See": 4171,
      "Ġsurround": 4172,
      "Ġclub": 4173,
      "izes": 4174,
      "Ġtask": 4175,
      "\",": 4176,
      "Ġesc": 4177,
      "Ġopened": 4178,
      "Ġnotice": 4179,
      "Ġanaly": 4180,
      "ension": 4181,
      "ĠTrans": 4182,
      "Ġreplace": 4183,
      "racy": 4184,
      "Ġolder": 4185,
      "Ġsecure": 4186,
      "Ġthoughts": 4187,
      "Ġheat": 4188,
      "apter": 4189,
      "Ġdiagn": 4190,
      "Ġbusinesses": 4191,
      "Ġfundamental": 4192,
      "Ġsuffering": 4193,
      "Ġvision": 4194,
      "Ġ2007": 4195,
      "ĠWest": 4196,
      "Ġgenerally": 4197,
      "Ġspent": 4198,
      "ogue": 4199,
      "alled": 4200,
      "son": 4201,
      "Get": 4202,
      "aste": 4203,
      "phone": 4204,
      "ference": 4205,
      "Ġvalid": 4206,
      "Two": 4207,
      "Ġamaz": 4208,
      "Ġbeauty": 4209,
      "with": 4210,
      "Ġcookies": 4211,
      "Ġrelationships": 4212,
      "Ġrob": 4213,
      "ĠRo": 4214,
      "Ġfoods": 4215,
      "Ġincome": 4216,
      "Ġrestaur": 4217,
      "pel": 4218,
      "Ġexpert": 4219,
      "ken": 4220,
      "see": 4221,
      "Ġlived": 4222,
      "ĠChristians": 4223,
      "IT": 4224,
      "ĠIndia": 4225,
      "Ġplaced": 4226,
      "Ġequal": 4227,
      "Ġvariety": 4228,
      "Everyone": 4229,
      "Ġplanning": 4230,
      "Ġsatisf": 4231,
      "arden": 4232,
      "conomic": 4233,
      "men": 4234,
      "Like": 4235,
      "Ġstarting": 4236,
      "Ġeating": 4237,
      "ĠWindows": 4238,
      "ersonal": 4239,
      "nes": 4240,
      "Ġmentioned": 4241,
      "Ġvers": 4242,
      "Ġcolle": 4243,
      "22": 4244,
      "ĠRoman": 4245,
      "Ġelim": 4246,
      "ĠSocial": 4247,
      "Ġnice": 4248,
      "ĠRed": 4249,
      "ĠPeople": 4250,
      "Ġconnected": 4251,
      "Ġregional": 4252,
      "Thanks": 4253,
      "Ġtrend": 4254,
      "Ġkept": 4255,
      "Ġglass": 4256,
      "US": 4257,
      "urg": 4258,
      "orders": 4259,
      "Ġadvantage": 4260,
      "ĠGreat": 4261,
      "Ġcas": 4262,
      "Ġnote": 4263,
      "ĠTra": 4264,
      "Ġearlier": 4265,
      "Ġnames": 4266,
      "Ġchallenges": 4267,
      "ĠJust": 4268,
      "ĠNations": 4269,
      "Inst": 4270,
      "Ġdoll": 4271,
      "Ġgrand": 4272,
      "ĠCons": 4273,
      "Ġfruit": 4274,
      "anish": 4275,
      "Ġsymbol": 4276,
      "Ġindustrial": 4277,
      "Ġcontext": 4278,
      "ald": 4279,
      "Ġcombination": 4280,
      "Ġrelating": 4281,
      "Ġalcohol": 4282,
      "Ġweather": 4283,
      "Ġcode": 4284,
      "iverse": 4285,
      "ĠBible": 4286,
      "Ġcriteria": 4287,
      "ĠDep": 4288,
      "Ġdetermined": 4289,
      "Ġgain": 4290,
      "Ġalternative": 4291,
      "Ġreject": 4292,
      "ected": 4293,
      "idden": 4294,
      "Ġprayer": 4295,
      "aint": 4296,
      "Ġcontinued": 4297,
      "Ġexperts": 4298,
      "Ġremove": 4299,
      "Ġpoll": 4300,
      "Ġweapons": 4301,
      "Ġaffected": 4302,
      ".[": 4303,
      "Ġsusp": 4304,
      "ĠApple": 4305,
      "Ġworry": 4306,
      "Ġgod": 4307,
      "Ġvitam": 4308,
      "rep": 4309,
      "utive": 4310,
      "Ġcommitted": 4311,
      "Ġteach": 4312,
      "Ġworse": 4313,
      "ny": 4314,
      "Ġrise": 4315,
      "umb": 4316,
      "Ġpick": 4317,
      "Ġtrou": 4318,
      "itors": 4319,
      "ĠSon": 4320,
      "ĠFirst": 4321,
      "Ġ%": 4322,
      "using": 4323,
      "uries": 4324,
      "Us": 4325,
      "Ġtherap": 4326,
      "Ġwonderful": 4327,
      "Ġ36": 4328,
      "Ġitems": 4329,
      "zer": 4330,
      "ey": 4331,
      "Ġancient": 4332,
      "adem": 4333,
      "pped": 4334,
      "Ġconflict": 4335,
      "Ġdim": 4336,
      "aly": 4337,
      "Ġfeet": 4338,
      "ĠCatholic": 4339,
      "ilos": 4340,
      "oyal": 4341,
      "Ġce": 4342,
      "Comp": 4343,
      "Ġjourney": 4344,
      "Ġmix": 4345,
      "Ġpan": 4346,
      "Ġarrange": 4347,
      "ĠOrgan": 4348,
      "Ġmoving": 4349,
      "Ġrare": 4350,
      "rants": 4351,
      "Ġaccur": 4352,
      "Fin": 4353,
      "Ġsport": 4354,
      "Ġprimary": 4355,
      "Ġhous": 4356,
      "osure": 4357,
      "Ġmid": 4358,
      "Ġunivers": 4359,
      "Ġstrug": 4360,
      "itchen": 4361,
      "ĠPer": 4362,
      "ĠFl": 4363,
      "ĠTrump": 4364,
      "ica": 4365,
      "iers": 4366,
      "orry": 4367,
      "Ġphotos": 4368,
      "Ġcoord": 4369,
      "ĠProgram": 4370,
      "Ġproposal": 4371,
      "ham": 4372,
      "Ġextent": 4373,
      "Ġadjust": 4374,
      "Ġtasks": 4375,
      "Ġsubstances": 4376,
      "Ġhospital": 4377,
      "Ġvote": 4378,
      "ground": 4379,
      "ĠUkraine": 4380,
      "put": 4381,
      "iture": 4382,
      "ervation": 4383,
      "irection": 4384,
      "ĠData": 4385,
      "Ġefficiency": 4386,
      "uration": 4387,
      "erves": 4388,
      "Ġowners": 4389,
      "Ġmatters": 4390,
      "uel": 4391,
      "Ġissued": 4392,
      "eff": 4393,
      "raq": 4394,
      "Ġclin": 4395,
      "ague": 4396,
      "Ġconver": 4397,
      "Ġsche": 4398,
      "Ġreached": 4399,
      "Ġwat": 4400,
      "21": 4401,
      "Ġstated": 4402,
      "Member": 4403,
      "ales": 4404,
      "Ġregions": 4405,
      "Ġmultiple": 4406,
      "Ġeth": 4407,
      "Ġsubs": 4408,
      "Ġperman": 4409,
      "Rec": 4410,
      "Ġreligion": 4411,
      "Thank": 4412,
      "Ġnations": 4413,
      "Ġmanage": 4414,
      "ĠEC": 4415,
      "ĠSyria": 4416,
      "Ġadvertising": 4417,
      "ĠSecurity": 4418,
      "Ġ70": 4419,
      "Ġobjective": 4420,
      "Ġye": 4421,
      "gg": 4422,
      "iber": 4423,
      "ĠEd": 4424,
      "abilities": 4425,
      "Ġidentify": 4426,
      "istan": 4427,
      "Ġfiles": 4428,
      "ĠService": 4429,
      "Ġlanguages": 4430,
      "Ġexperim": 4431,
      "Ġstruct": 4432,
      "ĠInstit": 4433,
      "iring": 4434,
      "ara": 4435,
      "Find": 4436,
      "Ġliber": 4437,
      "Ġinstruct": 4438,
      "Ġsigned": 4439,
      "Ġemissions": 4440,
      "Ġhaven": 4441,
      "Ġrefuge": 4442,
      "Ġdogs": 4443,
      "....": 4444,
      "Ġboard": 4445,
      "Ġwebsites": 4446,
      "Ġwedding": 4447,
      "ashing": 4448,
      "Ġjournal": 4449,
      "Ġlearned": 4450,
      "ii": 4451,
      "ours": 4452,
      "Ġtree": 4453,
      "illeg": 4454,
      "ĠIf": 4455,
      "Ġattacks": 4456,
      "arity": 4457,
      "Ġwaiting": 4458,
      "Try": 4459,
      "Ġrelative": 4460,
      "Ġmotor": 4461,
      "lin": 4462,
      "Ġjustice": 4463,
      "Ġobjectives": 4464,
      "ĠSund": 4465,
      "Te": 4466,
      "Ġwilling": 4467,
      "Ġfuel": 4468,
      "Ġwinter": 4469,
      "ĠTreaty": 4470,
      "idel": 4471,
      "Ġfollowed": 4472,
      "Ġprotected": 4473,
      "Reg": 4474,
      "reen": 4475,
      "Ġast": 4476,
      "Ġwood": 4477,
      "Ġcompli": 4478,
      "Ġexplain": 4479,
      "ulate": 4480,
      "Ġsick": 4481,
      "ximately": 4482,
      "hab": 4483,
      "Ġclaims": 4484,
      "ography": 4485,
      "ĠLife": 4486,
      "Ġinfrastructure": 4487,
      "Ġmachine": 4488,
      "Ġinstruments": 4489,
      "Ġpossibility": 4490,
      "Ġ?": 4491,
      "Ġprograms": 4492,
      "Ġlaun": 4493,
      "Ġcalcul": 4494,
      "rew": 4495,
      "Ġvill": 4496,
      "Ġstorage": 4497,
      "Add": 4498,
      "Ġexistence": 4499,
      "ĠHigh": 4500,
      "Ġtomorrow": 4501,
      "ocracy": 4502,
      "Ġdial": 4503,
      "Ġborder": 4504,
      "Ġbehavior": 4505,
      "pport": 4506,
      "Ġmilk": 4507,
      "ĠServices": 4508,
      "asion": 4509,
      "ancing": 4510,
      "rand": 4511,
      "Before": 4512,
      "erences": 4513,
      "Ġcool": 4514,
      "ĠEl": 4515,
      "ĠPaul": 4516,
      "Ġdepends": 4517,
      "Ġtend": 4518,
      "Ġwitness": 4519,
      "ka": 4520,
      "Ġemerg": 4521,
      "Ġemployment": 4522,
      "Ġpu": 4523,
      "Ġholid": 4524,
      "Ġ2006": 4525,
      "ĠThat": 4526,
      "EB": 4527,
      "Ġbanks": 4528,
      "ĠMary": 4529,
      "Ġign": 4530,
      "Ġilleg": 4531,
      "Ġfaster": 4532,
      "ĠAnt": 4533,
      "Would": 4534,
      "Ġpractices": 4535,
      "Ġagricult": 4536,
      "Ġhom": 4537,
      "Ġtransp": 4538,
      "40": 4539,
      "Ġdiscovered": 4540,
      "Ġadults": 4541,
      "Ġcontribute": 4542,
      "Ġbless": 4543,
      "Ġarchitect": 4544,
      "Ġmedicine": 4545,
      "ĠAssoc": 4546,
      "Ġtests": 4547,
      "Ġunderst": 4548,
      "Ġingred": 4549,
      "Ġprofession": 4550,
      "ĠMicrosoft": 4551,
      "erous": 4552,
      "Ġadministrative": 4553,
      "Ġflu": 4554,
      "Ġgranted": 4555,
      "Ġappoint": 4556,
      "Ġlabor": 4557,
      "Ġconfirm": 4558,
      "Ġcorpor": 4559,
      "Ġveget": 4560,
      "Ġcast": 4561,
      "igned": 4562,
      "roud": 4563,
      "Ġdriver": 4564,
      "Ġsituations": 4565,
      "ĠDon": 4566,
      "Ġclosed": 4567,
      "Ġband": 4568,
      "sels": 4569,
      "ĠSwed": 4570,
      "ĠâĤ¬": 4571,
      "Ġmurd": 4572,
      "Ġshoot": 4573,
      "Ġdecre": 4574,
      "Everything": 4575,
      "inations": 4576,
      "Ġcomponents": 4577,
      "ĠRec": 4578,
      "mar": 4579,
      "Ġreference": 4580,
      "ĠPort": 4581,
      "Ġregistered": 4582,
      "Ġmechanism": 4583,
      "Ġagg": 4584,
      "Ġ29": 4585,
      "Ġsigns": 4586,
      "ĠPark": 4587,
      "Make": 4588,
      "Ġnetworks": 4589,
      "olf": 4590,
      "Ġautomatically": 4591,
      "friend": 4592,
      "Ġshared": 4593,
      "Ġdivid": 4594,
      "ulations": 4595,
      "Ġep": 4596,
      "Ġmoved": 4597,
      "Ġcontinues": 4598,
      "Ġdefinitely": 4599,
      "Ġpun": 4600,
      "Ġsugar": 4601,
      "Ġradio": 4602,
      "Ġresearchers": 4603,
      "Ġsqu": 4604,
      "Ġ31": 4605,
      "Ġahead": 4606,
      "ocks": 4607,
      "ius": 4608,
      "Ġrapid": 4609,
      "ĠFore": 4610,
      "Ġemp": 4611,
      "Ġsort": 4612,
      "ault": 4613,
      "ĠDes": 4614,
      "Ġaccounts": 4615,
      "ĠFeder": 4616,
      "Ġcamera": 4617,
      "ashion": 4618,
      "âĢĻ.": 4619,
      "osen": 4620,
      "Part": 4621,
      "Ġbra": 4622,
      ".'": 4623,
      "Ġtitle": 4624,
      "velopment": 4625,
      "Ġburn": 4626,
      "Ġenable": 4627,
      "Ġpassed": 4628,
      "Ġpursuant": 4629,
      "ĠSo": 4630,
      "Ġletter": 4631,
      "--": 4632,
      "Ġlisted": 4633,
      "Ġreturned": 4634,
      "iled": 4635,
      "Ġflex": 4636,
      "Ġcompre": 4637,
      "ĠArab": 4638,
      "Ġexpensive": 4639,
      "Ġapproved": 4640,
      "Ġcollabor": 4641,
      "Ġalthough": 4642,
      "Ġrates": 4643,
      "ĠAcc": 4644,
      "Ġmiddle": 4645,
      "Ġowner": 4646,
      "ĠIraq": 4647,
      "Qu": 4648,
      "Ġhit": 4649,
      "Ġfine": 4650,
      "Ġadequ": 4651,
      "ynam": 4652,
      "Ġentry": 4653,
      "Ġforever": 4654,
      "Ġhumans": 4655,
      "Ġdirection": 4656,
      "eep": 4657,
      "Ġsolid": 4658,
      "Ġlength": 4659,
      "Ġtrading": 4660,
      "Ġimpossible": 4661,
      "Ġhelped": 4662,
      "AC": 4663,
      "nergy": 4664,
      "Oh": 4665,
      "Ġbelieved": 4666,
      "Ġrul": 4667,
      "hips": 4668,
      "Ġproceedings": 4669,
      "ady": 4670,
      "Ġdistance": 4671,
      "Sp": 4672,
      "ĠWork": 4673,
      "Ġscreen": 4674,
      "Ġkid": 4675,
      "Never": 4676,
      "EO": 4677,
      "Ġpresented": 4678,
      "alt": 4679,
      "ĠMarket": 4680,
      "Cons": 4681,
      "Ġbecoming": 4682,
      "ĠHuman": 4683,
      "Ġwithdraw": 4684,
      "vation": 4685,
      "Ġperformed": 4686,
      "Ġexpand": 4687,
      "Ġcertific": 4688,
      "Ġspok": 4689,
      "ĠGeor": 4690,
      "Ġmouth": 4691,
      "Ġclient": 4692,
      "Ġapplies": 4693,
      "respond": 4694,
      "Ġoccup": 4695,
      "atab": 4696,
      "clusion": 4697,
      "Ġchallenge": 4698,
      "aration": 4699,
      "23": 4700,
      "Ġsad": 4701,
      "Ġsuffer": 4702,
      "comm": 4703,
      "iver": 4704,
      "Ġinnovative": 4705,
      "standing": 4706,
      "AP": 4707,
      "ĠRights": 4708,
      "Ġexperienced": 4709,
      "Ġpet": 4710,
      "Ġreduced": 4711,
      "Under": 4712,
      "ĠHer": 4713,
      "iling": 4714,
      "Ġregulations": 4715,
      "Ġorganizations": 4716,
      "Ġjudge": 4717,
      "Ġaccomp": 4718,
      "ompl": 4719,
      "ĠIS": 4720,
      "Ġbegins": 4721,
      "Ġmagn": 4722,
      "Ġresol": 4723,
      "Ġtwice": 4724,
      "ĠCompany": 4725,
      "ula": 4726,
      "ibilities": 4727,
      "appe": 4728,
      "Ġrid": 4729,
      "Ġwouldn": 4730,
      "Man": 4731,
      "unction": 4732,
      "Ġselected": 4733,
      "Ġcriminal": 4734,
      "Ġprepare": 4735,
      "Ġdoubt": 4736,
      "Ġmonitoring": 4737,
      "pen": 4738,
      "OM": 4739,
      "Ġfacilit": 4740,
      "Ġtesting": 4741,
      "ĠBest": 4742,
      "!!": 4743,
      "back": 4744,
      "Ġcompliance": 4745,
      "European": 4746,
      "Ġdiscover": 4747,
      "ressive": 4748,
      "Ġdry": 4749,
      "osc": 4750,
      "Ġbattle": 4751,
      "Ġmillions": 4752,
      "Ġmeant": 4753,
      "ĠDis": 4754,
      "antic": 4755,
      "Ġmaybe": 4756,
      "Ġentitled": 4757,
      "tenance": 4758,
      "II": 4759,
      "Ġtrip": 4760,
      "Ġsevere": 4761,
      "Further": 4762,
      "Ġrelation": 4763,
      "Ġbuildings": 4764,
      "Ġcategory": 4765,
      "Ġidentity": 4766,
      "ĠDavid": 4767,
      "iance": 4768,
      "Ġorganisations": 4769,
      "ĠSunday": 4770,
      "Ġproposed": 4771,
      "iced": 4772,
      "Ġdomestic": 4773,
      "irmed": 4774,
      "iny": 4775,
      "Ġapprec": 4776,
      "Ġcompleted": 4777,
      "ĠHung": 4778,
      "RE": 4779,
      "fast": 4780,
      "Ġreb": 4781,
      "ĠItalian": 4782,
      "ĠWestern": 4783,
      "Ġdelivery": 4784,
      "ube": 4785,
      "Ġhate": 4786,
      "Previous": 4787,
      "Ġmatch": 4788,
      "usal": 4789,
      "Ġamazing": 4790,
      "Ġforest": 4791,
      "Ġtreated": 4792,
      "ĠJer": 4793,
      "eds": 4794,
      "Ġcurrency": 4795,
      "Ġpictures": 4796,
      "Ġdedic": 4797,
      "Ġfailure": 4798,
      "che": 4799,
      "Ġcapable": 4800,
      "Ġcentre": 4801,
      "Ġreform": 4802,
      "Ġoffic": 4803,
      "Ġhorm": 4804,
      "ĠTechn": 4805,
      "ĠBusiness": 4806,
      "enses": 4807,
      "Ġproud": 4808,
      "Ġunit": 4809,
      "Ġstories": 4810,
      "Ġlarger": 4811,
      "urrent": 4812,
      "Ġchanging": 4813,
      "Ġwealth": 4814,
      "Ġassets": 4815,
      "ico": 4816,
      "ĠLove": 4817,
      "Thus": 4818,
      "Ġkitchen": 4819,
      "Ġsupplement": 4820,
      "ript": 4821,
      "Ġdistribution": 4822,
      "Ġstra": 4823,
      "Ġfresh": 4824,
      "Ġrelax": 4825,
      "house": 4826,
      "ollow": 4827,
      "unic": 4828,
      "Ġwhatever": 4829,
      "Ġadvance": 4830,
      "Ġstars": 4831,
      "Ġrock": 4832,
      "AL": 4833,
      "ech": 4834,
      "iant": 4835,
      "Ġcompar": 4836,
      "oll": 4837,
      "mail": 4838,
      "Ġimages": 4839,
      "ĠTw": 4840,
      "Ġcomfortable": 4841,
      "Ġbrow": 4842,
      "ij": 4843,
      "ĠBlack": 4844,
      "Ġamb": 4845,
      "Ġaircraft": 4846,
      "Ġsetting": 4847,
      "ocratic": 4848,
      "Ġcomplic": 4849,
      "Ġachieved": 4850,
      "ords": 4851,
      "ĠCanada": 4852,
      "mosp": 4853,
      "Ġsale": 4854,
      "ception": 4855,
      "Ġcounter": 4856,
      "Ġrat": 4857,
      "iday": 4858,
      "Ġfounded": 4859,
      "illing": 4860,
      "Ġmissing": 4861,
      "'d": 4862,
      "DP": 4863,
      "ĠGood": 4864,
      "ava": 4865,
      "Ġcorrespond": 4866,
      "Ġprefer": 4867,
      "Ġcandid": 4868,
      "Ġship": 4869,
      "ferred": 4870,
      "Ġappears": 4871,
      "Ġbrings": 4872,
      "Ġregularly": 4873,
      "Ġsole": 4874,
      "Ġprohib": 4875,
      "Ġobvious": 4876,
      "Ġflow": 4877,
      "Ġintroduced": 4878,
      "Ġ2000": 4879,
      "Ġprivacy": 4880,
      "ĠKorea": 4881,
      "Ġincred": 4882,
      "ID": 4883,
      "Jesus": 4884,
      "Ġchann": 4885,
      "Ġenforce": 4886,
      "Ġfootball": 4887,
      "Ġadvanced": 4888,
      "Ġmainly": 4889,
      "Ġshape": 4890,
      "Ġschools": 4891,
      "aming": 4892,
      "cluding": 4893,
      "Ġminor": 4894,
      "Ġtick": 4895,
      "Ġheavy": 4896,
      "âĢĭ": 4897,
      "place": 4898,
      "ĠPoland": 4899,
      "oot": 4900,
      "Ġconsid": 4901,
      "Ġprovider": 4902,
      "inct": 4903,
      "Ġaccepted": 4904,
      "Without": 4905,
      "ĠAustralia": 4906,
      "Ġidentified": 4907,
      "Ġmotiv": 4908,
      "Int": 4909,
      "Ġencourage": 4910,
      "ris": 4911,
      "ensions": 4912,
      "Ġconvers": 4913,
      "urb": 4914,
      "ipped": 4915,
      "Ġdiscip": 4916,
      "Ġsignificantly": 4917,
      "Ġleads": 4918,
      "abet": 4919,
      "Ġconsequences": 4920,
      "Ġconfident": 4921,
      "Ġcourage": 4922,
      "Ġbought": 4923,
      "Ġhumanity": 4924,
      "Ġmental": 4925,
      "Ġinterview": 4926,
      "ĠSecret": 4927,
      "reland": 4928,
      "ĠGovernment": 4929,
      "Christ": 4930,
      "ument": 4931,
      "udd": 4932,
      "ĠOb": 4933,
      "Ġarrest": 4934,
      "Ġexport": 4935,
      "Ġlib": 4936,
      "27": 4937,
      "Ġtraffic": 4938,
      "udi": 4939,
      "ael": 4940,
      "ĠFranc": 4941,
      "Ġregistration": 4942,
      "Ġstation": 4943,
      "Ġbound": 4944,
      "Ġexperiences": 4945,
      "ĠSpain": 4946,
      "ĠArticles": 4947,
      "Ġspecified": 4948,
      "Ġcrime": 4949,
      "Ġproperties": 4950,
      "ĠDem": 4951,
      "rees": 4952,
      "Ġparticipants": 4953,
      "Ġworst": 4954,
      "Ġreven": 4955,
      "Ġphilos": 4956,
      "ĠJews": 4957,
      "Ġresident": 4958,
      "Ġrefer": 4959,
      "Ġconference": 4960,
      "IF": 4961,
      "ĠAc": 4962,
      "off": 4963,
      "iam": 4964,
      "Whe": 4965,
      "Ġwall": 4966,
      "Ġcommitment": 4967,
      "Ġice": 4968,
      "Ġtot": 4969,
      "Ġluck": 4970,
      "Last": 4971,
      "Ġthousand": 4972,
      "Ġclick": 4973,
      "Ġminim": 4974,
      "Ġteaching": 4975,
      "ĠMac": 4976,
      "Ġconstantly": 4977,
      "Ġscientists": 4978,
      "Ġlines": 4979,
      "ulated": 4980,
      "Ġpregnancy": 4981,
      "alse": 4982,
      "Ġhar": 4983,
      "Yet": 4984,
      "irt": 4985,
      "Ġexhib": 4986,
      "ĠMc": 4987,
      "Ġadministration": 4988,
      "inner": 4989,
      "Remember": 4990,
      "roid": 4991,
      "Ġflight": 4992,
      "Ġbath": 4993,
      "Ġfif": 4994,
      "Ġpure": 4995,
      "ĠPlan": 4996,
      "Ġproviders": 4997,
      "Ġcreative": 4998,
      "Ġvictims": 4999,
      "Ġmeat": 5000,
      "ĠPlay": 5001,
      "oster": 5002,
      "ĠChar": 5003,
      "ship": 5004,
      "Ġtoward": 5005,
      "Ġentered": 5006,
      "Ġdatab": 5007,
      "Ġatmosp": 5008,
      "Ġchosen": 5009,
      "ĠHome": 5010,
      "Ġball": 5011,
      "ancial": 5012,
      "Ġexcess": 5013,
      "duc": 5014,
      "Ġsupported": 5015,
      "Ġpowers": 5016,
      "Ġfunding": 5017,
      "ĠEUR": 5018,
      "Ġwild": 5019,
      "Ġopening": 5020,
      "Ġaspects": 5021,
      "Ġpayments": 5022,
      "gin": 5023,
      "Ġ35": 5024,
      "iot": 5025,
      "ĠVal": 5026,
      "Ġ2005": 5027,
      "Ġobligation": 5028,
      "Ġoffering": 5029,
      "Ġinvestigation": 5030,
      "Ġdreams": 5031,
      "Ġlaunched": 5032,
      "osm": 5033,
      "Ġcash": 5034,
      "Ġec": 5035,
      "Ġconscious": 5036,
      "Ġstim": 5037,
      "Ġ2004": 5038,
      "usion": 5039,
      "Ġ195": 5040,
      "Good": 5041,
      "iar": 5042,
      "Ġlinked": 5043,
      "Ġbeings": 5044,
      "jud": 5045,
      "Should": 5046,
      "Ġlaunch": 5047,
      "Ġunits": 5048,
      "Ġhonest": 5049,
      "ont": 5050,
      "Ġincor": 5051,
      "Ġbird": 5052,
      "ĠAsia": 5053,
      "Ġincreases": 5054,
      "Ġanymore": 5055,
      "Use": 5056,
      "Ġdownload": 5057,
      "Ġsmaller": 5058,
      "ĠTurkey": 5059,
      "Ġfacilities": 5060,
      "PS": 5061,
      "how": 5062,
      "ani": 5063,
      "Ġenemy": 5064,
      "rene": 5065,
      "onom": 5066,
      "Ġremind": 5067,
      "Ġdegree": 5068,
      "Ġmaster": 5069,
      "Ġshowed": 5070,
      "60": 5071,
      "Ġparticipate": 5072,
      "ĠMer": 5073,
      "Ġfemale": 5074,
      "Ġhelping": 5075,
      "Ġbelief": 5076,
      "Ġdirector": 5077,
      "Ġhop": 5078,
      "Ġtransform": 5079,
      "Ġsaved": 5080,
      "Ġsn": 5081,
      "itter": 5082,
      "Ġmaintenance": 5083,
      "ĠEngland": 5084,
      "28": 5085,
      "Ġabsolutely": 5086,
      "Ġmanaged": 5087,
      "amily": 5088,
      "going": 5089,
      "ipe": 5090,
      "Ġfans": 5091,
      "Ġtradition": 5092,
      "hy": 5093,
      "Ġconcerns": 5094,
      "ET": 5095,
      "Ġapproximately": 5096,
      "ĠParties": 5097,
      "ĠHot": 5098,
      "Ġholy": 5099,
      "Ġreliable": 5100,
      "Ġprotein": 5101,
      "Ġphoto": 5102,
      "Ġstudent": 5103,
      "Ġbrothers": 5104,
      "Ġagreements": 5105,
      "spe": 5106,
      "Ġinitial": 5107,
      "rief": 5108,
      "phas": 5109,
      "Ġremoved": 5110,
      "mbly": 5111,
      "ĠInter": 5112,
      "Ġrevolution": 5113,
      "look": 5114,
      "Ġtox": 5115,
      "ĠVol": 5116,
      "Ġforced": 5117,
      "Ġpages": 5118,
      "uy": 5119,
      "Ġcritical": 5120,
      "ĠWhen": 5121,
      "ommod": 5122,
      "Ġcloser": 5123,
      "Ġelectricity": 5124,
      "Unf": 5125,
      "orthern": 5126,
      "Ġhurt": 5127,
      "Ġcomply": 5128,
      "Ġactual": 5129,
      "Ġcomment": 5130,
      "Ġpreviously": 5131,
      "Ġrealize": 5132,
      "Ġprogrammes": 5133,
      "Ġcycle": 5134,
      "%.": 5135,
      "Ġelection": 5136,
      "Ġdelay": 5137,
      "Ġfollows": 5138,
      "Ġgarden": 5139,
      "Ġemergency": 5140,
      "Ġtea": 5141,
      "Ġclothes": 5142,
      "ĠPhil": 5143,
      "ocation": 5144,
      "ĠAp": 5145,
      "Ġtelevision": 5146,
      "Ġglo": 5147,
      "Ġlimits": 5148,
      "Ġpromise": 5149,
      "ils": 5150,
      "Ġminute": 5151,
      "Ġplastic": 5152,
      "Ġforgot": 5153,
      "ĠSchool": 5154,
      "Ġafford": 5155,
      "Ġseconds": 5156,
      "IV": 5157,
      "29": 5158,
      "Ġcards": 5159,
      "ĠPope": 5160,
      "Ġ500": 5161,
      "Ġintelligence": 5162,
      "Me": 5163,
      "la": 5164,
      "26": 5165,
      "ĠUs": 5166,
      "ĠFriday": 5167,
      "Ġanywhere": 5168,
      "ĠBritain": 5169,
      "Ġnumerous": 5170,
      "Ġuniverse": 5171,
      "Ġdepos": 5172,
      "Ġpredict": 5173,
      "ĠMond": 5174,
      "oviet": 5175,
      "Ġeverywhere": 5176,
      "ĠWho": 5177,
      "Ġloves": 5178,
      "ĠWhite": 5179,
      "Ġbattery": 5180,
      "ĠRome": 5181,
      "Ġregulation": 5182,
      "Ġdecades": 5183,
      "Ġorganisation": 5184,
      "employ": 5185,
      "Ġimagine": 5186,
      "Ġpractical": 5187,
      "Ġhappiness": 5188,
      "rier": 5189,
      "Ġpiece": 5190,
      "Ġtheory": 5191,
      "Ġteams": 5192,
      "ĠJapanese": 5193,
      "Sim": 5194,
      "Ġdoctors": 5195,
      "ĠAuthor": 5196,
      "hensive": 5197,
      "Ġvisitors": 5198,
      "Russ": 5199,
      "tes": 5200,
      "Ġillegal": 5201,
      "Ġfra": 5202,
      "Ġrecognize": 5203,
      "Ġproperly": 5204,
      "Ġwelcome": 5205,
      "ĠAmericans": 5206,
      "iration": 5207,
      "Ġfurn": 5208,
      "Ġperhaps": 5209,
      "!\"": 5210,
      "aren": 5211,
      "Ġinstrument": 5212,
      "Ġviews": 5213,
      "Ġwindow": 5214,
      "Bl": 5215,
      "ĠLa": 5216,
      "ĠJewish": 5217,
      "ifications": 5218,
      "Unfortunately": 5219,
      "oking": 5220,
      "Ġparticipation": 5221,
      "ĠInst": 5222,
      "ĠDevelopment": 5223,
      "Ġinvent": 5224,
      "Ġteacher": 5225,
      "umn": 5226,
      "Ġconfidence": 5227,
      "ĠIreland": 5228,
      "Ġapart": 5229,
      "ĠAssociation": 5230,
      "ĠMor": 5231,
      "Ġsam": 5232,
      "gent": 5233,
      "Ġsweet": 5234,
      "Ġsubstance": 5235,
      "Ġdisappe": 5236,
      "astern": 5237,
      "Ġround": 5238,
      "Ġox": 5239,
      "ae": 5240,
      "iest": 5241,
      "Ġappearance": 5242,
      "ashington": 5243,
      "Ġdrinking": 5244,
      "que": 5245,
      "Ġcommunications": 5246,
      "Ġlegit": 5247,
      "Ġhyd": 5248,
      "Ġvac": 5249,
      "Ġpregnant": 5250,
      "Ġstarts": 5251,
      "Ġagency": 5252,
      "Ġfeelings": 5253,
      "Ġconfirmed": 5254,
      "rance": 5255,
      "ores": 5256,
      "Ġang": 5257,
      "Ġcloud": 5258,
      "ĠCenter": 5259,
      "ĠPeter": 5260,
      "Ġkn": 5261,
      "Ġton": 5262,
      "Ġeffectively": 5263,
      "ĠInformation": 5264,
      "onym": 5265,
      "Ġtherapy": 5266,
      "icians": 5267,
      "ĠGreek": 5268,
      "Ġinstance": 5269,
      "pective": 5270,
      "ĠShe": 5271,
      "ĠOf": 5272,
      "Ġscope": 5273,
      "Ġconcern": 5274,
      "eal": 5275,
      "ask": 5276,
      "arge": 5277,
      "Ġamounts": 5278,
      "ichael": 5279,
      "ras": 5280,
      "ĠMother": 5281,
      "stitution": 5282,
      "Ġimproved": 5283,
      "OU": 5284,
      "Ġofficials": 5285,
      "ading": 5286,
      "Ġplanned": 5287,
      "Ġregulatory": 5288,
      "Ġupdate": 5289,
      "ĠTime": 5290,
      "oe": 5291,
      "Ġfighting": 5292,
      "ifts": 5293,
      "Ġstored": 5294,
      "Ġdetailed": 5295,
      "yp": 5296,
      "ycl": 5297,
      "Ġhearts": 5298,
      "ĠRel": 5299,
      "lements": 5300,
      "Instead": 5301,
      "Ġdouble": 5302,
      "cknow": 5303,
      "Ġcombined": 5304,
      "Ġenterpr": 5305,
      "Ġblue": 5306,
      "ĠInstitute": 5307,
      "Ġsharing": 5308,
      "Ġbehavi": 5309,
      "ĠBen": 5310,
      "Ġguy": 5311,
      "Ġkm": 5312,
      "mark": 5313,
      "Ġconducted": 5314,
      "anging": 5315,
      "Ġbear": 5316,
      "AM": 5317,
      "Ġequival": 5318,
      "Ġfit": 5319,
      "Ġcultiv": 5320,
      "Ġstock": 5321,
      "Ġfloor": 5322,
      "Ġ2003": 5323,
      "35": 5324,
      "dden": 5325,
      "Ġamend": 5326,
      "Ġegg": 5327,
      "Ġpermanent": 5328,
      "ste": 5329,
      "Ġbag": 5330,
      "Ġsubmitted": 5331,
      "uris": 5332,
      "Ġfacts": 5333,
      "oted": 5334,
      "Ġobtained": 5335,
      "ĠBoard": 5336,
      "etary": 5337,
      "Ġordinary": 5338,
      "imb": 5339,
      "Ġduty": 5340,
      "atin": 5341,
      "portion": 5342,
      "Ġempt": 5343,
      "Ġyouth": 5344,
      "ller": 5345,
      "ĠSol": 5346,
      "Ġfashion": 5347,
      "Ġleaving": 5348,
      "orial": 5349,
      "ĠAut": 5350,
      "Ġneither": 5351,
      "Ġtaught": 5352,
      "ĠArt": 5353,
      "Pol": 5354,
      "Ġdeclared": 5355,
      "Ġbuying": 5356,
      "Ġdespite": 5357,
      "Ġdynam": 5358,
      "elp": 5359,
      "Ġraise": 5360,
      "Ġtotally": 5361,
      "Ġbur": 5362,
      "Ġcommunities": 5363,
      "Ġlies": 5364,
      "isher": 5365,
      "Ġbreast": 5366,
      "Ġtells": 5367,
      "board": 5368,
      "ĠMiddle": 5369,
      "ĠPC": 5370,
      "anged": 5371,
      "Ġrooms": 5372,
      "Ġdifferences": 5373,
      "aturally": 5374,
      "Ġobjects": 5375,
      "ya": 5376,
      "Ġshopping": 5377,
      "Ġreduction": 5378,
      "Ġfalse": 5379,
      "etter": 5380,
      "Ġfing": 5381,
      "100": 5382,
      "gery": 5383,
      "oma": 5384,
      "roat": 5385,
      "Ġdose": 5386,
      "Ġbroken": 5387,
      "Ġsnow": 5388,
      "Ġseriously": 5389,
      "Ġstopped": 5390,
      "ĠNe": 5391,
      "uk": 5392,
      "Ġdrop": 5393,
      "Ġvalu": 5394,
      "Ġsudden": 5395,
      "ctr": 5396,
      "Ġcategories": 5397,
      "cers": 5398,
      "unk": 5399,
      "Ġencoura": 5400,
      "Ġhero": 5401,
      "Ġtransactions": 5402,
      "Ġhistorical": 5403,
      "that": 5404,
      "Ġmand": 5405,
      "ellect": 5406,
      "80": 5407,
      "gr": 5408,
      "ĠMore": 5409,
      "Ġhappening": 5410,
      "fess": 5411,
      "ĠSoviet": 5412,
      "Ġfinished": 5413,
      "Ġnine": 5414,
      "Ġstrict": 5415,
      "Ġgun": 5416,
      "Ġrepeated": 5417,
      "Ġpenal": 5418,
      "ĠMod": 5419,
      "ĠOut": 5420,
      "Article": 5421,
      "Ġadvent": 5422,
      "ym": 5423,
      "Ġtaste": 5424,
      "Ġgrace": 5425,
      "Ġ45": 5426,
      "ĠMot": 5427,
      "Ġprecise": 5428,
      "ĠPat": 5429,
      "ĠMet": 5430,
      "het": 5431,
      "ĠNor": 5432,
      "ĠGreece": 5433,
      "Ġasking": 5434,
      "Ġrecovery": 5435,
      "ĠSuper": 5436,
      "Ġfailed": 5437,
      "Ġlie": 5438,
      "Ġillness": 5439,
      "Especially": 5440,
      "rem": 5441,
      "ĠMex": 5442,
      "rible": 5443,
      "embers": 5444,
      "Ġseeing": 5445,
      "Ġappeared": 5446,
      "resents": 5447,
      "Ġsuspect": 5448,
      "ato": 5449,
      "Ġemer": 5450,
      "Ġrail": 5451,
      "Ġkinds": 5452,
      "aria": 5453,
      "hent": 5454,
      "Ġraised": 5455,
      "ĠPolic": 5456,
      "acle": 5457,
      "Ġregister": 5458,
      "Ġacid": 5459,
      "ĠWhy": 5460,
      "Ġcharacteristics": 5461,
      "Ġdele": 5462,
      "Ġmostly": 5463,
      "Ġspeaking": 5464,
      "Ġfinding": 5465,
      "Ġatmosphere": 5466,
      "estival": 5467,
      "ĠBre": 5468,
      "Ġmanufacturing": 5469,
      "ona": 5470,
      "Ġoccurs": 5471,
      "Ġcomments": 5472,
      "Ġtiss": 5473,
      "related": 5474,
      "reprene": 5475,
      "Ġelement": 5476,
      "Ġingredients": 5477,
      "Ġhundreds": 5478,
      "Ġestimated": 5479,
      "Ġstraight": 5480,
      "ĠMonday": 5481,
      "ĠSch": 5482,
      "Ġcompens": 5483,
      "what": 5484,
      "za": 5485,
      "Ġcollected": 5486,
      "Ġvul": 5487,
      "Ġquiet": 5488,
      "Ġfaithful": 5489,
      "Ġfocused": 5490,
      "Ġentirely": 5491,
      "Ġformed": 5492,
      "Up": 5493,
      "Ġtro": 5494,
      "Ġcoast": 5495,
      "well": 5496,
      "rig": 5497,
      "Ġentity": 5498,
      "Ġrecords": 5499,
      "Ġensuring": 5500,
      "ĠSpanish": 5501,
      "uting": 5502,
      "Ġcontribution": 5503,
      "ĠSan": 5504,
      "ĠContract": 5505,
      "lymp": 5506,
      "Ġevening": 5507,
      "Ġdepending": 5508,
      "ORD": 5509,
      "ĠEnergy": 5510,
      "Ġtrees": 5511,
      "Ġrevealed": 5512,
      "sk": 5513,
      "iques": 5514,
      "ĠBut": 5515,
      "Ġsubsequ": 5516,
      "ĠProduct": 5517,
      "ĠPe": 5518,
      "ĠJud": 5519,
      "Ġpriority": 5520,
      "Ġpriest": 5521,
      "Ġfle": 5522,
      "Ġmere": 5523,
      "ðŁ": 5524,
      "Ġteeth": 5525,
      "Ġimmig": 5526,
      "abetes": 5527,
      "race": 5528,
      "cean": 5529,
      "ĠHave": 5530,
      "ĠLib": 5531,
      "Phone": 5532,
      "ĠOur": 5533,
      "Ġserved": 5534,
      "Ġabroad": 5535,
      "rogen": 5536,
      "Ġfigure": 5537,
      "Ġdemocracy": 5538,
      "care": 5539,
      "ĠUSA": 5540,
      "ressed": 5541,
      "Ġsacr": 5542,
      "Che": 5543,
      "anges": 5544,
      "Le": 5545,
      "but": 5546,
      "Ġarrived": 5547,
      "ĠCong": 5548,
      "engers": 5549,
      "ĠBM": 5550,
      "Ġfavour": 5551,
      "Ġpassion": 5552,
      "Ġfourth": 5553,
      "ses": 5554,
      "ĠProtection": 5555,
      "ruption": 5556,
      "Ġfactor": 5557,
      "pper": 5558,
      "hetic": 5559,
      "Ġdefend": 5560,
      "Ġves": 5561,
      "Ġfields": 5562,
      "ĠBer": 5563,
      "umber": 5564,
      "terday": 5565,
      "Ġregards": 5566,
      "ĠCount": 5567,
      "Act": 5568,
      "ĠWeb": 5569,
      "can": 5570,
      "ĠMad": 5571,
      "Ġreceiving": 5572,
      "Ġswim": 5573,
      "Ġinvestors": 5574,
      "nel": 5575,
      "ĠHol": 5576,
      "aker": 5577,
      "Ġspecifically": 5578,
      "ingu": 5579,
      "Ġinformed": 5580,
      "irty": 5581,
      "Ġrecip": 5582,
      "Ġcritic": 5583,
      "Ġintegrated": 5584,
      "Ġcommunicate": 5585,
      "ented": 5586,
      "Ġjudgment": 5587,
      "Ġaccommod": 5588,
      "Ġacknow": 5589,
      "Ġmoral": 5590,
      "ghan": 5591,
      "Perhaps": 5592,
      "Ġabuse": 5593,
      "Ġmedium": 5594,
      "idelines": 5595,
      "Ġstreet": 5596,
      "ĠAfrican": 5597,
      "ĠSaf": 5598,
      "ĠPower": 5599,
      "Ġguys": 5600,
      "Ġimproving": 5601,
      "Ġshoes": 5602,
      "Ġsubmit": 5603,
      "Ġpattern": 5604,
      "Sm": 5605,
      "Ġsubstant": 5606,
      "ĠDef": 5607,
      "Ġexpression": 5608,
      "Ġbeach": 5609,
      "ĠTH": 5610,
      "Ġdedicated": 5611,
      "Ġmuscle": 5612,
      "urisd": 5613,
      "Ġspeech": 5614,
      "ective": 5615,
      "Ġunderstood": 5616,
      "Ġcomprehensive": 5617,
      "Ġorders": 5618,
      "Ag": 5619,
      "Ġcopy": 5620,
      "Ġlots": 5621,
      "Ġcontrolled": 5622,
      "About": 5623,
      "called": 5624,
      "Ġliqu": 5625,
      "ĠStud": 5626,
      "inating": 5627,
      "ĠGet": 5628,
      "ĠEconomic": 5629,
      "ĠResearch": 5630,
      "Keep": 5631,
      "Ġrecon": 5632,
      "500": 5633,
      "Ġfrequently": 5634,
      "ospel": 5635,
      "Ġelections": 5636,
      "Ġalive": 5637,
      "EP": 5638,
      "Ġrepresents": 5639,
      "Ġselection": 5640,
      "Ġwisdom": 5641,
      "Ġemphas": 5642,
      "Ġstronger": 5643,
      "Ġhyp": 5644,
      "Ġeventually": 5645,
      "Ġdivided": 5646,
      "ifest": 5647,
      "Ġinterior": 5648,
      "ĠWashington": 5649,
      "coming": 5650,
      "ĠDirector": 5651,
      "Ġloan": 5652,
      "Ġfilled": 5653,
      "Ġcarbon": 5654,
      "verty": 5655,
      "Ġsimpl": 5656,
      "roduct": 5657,
      "itarian": 5658,
      "Pr": 5659,
      "Ġpoverty": 5660,
      "NA": 5661,
      "ĠFrom": 5662,
      "Ġsounds": 5663,
      "Ġindependence": 5664,
      "Ġpackage": 5665,
      "Ġleaves": 5666,
      "hentic": 5667,
      "Ġreplaced": 5668,
      "alm": 5669,
      "Ġimplementing": 5670,
      "Ġbigger": 5671,
      "Ġenemies": 5672,
      "Ġfort": 5673,
      "Ġairport": 5674,
      "Ġhomes": 5675,
      "avig": 5676,
      "Ġkingdom": 5677,
      "Ġaccompl": 5678,
      "Ġadequate": 5679,
      "lor": 5680,
      "oration": 5681,
      "Ġformat": 5682,
      "Ġearn": 5683,
      "Ġsides": 5684,
      "Ġscen": 5685,
      "ĨĴ": 5686,
      "Ġfell": 5687,
      "odes": 5688,
      "ether": 5689,
      "Ġenhance": 5690,
      "Ġrecorded": 5691,
      "Ġapproval": 5692,
      "37": 5693,
      "appoint": 5694,
      "ĠFood": 5695,
      "IA": 5696,
      "Ġmountain": 5697,
      "orter": 5698,
      "Ġblind": 5699,
      "Ġtrouble": 5700,
      "Ġstrategic": 5701,
      "Ġguide": 5702,
      "Ġglad": 5703,
      "Lear": 5704,
      "rome": 5705,
      "Ġestablishment": 5706,
      "Ġpharm": 5707,
      "ixt": 5708,
      "Ġcore": 5709,
      "ĠPost": 5710,
      "ivered": 5711,
      "Ġinvolve": 5712,
      "ĠQue": 5713,
      "DA": 5714,
      "Ġsubsid": 5715,
      "Ġhousehold": 5716,
      "Ġconcluded": 5717,
      "Ġeveryday": 5718,
      "uality": 5719,
      "akers": 5720,
      "Ġmercy": 5721,
      "king": 5722,
      "Ġphen": 5723,
      "Ġvitamin": 5724,
      "Ġmanager": 5725,
      "Ġreaction": 5726,
      "CC": 5727,
      "ĠDecision": 5728,
      "outhern": 5729,
      "Ġpreparation": 5730,
      "Ġdram": 5731,
      "Ġconsists": 5732,
      "Ġscale": 5733,
      "ĠCustom": 5734,
      "Ġexposure": 5735,
      "Ġarms": 5736,
      "ĠPalest": 5737,
      "Ġequivalent": 5738,
      "Ġlit": 5739,
      "Ġended": 5740,
      "Ġprocessed": 5741,
      "Ġabsor": 5742,
      "Ġpossess": 5743,
      "Ġdepart": 5744,
      "born": 5745,
      "ĠUp": 5746,
      "celer": 5747,
      "Ġarm": 5748,
      "Ġcustoms": 5749,
      "kay": 5750,
      "Ġpil": 5751,
      "Ġcolors": 5752,
      "Ġadm": 5753,
      "Ġsupporting": 5754,
      "enger": 5755,
      "Ġchain": 5756,
      "Ġsensitive": 5757,
      "Ġemotional": 5758,
      "Ġinterpret": 5759,
      "Ġexpressed": 5760,
      "Ġ2002": 5761,
      "Ġconven": 5762,
      "Ġmine": 5763,
      "you": 5764,
      "Ġexists": 5765,
      "ĠPolicy": 5766,
      "ĠSun": 5767,
      "Ġdialogue": 5768,
      "Ġexception": 5769,
      "Ġshot": 5770,
      "ĠOlymp": 5771,
      "Ġfixed": 5772,
      "add": 5773,
      "EL": 5774,
      "Ġrecognized": 5775,
      "arr": 5776,
      "Ġreasonable": 5777,
      "Ġboost": 5778,
      "atible": 5779,
      "tered": 5780,
      "Ġdiscrim": 5781,
      "Ġinstructions": 5782,
      "Dr": 5783,
      "Ġsuc": 5784,
      "iforn": 5785,
      "Ġminister": 5786,
      "Ġalle": 5787,
      "asant": 5788,
      "ĠMart": 5789,
      "Ġbehalf": 5790,
      "een": 5791,
      "Ġ300": 5792,
      "Ġprejud": 5793,
      "Ġvulner": 5794,
      "Ġguess": 5795,
      "Ġresulting": 5796,
      "Ġseeking": 5797,
      "Ġclinical": 5798,
      "ĠJustice": 5799,
      "inding": 5800,
      "Finally": 5801,
      "endar": 5802,
      "Ġsolar": 5803,
      "rection": 5804,
      "Ġincident": 5805,
      "itzer": 5806,
      "Ġphase": 5807,
      "âĢ¦]": 5808,
      "Ġprofit": 5809,
      "ï¿": 5810,
      "razy": 5811,
      "Ġselling": 5812,
      "Ġmale": 5813,
      "acters": 5814,
      "Ġmal": 5815,
      "Ġ#": 5816,
      "ooth": 5817,
      "ĠInvest": 5818,
      "ĠIP": 5819,
      "Ġvolume": 5820,
      "Ġempty": 5821,
      "Americ": 5822,
      "Ġapplicant": 5823,
      "ails": 5824,
      "Ġrent": 5825,
      "Ġ2001": 5826,
      "Ġvisible": 5827,
      "Ġfeels": 5828,
      "Ġnone": 5829,
      "Ġarmy": 5830,
      "Ġoperate": 5831,
      "Ġallowing": 5832,
      "ears": 5833,
      "Ġdivor": 5834,
      "Ġangel": 5835,
      "Ġdestroyed": 5836,
      "Ġmyst": 5837,
      "Ġsurprise": 5838,
      "Ġinitiative": 5839,
      "nam": 5840,
      "ï¿½": 5841,
      "Ġslight": 5842,
      "Ġinn": 5843,
      "Ġcontaining": 5844,
      "ĠSing": 5845,
      "Ġrestaurant": 5846,
      "Ġrain": 5847,
      "Ġapartment": 5848,
      "Ġrecognition": 5849,
      "):": 5850,
      "ĠSa": 5851,
      "Ġgender": 5852,
      "ĠEvery": 5853,
      "Ġtoler": 5854,
      "Ġwatching": 5855,
      "IP": 5856,
      "eral": 5857,
      "rical": 5858,
      "Ġinfection": 5859,
      "BC": 5860,
      "itage": 5861,
      "Ġlinks": 5862,
      "Ġobst": 5863,
      "ĠElect": 5864,
      "Ġtrib": 5865,
      "ĠBro": 5866,
      "rid": 5867,
      "Ġlabour": 5868,
      "Ġgovernments": 5869,
      "ifornia": 5870,
      "ĠAbout": 5871,
      "Ġarticles": 5872,
      "Ġdatabase": 5873,
      "ĠGreen": 5874,
      "iplom": 5875,
      "Ġcontracts": 5876,
      "ussion": 5877,
      "Ġstability": 5878,
      "ĠLORD": 5879,
      "Ġtim": 5880,
      "ĠThey": 5881,
      "Ġsucceed": 5882,
      "Ġinstalled": 5883,
      "visory": 5884,
      "Through": 5885,
      "Ġdelivered": 5886,
      "90": 5887,
      "holders": 5888,
      "Ġnoted": 5889,
      "utin": 5890,
      "Ġclosely": 5891,
      "ateral": 5892,
      "Ġquarter": 5893,
      "33": 5894,
      "Ġjurisd": 5895,
      "box": 5896,
      "Ġrequested": 5897,
      "acles": 5898,
      "right": 5899,
      "Ġspot": 5900,
      ")(": 5901,
      "Ġintellect": 5902,
      "Could": 5903,
      "Ġcarefully": 5904,
      "ifies": 5905,
      "ĠIT": 5906,
      "zz": 5907,
      "MS": 5908,
      "Ġcontrols": 5909,
      "ĠOld": 5910,
      "fol": 5911,
      "Ġmetab": 5912,
      "Ġretain": 5913,
      "aturday": 5914,
      "bl": 5915,
      "Ġbond": 5916,
      "Ġaccessible": 5917,
      "Rel": 5918,
      "berg": 5919,
      "Ġprimarily": 5920,
      "Ġfunctioning": 5921,
      "ĠSea": 5922,
      "IL": 5923,
      "Ġtrial": 5924,
      "Ġphilosoph": 5925,
      "Ġtemporary": 5926,
      "Ġwalls": 5927,
      "Ġrecommendations": 5928,
      "Ġbacter": 5929,
      "ĠSim": 5930,
      "ographic": 5931,
      "ampions": 5932,
      "ĠCode": 5933,
      "âĢ¦.": 5934,
      "Ġhidden": 5935,
      "Ġmessages": 5936,
      "ĠâĨĴ": 5937,
      "Ġcup": 5938,
      "Ġkil": 5939,
      "nic": 5940,
      "iat": 5941,
      "Ġmuseum": 5942,
      "Ġdraft": 5943,
      "ien": 5944,
      "ĠMil": 5945,
      "Ġunable": 5946,
      "ĠES": 5947,
      "Ġsupports": 5948,
      "Ġsurvive": 5949,
      "ĠIII": 5950,
      "ocal": 5951,
      "ĠGlobal": 5952,
      "kind": 5953,
      "Spe": 5954,
      "Ġprofile": 5955,
      "uilding": 5956,
      "Ġresidence": 5957,
      "Ġhorse": 5958,
      "Ġcalling": 5959,
      "Ġteachers": 5960,
      "Ġholiday": 5961,
      "Ġsister": 5962,
      "Ġsolve": 5963,
      "cies": 5964,
      "Ġvideos": 5965,
      "ĠGold": 5966,
      "fl": 5967,
      "Ġprove": 5968,
      "Ġoperator": 5969,
      "ĠIslamic": 5970,
      "osite": 5971,
      "Ġsmile": 5972,
      "ATO": 5973,
      "wood": 5974,
      "ishment": 5975,
      "Ġexplained": 5976,
      "Ġoperators": 5977,
      "ĠFound": 5978,
      "igital": 5979,
      "Ġbill": 5980,
      "Ġsongs": 5981,
      "inter": 5982,
      "oscow": 5983,
      "Ġstone": 5984,
      "rors": 5985,
      "Ġsets": 5986,
      "Love": 5987,
      "Ġload": 5988,
      "ificial": 5989,
      "Ġmetal": 5990,
      "Ġsen": 5991,
      "Ġcharacters": 5992,
      "Ġaims": 5993,
      "Ġtested": 5994,
      "Ġcareful": 5995,
      "ograp": 5996,
      "Ġcompetitive": 5997,
      "itis": 5998,
      "99": 5999,
      "Ġimmediate": 6000,
      "CO": 6001,
      "Ġcontained": 6002,
      "Ġanswers": 6003,
      "no": 6004,
      "Ġbul": 6005,
      "Ġbright": 6006,
      "Ġordered": 6007,
      "ĠSte": 6008,
      "Ġserver": 6009,
      "Ġbread": 6010,
      "onia": 6011,
      "ĠPrime": 6012,
      "36": 6013,
      "ĠGrand": 6014,
      "ĠiPhone": 6015,
      "Ġdance": 6016,
      "Come": 6017,
      "Ġsurgery": 6018,
      "Ġshock": 6019,
      "Ġrepresentatives": 6020,
      "Ġlawy": 6021,
      "quality": 6022,
      "Ġfishing": 6023,
      "ĠGal": 6024,
      "Ġwalking": 6025,
      "ĠAff": 6026,
      "Nothing": 6027,
      "Ġcosm": 6028,
      "Ġrelatively": 6029,
      "Ġiron": 6030,
      "Ġenforcement": 6031,
      "ducation": 6032,
      "Ġassum": 6033,
      "ishes": 6034,
      "Ġsurprised": 6035,
      "Ġinfect": 6036,
      "emb": 6037,
      "Ġgraph": 6038,
      "Ġreducing": 6039,
      "Ġremaining": 6040,
      "Home": 6041,
      "Ġintegr": 6042,
      "aret": 6043,
      "Ġresistance": 6044,
      "Ġsav": 6045,
      "Ġdefinition": 6046,
      "ĠDepartment": 6047,
      "Ġattend": 6048,
      "Ġfant": 6049,
      "bed": 6050,
      "elf": 6051,
      "Ġacting": 6052,
      "down": 6053,
      "ĠEastern": 6054,
      "34": 6055,
      "ĠProv": 6056,
      "active": 6057,
      "Moreover": 6058,
      "Note": 6059,
      "Ġspl": 6060,
      "Ġvisited": 6061,
      "Ġintegration": 6062,
      "asy": 6063,
      "Ġfly": 6064,
      "Ġpieces": 6065,
      "Ġhonor": 6066,
      "Ġlaugh": 6067,
      "Ġdollars": 6068,
      "Ġunp": 6069,
      "ounder": 6070,
      "Ġimprovement": 6071,
      "ype": 6072,
      "Ġtechniques": 6073,
      "icide": 6074,
      "Ġmistakes": 6075,
      "ĠCom": 6076,
      "Ġimmune": 6077,
      "ursday": 6078,
      "Ġchair": 6079,
      "andon": 6080,
      "Ġincreasingly": 6081,
      "ĠWebs": 6082,
      "Ġnutr": 6083,
      "lines": 6084,
      "Ġlegitimate": 6085,
      "ogether": 6086,
      "Ġforth": 6087,
      "Ġparliament": 6088,
      "Ġdisappoint": 6089,
      "Follow": 6090,
      "Ġsalvation": 6091,
      "Ġbon": 6092,
      "Ġspending": 6093,
      "ĠMost": 6094,
      "Ġgrown": 6095,
      "bits": 6096,
      "Ġlifest": 6097,
      "vil": 6098,
      "Â®": 6099,
      "agers": 6100,
      "ĠPersonal": 6101,
      "Ġflag": 6102,
      "free": 6103,
      "istory": 6104,
      "Ġagencies": 6105,
      "claim": 6106,
      "Ġtransmission": 6107,
      "Ġconstruct": 6108,
      "usalem": 6109,
      "Three": 6110,
      "Ġ[âĢ¦]": 6111,
      "Children": 6112,
      "obile": 6113,
      "Ġguests": 6114,
      "Current": 6115,
      "Ġends": 6116,
      "Ġpassengers": 6117,
      "ĠSam": 6118,
      "Ġcorporate": 6119,
      "Ġseat": 6120,
      "Stud": 6121,
      "uesday": 6122,
      "rations": 6123,
      "Ġsupposed": 6124,
      "Ġholding": 6125,
      "ua": 6126,
      "Ġartist": 6127,
      "Ġnom": 6128,
      "Ġchief": 6129,
      "Ġhearing": 6130,
      "Ġawareness": 6131,
      "Ġvisual": 6132,
      "Tra": 6133,
      "itzerland": 6134,
      "Ġstake": 6135,
      "Ġmagic": 6136,
      "law": 6137,
      "Ġretail": 6138,
      "ortion": 6139,
      "Ġglory": 6140,
      "Ġperiods": 6141,
      "Ġentities": 6142,
      "Ġadvis": 6143,
      "Ġorg": 6144,
      "Ġphenomen": 6145,
      "Ġseemed": 6146,
      "Ġcertificate": 6147,
      "Germ": 6148,
      "Ġcrypt": 6149,
      "Ġmutual": 6150,
      "Ġzone": 6151,
      "Ġutil": 6152,
      "Ġx": 6153,
      "Ġerror": 6154,
      "ĠSpe": 6155,
      "Ġcarrying": 6156,
      "Ġsoil": 6157,
      "Direct": 6158,
      "Ġnorth": 6159,
      "Ġgar": 6160,
      "Ġgather": 6161,
      "va": 6162,
      "Ġ>": 6163,
      "Ġsmell": 6164,
      "Ġkeeping": 6165,
      "Was": 6166,
      "Ġindeed": 6167,
      "Ġremed": 6168,
      "Ġinvestments": 6169,
      "Ġevaluation": 6170,
      "Ġharmful": 6171,
      "Ġmg": 6172,
      "Ġsectors": 6173,
      "erent": 6174,
      "rs": 6175,
      "Ġconform": 6176,
      "Ġmort": 6177,
      "ĠCalifornia": 6178,
      "Ġvaluable": 6179,
      "Ġduration": 6180,
      "Ġmanufacturers": 6181,
      "Ġstable": 6182,
      "ĠManagement": 6183,
      "Ġdepression": 6184,
      "Ġinjury": 6185,
      "ĠCr": 6186,
      "ogen": 6187,
      "Ġoperational": 6188,
      "Ġspoke": 6189,
      "Ġconstant": 6190,
      "Despite": 6191,
      "Ġvolunte": 6192,
      "Ġpleasure": 6193,
      "Ġrefugees": 6194,
      "Ġstuff": 6195,
      "icon": 6196,
      "atell": 6197,
      "Ġinstallation": 6198,
      "Ġnewsp": 6199,
      "Ġfraud": 6200,
      "eters": 6201,
      "Ġarrangements": 6202,
      "Ġpurchased": 6203,
      "ĠCO": 6204,
      "Ġharmon": 6205,
      "Ġentreprene": 6206,
      "Ġ|": 6207,
      "Ġsurvey": 6208,
      "Ġanx": 6209,
      "ĠLeg": 6210,
      "Ġpra": 6211,
      "Ġdro": 6212,
      "Whether": 6213,
      "Ġimplemented": 6214,
      "ĠKnow": 6215,
      "Ġfoundation": 6216,
      "lamm": 6217,
      "Ġproof": 6218,
      "Ġduties": 6219,
      "estion": 6220,
      "John": 6221,
      "Ġflowers": 6222,
      "Ġlosing": 6223,
      "Ġdestination": 6224,
      "ĠIndian": 6225,
      "Ġfacilitate": 6226,
      "Ġauthentic": 6227,
      "Ġvillage": 6228,
      "Ġconcentration": 6229,
      "Ġjoined": 6230,
      "Ġrepresentative": 6231,
      "Want": 6232,
      "Ġsatisfied": 6233,
      "Work": 6234,
      "Ġmiles": 6235,
      "Ġmobility": 6236,
      "Ġobserved": 6237,
      "Ġpool": 6238,
      "ĠSum": 6239,
      "icing": 6240,
      "ĠSur": 6241,
      "ĠSal": 6242,
      "ĠFa": 6243,
      "Red": 6244,
      "Ġweekend": 6245,
      "ander": 6246,
      "Ġsteel": 6247,
      "Ġhouses": 6248,
      "ĠMag": 6249,
      "Ġhur": 6250,
      "ĠOther": 6251,
      "ĠCy": 6252,
      "iox": 6253,
      "Ġdefe": 6254,
      "ĠMinistry": 6255,
      "Ġstanding": 6256,
      "Ġhell": 6257,
      "Ġnovel": 6258,
      "ĠWomen": 6259,
      "certain": 6260,
      "IM": 6261,
      "rowd": 6262,
      "Ġcatch": 6263,
      "Ġlands": 6264,
      "ek": 6265,
      "teen": 6266,
      "volution": 6267,
      "Ġsorry": 6268,
      "Ġboys": 6269,
      "including": 6270,
      "Ġagricultural": 6271,
      "ĠWEB": 6272,
      "Ġstream": 6273,
      "Ġsomewhere": 6274,
      "ĠJerusalem": 6275,
      "Ġsins": 6276,
      "Ġthr": 6277,
      "razil": 6278,
      "70": 6279,
      "azon": 6280,
      "Ġproportion": 6281,
      "Ġshut": 6282,
      "bre": 6283,
      "Ġdeleg": 6284,
      "ĠAlex": 6285,
      "Ġuniversal": 6286,
      "ednes": 6287,
      "Ġorganic": 6288,
      "Ġeverybody": 6289,
      "Ġnaturally": 6290,
      "ĠMal": 6291,
      "Ġprejudice": 6292,
      "quar": 6293,
      "Ġaffects": 6294,
      "Ġ=": 6295,
      "ĠSat": 6296,
      "Ġath": 6297,
      "32": 6298,
      "Ask": 6299,
      "Ġprevention": 6300,
      "ĠSecond": 6301,
      "Ġfol": 6302,
      "Ġpersonally": 6303,
      "âĢĻ,": 6304,
      "Ġ+": 6305,
      "tr": 6306,
      "Play": 6307,
      "Ġsyn": 6308,
      "ĠGDP": 6309,
      "Ġversions": 6310,
      "Ġborders": 6311,
      "Ġwidely": 6312,
      "Ġstrange": 6313,
      "Ġappeal": 6314,
      "Ġsouth": 6315,
      "under": 6316,
      "Ġoldest": 6317,
      "ĠðŁ": 6318,
      "Ġfill": 6319,
      "Ġtrave": 6320,
      "ĠPay": 6321,
      "Ġpolitics": 6322,
      "ias": 6323,
      "Co": 6324,
      "Ġpositions": 6325,
      "anda": 6326,
      "Ġdivine": 6327,
      "Ġstands": 6328,
      "Ġbreakfast": 6329,
      "Ġreporting": 6330,
      "ĠMichael": 6331,
      "Ġcheap": 6332,
      "Ġdescription": 6333,
      "Ġstruggle": 6334,
      "ĠUse": 6335,
      "eek": 6336,
      "Ġnormally": 6337,
      "Ġtopic": 6338,
      "31": 6339,
      "ects": 6340,
      "Ġdiscussion": 6341,
      "Ġscheme": 6342,
      "Ġmistake": 6343,
      "Ġplays": 6344,
      "Ġconsistent": 6345,
      "lder": 6346,
      "appy": 6347,
      "Ġbelieves": 6348,
      "Ġburd": 6349,
      "ĠBMW": 6350,
      "ĠNOT": 6351,
      "Ġtalks": 6352,
      "Ġvast": 6353,
      "ologist": 6354,
      "Ġcelebrate": 6355,
      "Ġmoon": 6356,
      "Ġmeetings": 6357,
      "Ġsanctions": 6358,
      "Ġcra": 6359,
      "Ġdiabetes": 6360,
      "Ġsitting": 6361,
      "Ġslowly": 6362,
      "Ġescape": 6363,
      "Col": 6364,
      "iversary": 6365,
      "ĠSaturday": 6366,
      "Ġaimed": 6367,
      "Ġhandle": 6368,
      "Ġcere": 6369,
      "aked": 6370,
      "Ġextended": 6371,
      "Ġusual": 6372,
      "oral": 6373,
      "Ġeffectiveness": 6374,
      "ĠTerm": 6375,
      "ĠDiv": 6376,
      "Ġremained": 6377,
      "Ġvictory": 6378,
      "ĠConference": 6379,
      "Ġoccurred": 6380,
      "Ġyounger": 6381,
      "Ġguard": 6382,
      "Ġprofessionals": 6383,
      "Ġoccasion": 6384,
      "Ġwake": 6385,
      "Ġmap": 6386,
      "Ġperspective": 6387,
      "Ġexciting": 6388,
      "Ġsuccessfully": 6389,
      "Ġdiss": 6390,
      "tical": 6391,
      "rive": 6392,
      "Ġcreates": 6393,
      "Ġ150": 6394,
      "upid": 6395,
      "ĠAv": 6396,
      "arency": 6397,
      "Ġeternal": 6398,
      "Ġdiplom": 6399,
      "ulg": 6400,
      "obert": 6401,
      "ini": 6402,
      "Ġinspired": 6403,
      "which": 6404,
      "Ġrepair": 6405,
      "ednesday": 6406,
      "ĠBook": 6407,
      "crete": 6408,
      "Ġinner": 6409,
      "Ġstre": 6410,
      "Ġcharges": 6411,
      "Ġrein": 6412,
      "car": 6413,
      "Ġclassic": 6414,
      "Ġmanifest": 6415,
      "comes": 6416,
      "rates": 6417,
      "Ġherself": 6418,
      "Ġtoxic": 6419,
      "ĠJames": 6420,
      "Ġmulti": 6421,
      "Ġplane": 6422,
      "zy": 6423,
      "Think": 6424,
      "uke": 6425,
      "ĠFree": 6426,
      "ĠThursday": 6427,
      "Com": 6428,
      "ett": 6429,
      "38": 6430,
      "ieties": 6431,
      "azine": 6432,
      "Ġfilms": 6433,
      "Ġplenty": 6434,
      "Ġthrow": 6435,
      "ION": 6436,
      "ĠTest": 6437,
      "Ġacceler": 6438,
      "ĠFinancial": 6439,
      "ĠAnn": 6440,
      "Ġconversation": 6441,
      "ĠOper": 6442,
      "Ġmode": 6443,
      "Ġattractive": 6444,
      "urches": 6445,
      "Ġcolour": 6446,
      "Ġextensive": 6447,
      "ĠNether": 6448,
      "Ġliked": 6449,
      "ĠProject": 6450,
      "Ġunknown": 6451,
      "Ġdign": 6452,
      "Ġbrief": 6453,
      "Ġexclud": 6454,
      "Ġannounce": 6455,
      "Ġheight": 6456,
      "Ġstages": 6457,
      "Ġliquid": 6458,
      "ĠTuesday": 6459,
      "Ġpercentage": 6460,
      "pet": 6461,
      "Ġrequests": 6462,
      "ĠBig": 6463,
      "Ġevolution": 6464,
      "ĠSk": 6465,
      "Ġjump": 6466,
      "Ġtired": 6467,
      "icks": 6468,
      "aser": 6469,
      "rence": 6470,
      "39": 6471,
      "Ġroute": 6472,
      "Ġexpectations": 6473,
      "Ġtwenty": 6474,
      "Ġallerg": 6475,
      "Ġvital": 6476,
      "izon": 6477,
      "Ġtrig": 6478,
      "ĠQueen": 6479,
      "Best": 6480,
      "theless": 6481,
      "Ġopposite": 6482,
      "Ġprescrib": 6483,
      "Ġbirthday": 6484,
      "Ġ75": 6485,
      "ĠAfghan": 6486,
      "ker": 6487,
      "Trans": 6488,
      "appro": 6489,
      "Ġlifestyle": 6490,
      "Ġbrowser": 6491,
      "otic": 6492,
      "Furthermore": 6493,
      "Ġfurniture": 6494,
      "long": 6495,
      "Ġcenturies": 6496,
      "riers": 6497,
      "word": 6498,
      "Ġapps": 6499,
      "ĠAuthority": 6500,
      "Ġaudience": 6501,
      "ĠPublic": 6502,
      "ĠNetherlands": 6503,
      "pected": 6504,
      "Ġindicate": 6505,
      "Ġelig": 6506,
      "Ġcontem": 6507,
      "ĠSweden": 6508,
      "Ġalt": 6509,
      "Life": 6510,
      "Ġspring": 6511,
      "night": 6512,
      "Ġdemands": 6513,
      "Ġcalendar": 6514,
      "Ġcombat": 6515,
      "ĠMuseum": 6516,
      "Ġshares": 6517,
      "dule": 6518,
      "Ġfool": 6519,
      "Gu": 6520,
      "Ġemotions": 6521,
      "Ġabandon": 6522,
      "Ġinfring": 6523,
      "Ġclothing": 6524,
      "ĠFamily": 6525,
      "Ġestablishing": 6526,
      "ago": 6527,
      "Ġregime": 6528,
      "ĠSecretary": 6529,
      "Ġdescribe": 6530,
      "Ġconsideration": 6531,
      "Ġrequirement": 6532,
      "omach": 6533,
      "Ne": 6534,
      "Ġgifts": 6535,
      "Ġintention": 6536,
      "Ġshowing": 6537,
      "Ġmoments": 6538,
      "tainment": 6539,
      "ilateral": 6540,
      "ĠAndroid": 6541,
      "Ġbehaviour": 6542,
      "Google": 6543,
      "ylum": 6544,
      "egu": 6545,
      "Ġnegotiations": 6546,
      "ĠVis": 6547,
      "Ġmyster": 6548,
      "Ġdrivers": 6549,
      "Ġsouls": 6550,
      "Ġtheme": 6551,
      "High": 6552,
      "Ġlibrary": 6553,
      "Ġpref": 6554,
      "roduction": 6555,
      "Ġexperiment": 6556,
      "Ġfinancing": 6557,
      "ĠMoscow": 6558,
      "Ġvirus": 6559,
      "ordinary": 6560,
      "Ġleadership": 6561,
      "Ġequipped": 6562,
      "Ġrestrictions": 6563,
      "Ġconclusion": 6564,
      "Ġcourts": 6565,
      "ĠAustria": 6566,
      "Ġbringing": 6567,
      "Ġtargets": 6568,
      "Ġ1990": 6569,
      "Ġbottle": 6570,
      "Ġpaint": 6571,
      "zen": 6572,
      "Ġstatistics": 6573,
      "swe": 6574,
      "ĠHotel": 6575,
      "Ġmassive": 6576,
      "ĠCap": 6577,
      "Ġperfectly": 6578,
      "ios": 6579,
      "etween": 6580,
      "Ġbreath": 6581,
      "Ġcrucial": 6582,
      "ĠCreat": 6583,
      "MA": 6584,
      "Ġsky": 6585,
      "Ġfee": 6586,
      "Ġpromoting": 6587,
      "ĠStand": 6588,
      "ĠForm": 6589,
      "Ġtum": 6590,
      "ighter": 6591,
      "Ġknowing": 6592,
      "Ġbackground": 6593,
      "esides": 6594,
      "Women": 6595,
      "ocolate": 6596,
      "Ġrom": 6597,
      "Ġjurisdiction": 6598,
      "Ġfinish": 6599,
      "Ġfinds": 6600,
      "ĠBelg": 6601,
      "ĠNeed": 6602,
      "Great": 6603,
      "Ġwise": 6604,
      "Ġcasino": 6605,
      "Ġhealing": 6606,
      "Ġyesterday": 6607,
      "border": 6608,
      "Ġvirtual": 6609,
      "tension": 6610,
      "Intern": 6611,
      "Ġadoption": 6612,
      "ING": 6613,
      "Ġaccurate": 6614,
      "Ġenables": 6615,
      "Ġeducational": 6616,
      "life": 6617,
      "Ġregardless": 6618,
      "ĠRem": 6619,
      "operation": 6620,
      "ounded": 6621,
      "Ġgenerations": 6622,
      "ĠMexico": 6623,
      "ugh": 6624,
      "Ġoriginally": 6625,
      "Ġmachines": 6626,
      "Ġtransaction": 6627,
      "utch": 6628,
      "vo": 6629,
      "fe": 6630,
      "ĠThere": 6631,
      "Ġpaying": 6632,
      "Ġofficially": 6633,
      "Ġincorpor": 6634,
      "Ġrecycl": 6635,
      "Ġcontrary": 6636,
      "Ġsettings": 6637,
      "Ġmovies": 6638,
      "Ġovercome": 6639,
      "Ġraw": 6640,
      "Ġsight": 6641,
      "uine": 6642,
      "Ġdefense": 6643,
      "Ġpill": 6644,
      "Ġlistening": 6645,
      "Ġfriendly": 6646,
      "Check": 6647,
      "ĠIndust": 6648,
      "Å¡": 6649,
      "ĠWebsite": 6650,
      "ĠStar": 6651,
      "Ġpoly": 6652,
      "ĠForeign": 6653,
      "Ġtow": 6654,
      "ota": 6655,
      "atisl": 6656,
      "ĠChildren": 6657,
      "45": 6658,
      "Ġinhab": 6659,
      "orters": 6660,
      "ĠCivil": 6661,
      "Ġyours": 6662,
      "ĠBudd": 6663,
      "ancer": 6664,
      "Ġsatisfact": 6665,
      "Bel": 6666,
      "Ob": 6667,
      "Ġterrorist": 6668,
      "Ġintellectual": 6669,
      "Ġdrinks": 6670,
      "cript": 6671,
      "Ġunemploy": 6672,
      "Ġdispos": 6673,
      "ipping": 6674,
      "Ġride": 6675,
      "Ġimpl": 6676,
      "Av": 6677,
      "Ġbeneficial": 6678,
      "Ġnavig": 6679,
      "state": 6680,
      "Ġchoices": 6681,
      "oughly": 6682,
      "enda": 6683,
      "ĠShould": 6684,
      "Ġexplo": 6685,
      "ennis": 6686,
      "Ġscene": 6687,
      "Ġdeclaration": 6688,
      "anied": 6689,
      "Mar": 6690,
      "Ġ32": 6691,
      "Ġsending": 6692,
      "Ġdeserve": 6693,
      "Ġlux": 6694,
      "while": 6695,
      "Ġdestruction": 6696,
      "ensity": 6697,
      "ĠHungary": 6698,
      "ĠUser": 6699,
      "atislava": 6700,
      "ĠObama": 6701,
      "Ġneut": 6702,
      "Ġfrequency": 6703,
      "ĠWednesday": 6704,
      "agen": 6705,
      "Ġincredible": 6706,
      "Ġisol": 6707,
      "Ġfalling": 6708,
      "ĠSwitzerland": 6709,
      "Ġexplore": 6710,
      "Ġopposition": 6711,
      "ĠNATO": 6712,
      "abled": 6713,
      "Ġshouldn": 6714,
      "Ġcaught": 6715,
      "ĠReport": 6716,
      "Ġpartnership": 6717,
      "from": 6718,
      "Ġantib": 6719,
      "Ġdebate": 6720,
      "ĠMuslims": 6721,
      "Ġfinance": 6722,
      "Ġformal": 6723,
      "ĠCard": 6724,
      "Ġmountains": 6725,
      "Ġlabel": 6726,
      "Ġfamiliar": 6727,
      "Ġsoldiers": 6728,
      "ĠÂ»": 6729,
      "Ġsand": 6730,
      "Having": 6731,
      "Ġexamples": 6732,
      "Off": 6733,
      "Ġmigration": 6734,
      "Ġawarded": 6735,
      "fit": 6736,
      "Ġrank": 6737,
      "uments": 6738,
      "Ġshar": 6739,
      "ĠTwitter": 6740,
      "iah": 6741,
      "ĠMount": 6742,
      "Ġpurs": 6743,
      "Ġtaxes": 6744,
      "Ġmood": 6745,
      "Ġsons": 6746,
      "Ġauthorisation": 6747,
      "Ġcalc": 6748,
      "Ġlicense": 6749,
      "Ġcab": 6750,
      "eding": 6751,
      "Ġuns": 6752,
      "Ġpublication": 6753,
      "Ġunto": 6754,
      "ĠPalestin": 6755,
      "Learn": 6756,
      "Ġguidelines": 6757,
      "Ġbomb": 6758,
      "miss": 6759,
      "Ġidentification": 6760,
      "uan": 6761,
      "liers": 6762,
      "TS": 6763,
      "Ġradical": 6764,
      "Ġcrazy": 6765,
      "ource": 6766,
      "ĠEnvironment": 6767,
      "Ġhung": 6768,
      "itcoin": 6769,
      "ĠJose": 6770,
      "ĠPriv": 6771,
      "Ġroof": 6772,
      "Ġfeder": 6773,
      "Ġpermitted": 6774,
      "apers": 6775,
      "ĠBal": 6776,
      "Ġgradually": 6777,
      "Ġhabit": 6778,
      "OP": 6779,
      "Ġproposals": 6780,
      "Ġholds": 6781,
      "ĠBy": 6782,
      "Ġindicated": 6783,
      "ĠDen": 6784,
      "eration": 6785,
      "ih": 6786,
      "Ġtransition": 6787,
      "ĠConstitution": 6788,
      "Start": 6789,
      "Ġportfol": 6790,
      "ishop": 6791,
      "Ġdear": 6792,
      "Ġstomach": 6793,
      "Ġunion": 6794,
      "comp": 6795,
      "Ġchemicals": 6796,
      "Ġchildhood": 6797,
      "China": 6798,
      "Ġpersec": 6799,
      "List": 6800,
      "Ġvary": 6801,
      "Ġunlike": 6802,
      "gage": 6803,
      "ĠFre": 6804,
      "ĠGeorge": 6805,
      "Ġfasc": 6806,
      "Ġdesignated": 6807,
      "Ġhelpful": 6808,
      "Ġcommission": 6809,
      "Give": 6810,
      "Ġfaces": 6811,
      "Ġabsence": 6812,
      "ĠChe": 6813,
      "ĠMark": 6814,
      "Ġstreets": 6815,
      "Ġundertaking": 6816,
      "ĠCentre": 6817,
      "Ġstatements": 6818,
      "RA": 6819,
      "Ġmuscles": 6820,
      "ĠSociety": 6821,
      "Ġhun": 6822,
      "Ġartists": 6823,
      "Ġpal": 6824,
      "Ġdoors": 6825,
      "ĠNews": 6826,
      "Ġdinner": 6827,
      "Ġstructures": 6828,
      "ician": 6829,
      "ĠChild": 6830,
      "Ġemployee": 6831,
      "ĠNow": 6832,
      "Ġtranslation": 6833,
      "Ġfan": 6834,
      "Ġwinning": 6835,
      "ĠOrganization": 6836,
      "ĠProgramme": 6837,
      "Ġbiological": 6838,
      "umin": 6839,
      "Ġfees": 6840,
      "hered": 6841,
      "itan": 6842,
      "Ġvisa": 6843,
      "Very": 6844,
      "Ġtypical": 6845,
      "Ġtough": 6846,
      "rog": 6847,
      "Ġpriests": 6848,
      "2013": 6849,
      "ĠAsse": 6850,
      "Ġconstitution": 6851,
      "Ġrefused": 6852,
      "Ġtransportation": 6853,
      "Ġclaimed": 6854,
      "Ġdiscl": 6855,
      "Ġexclusive": 6856,
      "inning": 6857,
      "Ġcompensation": 6858,
      "Ġadverse": 6859,
      "emed": 6860,
      "ifice": 6861,
      "OL": 6862,
      "ĠProtocol": 6863,
      "Em": 6864,
      "Ġangry": 6865,
      "ĠWater": 6866,
      "uthors": 6867,
      "Ġmigrants": 6868,
      "Ġthreats": 6869,
      "Ġcommittee": 6870,
      "ĠMaster": 6871,
      "Ġinnoc": 6872,
      "SA": 6873,
      "kish": 6874,
      "bel": 6875,
      "Ġthy": 6876,
      "Ġpossibly": 6877,
      "Being": 6878,
      "Ġrealized": 6879,
      "EEC": 6880,
      "Ġremote": 6881,
      "Ġmystery": 6882,
      "iability": 6883,
      "ĠJour": 6884,
      "ĠVir": 6885,
      "oga": 6886,
      "ĠBrazil": 6887,
      "ĠStreet": 6888,
      "Ġprosec": 6889,
      "Ġcrowd": 6890,
      "ĠAccount": 6891,
      "Ġextract": 6892,
      "Ġcondem": 6893,
      "Ġcleaning": 6894,
      "Ġnotes": 6895,
      "Ġobserv": 6896,
      "Sub": 6897,
      "Ġtrends": 6898,
      "Ġriver": 6899,
      "Ġdynamic": 6900,
      "ĠCat": 6901,
      "uls": 6902,
      "ĠMat": 6903,
      "akings": 6904,
      "cific": 6905,
      "Ġloving": 6906,
      "Ġphotograph": 6907,
      "ĠFoundation": 6908,
      "Ġ1999": 6909,
      "cue": 6910,
      "Ġasks": 6911,
      "ĠLight": 6912,
      "Ġfrag": 6913,
      "Sc": 6914,
      "ĠDesign": 6915,
      "Ġwarning": 6916,
      "Ġurban": 6917,
      "iences": 6918,
      "ĠNaz": 6919,
      "Ġsafegu": 6920,
      "Ġproven": 6921,
      "Ġdeploy": 6922,
      "Ġupdated": 6923,
      "lation": 6924,
      "adow": 6925,
      "Ġdetect": 6926,
      "Ġautonom": 6927,
      "Second": 6928,
      "ĠTrade": 6929,
      "Ġsession": 6930,
      "Time": 6931,
      "Ġbeer": 6932,
      "Ġappreciate": 6933,
      "Ġdignity": 6934,
      "ros": 6935,
      "EF": 6936,
      "ansion": 6937,
      "ĠCross": 6938,
      "Ġbottom": 6939,
      "Ġhide": 6940,
      "Ġtelling": 6941,
      "ĠSub": 6942,
      "uing": 6943,
      "Ġexplos": 6944,
      "Ġapparent": 6945,
      "Ġcoal": 6946,
      "Ġpermission": 6947,
      "Ġfruits": 6948,
      "Ġcovers": 6949,
      "Ġcomponent": 6950,
      "Ġuniversity": 6951,
      "Ġcollege": 6952,
      "Ġacadem": 6953,
      "Ġturns": 6954,
      "Ġsuffered": 6955,
      "Ġtypically": 6956,
      "Ġsty": 6957,
      "ĠContracting": 6958,
      "encing": 6959,
      "Ġrapidly": 6960,
      "omas": 6961,
      "ĠGl": 6962,
      "isms": 6963,
      "Ġchronic": 6964,
      "Ġlocations": 6965,
      "Ġarchitecture": 6966,
      "press": 6967,
      "ormal": 6968,
      "inos": 6969,
      "Ġadding": 6970,
      "asters": 6971,
      "Ġtransferred": 6972,
      "rams": 6973,
      "Ġrevenue": 6974,
      "Ġowned": 6975,
      "ystem": 6976,
      "ifferent": 6977,
      "Ġjudicial": 6978,
      "Ġconvent": 6979,
      "Ġdistingu": 6980,
      "utor": 6981,
      "Ġble": 6982,
      "ication": 6983,
      "Ġgrew": 6984,
      "Ġstrategies": 6985,
      "Ġid": 6986,
      "Ġcomposition": 6987,
      "paragraph": 6988,
      "Â´": 6989,
      "Ġfigures": 6990,
      "Ġconsultation": 6991,
      "tion": 6992,
      "etime": 6993,
      "mal": 6994,
      "ĠCroat": 6995,
      "oples": 6996,
      "Ġorganized": 6997,
      "Ġbutton": 6998,
      "Ġdiam": 6999,
      "Russia": 7000,
      "abies": 7001,
      "ÃŃ": 7002,
      "Ġru": 7003,
      "Ġ000": 7004,
      "Ġju": 7005,
      "ĠBratislava": 7006,
      "ulture": 7007,
      "Ġclasses": 7008,
      "Ġnoise": 7009,
      "Ġinvolves": 7010,
      "Ġneighbor": 7011,
      "Ġcrimes": 7012,
      "Ġliver": 7013,
      "Ġterrorism": 7014,
      "mary": 7015,
      "ĠPolish": 7016,
      "Ġloans": 7017,
      "Ġsched": 7018,
      "Ġsubjects": 7019,
      "ĠRich": 7020,
      "Ġcollaboration": 7021,
      "Sw": 7022,
      "Ġforgotten": 7023,
      "Ġsees": 7024,
      "Ġopinions": 7025,
      "Ġarmed": 7026,
      "rich": 7027,
      "Ġfault": 7028,
      "Ġunus": 7029,
      "ĠSen": 7030,
      "Ġattrib": 7031,
      "Wel": 7032,
      "Ġtransparency": 7033,
      "Ġstick": 7034,
      "ussels": 7035,
      "Ġparagraphs": 7036,
      "Ġdispute": 7037,
      "Ġexercises": 7038,
      "igaret": 7039,
      "Ġputting": 7040,
      "met": 7041,
      "Ġongoing": 7042,
      "Ġlegislative": 7043,
      "Ġconsciousness": 7044,
      "ĠLatin": 7045,
      "Ġtips": 7046,
      "ustain": 7047,
      "Ġsmooth": 7048,
      "edia": 7049,
      "ĠGospel": 7050,
      "Ġexplan": 7051,
      "eneration": 7052,
      "ĠNetwork": 7053,
      "Ġflexible": 7054,
      "Ġelected": 7055,
      "Ġperf": 7056,
      "fin": 7057,
      "ĠArch": 7058,
      "Ġliability": 7059,
      "Ġauthorised": 7060,
      "Ġcorrectly": 7061,
      "Ġparam": 7062,
      "75": 7063,
      "Ġcharged": 7064,
      "Ġreward": 7065,
      "Ġproducers": 7066,
      "organ": 7067,
      "ocated": 7068,
      "Ġdiscrimination": 7069,
      "rust": 7070,
      "ocial": 7071,
      "Ġgrounds": 7072,
      "owered": 7073,
      "iform": 7074,
      "alle": 7075,
      "Ġchose": 7076,
      "ĠMars": 7077,
      "Ġrefers": 7078,
      "Ġment": 7079,
      "ayer": 7080,
      "Ġmeal": 7081,
      "EM": 7082,
      "agon": 7083,
      "eper": 7084,
      "Ġmurder": 7085,
      "Ġsecre": 7086,
      "Ġrecognised": 7087,
      "Mus": 7088,
      "osh": 7089,
      "Ġcalories": 7090,
      "Ġagent": 7091,
      "erce": 7092,
      "ĠWeek": 7093,
      "ĠIr": 7094,
      "Ġtechnological": 7095,
      "lesh": 7096,
      "Ġexclusively": 7097,
      "Ġeliminate": 7098,
      "Ġfulfill": 7099,
      "Ġbacteria": 7100,
      "Ġdecor": 7101,
      "Ġreput": 7102,
      "Ġsaving": 7103,
      "Ġhat": 7104,
      "Ġthereof": 7105,
      "Ġmeters": 7106,
      "Ġcomputers": 7107,
      "ceived": 7108,
      "Ġproducer": 7109,
      "swered": 7110,
      "agues": 7111,
      "Â·": 7112,
      "nect": 7113,
      "ĠCEO": 7114,
      "Ġwriter": 7115,
      "Ġcalm": 7116,
      "48": 7117,
      "Ġgenuine": 7118,
      "Ġpresentation": 7119,
      "Ġspokes": 7120,
      "Ġunw": 7121,
      "Ġunity": 7122,
      "ĠMake": 7123,
      "Ġanonym": 7124,
      "Ġsuddenly": 7125,
      "Ġdirected": 7126,
      "Ġundertakings": 7127,
      "Ġdegrees": 7128,
      "yright": 7129,
      "Ġarrested": 7130,
      "Ġdisciples": 7131,
      "ĠUnder": 7132,
      "Ġoutcome": 7133,
      "ĠOpen": 7134,
      "Mr": 7135,
      "ĠHor": 7136,
      "Ġhunt": 7137,
      "Ġterrible": 7138,
      "Ġstupid": 7139,
      "Ġpollution": 7140,
      "Ġvaccine": 7141,
      "Ġnobody": 7142,
      "Ġbanking": 7143,
      "idance": 7144,
      "Ġadvantages": 7145,
      "Ġdemocratic": 7146,
      "Ġpleased": 7147,
      "President": 7148,
      "Ġdeeply": 7149,
      "Dep": 7150,
      "Ġpromised": 7151,
      "Ġdistinct": 7152,
      "Back": 7153,
      "Ġsatell": 7154,
      "Ġcommonly": 7155,
      "Ġapplying": 7156,
      "ĠFe": 7157,
      "icy": 7158,
      "Ġwearing": 7159,
      "making": 7160,
      "arents": 7161,
      "angers": 7162,
      "Ġpersonality": 7163,
      "Ġrenewable": 7164,
      "Ġwaters": 7165,
      "Ġcontrast": 7166,
      "Ġengaged": 7167,
      "Ġfacing": 7168,
      "Ġcyber": 7169,
      "ĠEducation": 7170,
      "oto": 7171,
      "Ġwa": 7172,
      "field": 7173,
      "ĠAdminist": 7174,
      "Ġfindings": 7175,
      "Ġofficer": 7176,
      "haust": 7177,
      "elve": 7178,
      "Ġradiation": 7179,
      "ateful": 7180,
      "Ġbirds": 7181,
      "itants": 7182,
      "ĠInc": 7183,
      "Ġeggs": 7184,
      "rong": 7185,
      "ĠEff": 7186,
      "ĠAmazon": 7187,
      "Ġkilling": 7188,
      "46": 7189,
      "Ġdrawn": 7190,
      "bert": 7191,
      "General": 7192,
      "ĠEnd": 7193,
      "Ġartificial": 7194,
      "Ġmerely": 7195,
      "Ġhaz": 7196,
      "Ġaccompanied": 7197,
      "unity": 7198,
      "Ġfellow": 7199,
      "ĠIsland": 7200,
      "ervous": 7201,
      "ĠSection": 7202,
      "Ġdefence": 7203,
      "Ġwid": 7204,
      "yd": 7205,
      "Ġsuggests": 7206,
      "ador": 7207,
      "Ġevol": 7208,
      "ĠCongress": 7209,
      "raction": 7210,
      "Ġintense": 7211,
      "Ġrespective": 7212,
      "Ġcollective": 7213,
      "Ġmarked": 7214,
      "Ġexamination": 7215,
      "Ġalleged": 7216,
      "Ġdarkness": 7217,
      "Ġbathroom": 7218,
      "Ġring": 7219,
      "Ġsmoking": 7220,
      "Ġdepth": 7221,
      "Ġwinner": 7222,
      "Ġsought": 7223,
      "Ġkiss": 7224,
      "plete": 7225,
      "Ġanswered": 7226,
      "entle": 7227,
      "ĠSpace": 7228,
      "Ġappointed": 7229,
      "Ġsuppliers": 7230,
      "ĠÃ": 7231,
      "ĠSpecial": 7232,
      "Ġattitude": 7233,
      "itar": 7234,
      "Ġ:)": 7235,
      "Ġbridge": 7236,
      "Ġdiversity": 7237,
      "Ġ48": 7238,
      "TH": 7239,
      "Ġdecade": 7240,
      "water": 7241,
      "Ġcausing": 7242,
      "Ġfert": 7243,
      "Ġ190": 7244,
      "Know": 7245,
      "ola": 7246,
      "Ġsch": 7247,
      "Ġtalked": 7248,
      "Ġaccommodation": 7249,
      "omin": 7250,
      "ĠFederation": 7251,
      "Ġportfolio": 7252,
      "Ġassociation": 7253,
      "ĠMen": 7254,
      "Ġswitch": 7255,
      "Ġphilosophy": 7256,
      "Ġcompr": 7257,
      "Ġgenetic": 7258,
      "Ġconcrete": 7259,
      "Ġsquare": 7260,
      "Ġbeat": 7261,
      "tics": 7262,
      "Ġfulfil": 7263,
      "Ġbelongs": 7264,
      "Ġprotecting": 7265,
      "ĠSwiss": 7266,
      "Ġnoticed": 7267,
      "Ġsuicide": 7268,
      "Ġnotification": 7269,
      "ĠOnline": 7270,
      "Ġvegetables": 7271,
      "ĠSaint": 7272,
      "Ġoutput": 7273,
      "].": 7274,
      "Ġtroops": 7275,
      "Ġequally": 7276,
      "Ġexposed": 7277,
      "ĠSyrian": 7278,
      "Ġlegs": 7279,
      "Ġpromotion": 7280,
      "ĠTour": 7281,
      "kes": 7282,
      "Ġchapter": 7283,
      "Ġvacation": 7284,
      "Ġrefuse": 7285,
      "Ġintent": 7286,
      "Ġagents": 7287,
      "Ġinject": 7288,
      "Ġruns": 7289,
      "Ġboat": 7290,
      "Ġformation": 7291,
      "ĠAssembly": 7292,
      "uction": 7293,
      "Car": 7294,
      "Ġfunctional": 7295,
      "pir": 7296,
      "Ġcoach": 7297,
      "Ġsupplements": 7298,
      "TC": 7299,
      "Ġdeaths": 7300,
      "being": 7301,
      "iously": 7302,
      "Ġnutri": 7303,
      "ĠRoyal": 7304,
      "Ġdifficulties": 7305,
      "ĠFil": 7306,
      "Ġaddressed": 7307,
      "Ġyellow": 7308,
      "Ġasylum": 7309,
      "Ġplatforms": 7310,
      "Ġinvited": 7311,
      "Ġvulnerable": 7312,
      "Ġmedication": 7313,
      "Ġdefine": 7314,
      "Ġtun": 7315,
      "Ġcertification": 7316,
      "Ġsynt": 7317,
      "Ġzero": 7318,
      "Ġheritage": 7319,
      "ĠAtl": 7320,
      "Ġarrive": 7321,
      "Ġloyal": 7322,
      "ww": 7323,
      "Ġvent": 7324,
      "Ġkilomet": 7325,
      "xual": 7326,
      "Ġunex": 7327,
      "Ġroots": 7328,
      "Ġweakness": 7329,
      "Ġavailability": 7330,
      "Ġresource": 7331,
      "Ġsisters": 7332,
      "Ġwire": 7333,
      "Ġfilter": 7334,
      "ĠHarry": 7335,
      "ĠAcadem": 7336,
      "ĠMess": 7337,
      "199": 7338,
      "Ġpermit": 7339,
      "Ġpriorities": 7340,
      "Ġphotograp": 7341,
      "Ġeuros": 7342,
      "sper": 7343,
      "Ġexpertise": 7344,
      "Ġlatter": 7345,
      "Ġ400": 7346,
      "Ġactively": 7347,
      "Ġstrugg": 7348,
      "Ġoffices": 7349,
      "Ġinspiration": 7350,
      "Ġmetabol": 7351,
      "Ġmedicinal": 7352,
      "Ġrub": 7353,
      "Ġdifferently": 7354,
      "Ġanniversary": 7355,
      "ntil": 7356,
      "ĠWhere": 7357,
      "Ġsmoke": 7358,
      "uled": 7359,
      "eous": 7360,
      "ught": 7361,
      "Ġhyper": 7362,
      "Ġtissue": 7363,
      "Ġhabits": 7364,
      "Ġtransparent": 7365,
      "Ġgained": 7366,
      "ĠLab": 7367,
      "Ġsavings": 7368,
      "Ġcrew": 7369,
      "Ġinterpre": 7370,
      "aints": 7371,
      "ĠReal": 7372,
      "Ġcomplicated": 7373,
      "ĠPutin": 7374,
      "??": 7375,
      "Among": 7376,
      "Ġauthors": 7377,
      "Ġindirect": 7378,
      "ĠDog": 7379,
      "ĠTechnology": 7380,
      "Ġfarmers": 7381,
      "Tell": 7382,
      "Ġtong": 7383,
      "ĠAccess": 7384,
      "Ġintroduction": 7385,
      "burg": 7386,
      "weet": 7387,
      "Ġintegrity": 7388,
      "Ġsleeping": 7389,
      "Ġextraordinary": 7390,
      "Ġpeaceful": 7391,
      "Ġbrands": 7392,
      "Ġparticipating": 7393,
      "lications": 7394,
      "Ġhealthcare": 7395,
      "Ġpus": 7396,
      "obody": 7397,
      "ĠFrancis": 7398,
      "Ġnervous": 7399,
      "Ġmole": 7400,
      "Ġwindows": 7401,
      "Ġprecious": 7402,
      "Ġdies": 7403,
      "Ġfacility": 7404,
      "ĠAction": 7405,
      "ĠMo": 7406,
      "Ġadventure": 7407,
      "Ġdamaged": 7408,
      "requ": 7409,
      "cons": 7410,
      "Ġeligible": 7411,
      "eless": 7412,
      "Ġspoken": 7413,
      "Ġextend": 7414,
      "ĠDoes": 7415,
      "Ġpig": 7416,
      "Ġconfidential": 7417,
      "Ġchannels": 7418,
      "Ġ34": 7419,
      "ĠAtt": 7420,
      "Ġ33": 7421,
      "Ġstrongly": 7422,
      "brid": 7423,
      "istance": 7424,
      "iary": 7425,
      "umer": 7426,
      "ĠPan": 7427,
      "Ġcompatible": 7428,
      "Ġinterpretation": 7429,
      "ygen": 7430,
      "ĠMedic": 7431,
      "Ġexecutive": 7432,
      "Ġslightly": 7433,
      "Again": 7434,
      "Ġengage": 7435,
      "Ġcorner": 7436,
      "Ġelectrical": 7437,
      "athy": 7438,
      "esome": 7439,
      "Ġcomplaint": 7440,
      "Ġentering": 7441,
      "ita": 7442,
      "icked": 7443,
      "ena": 7444,
      "Ġmm": 7445,
      "Ġconsidering": 7446,
      "stein": 7447,
      "Ġcontributions": 7448,
      "Ġislands": 7449,
      "Rep": 7450,
      "Ġbinding": 7451,
      "agram": 7452,
      "Ġsignal": 7453,
      "Ġfalls": 7454,
      "Ġinher": 7455,
      "eness": 7456,
      "Ġpush": 7457,
      "ieve": 7458,
      "Ġlikes": 7459,
      "Ġfewer": 7460,
      "Ġcontest": 7461,
      "CT": 7462,
      "Ġrely": 7463,
      "ford": 7464,
      "Ġserves": 7465,
      "Ġpassenger": 7466,
      "Ġburning": 7467,
      "ĠHeart": 7468,
      "Ġpeoples": 7469,
      "Ġpublicly": 7470,
      "ingly": 7471,
      "Ġheating": 7472,
      "ĠThings": 7473,
      "Ġsilence": 7474,
      "Ġmanip": 7475,
      "Ġtechnique": 7476,
      "novation": 7477,
      "Ġcart": 7478,
      "Ġsacred": 7479,
      "loved": 7480,
      "ems": 7481,
      "Ġveter": 7482,
      "Ġacquired": 7483,
      "istical": 7484,
      "Ġmovements": 7485,
      "Ġbusy": 7486,
      "Ġpreced": 7487,
      "ĠPortug": 7488,
      "abil": 7489,
      "Ġlunch": 7490,
      "itals": 7491,
      "Ġworship": 7492,
      "Ġinjured": 7493,
      "Ġfriendship": 7494,
      "ultane": 7495,
      "ĠGames": 7496,
      "ĠStep": 7497,
      "Ġrecover": 7498,
      "Ġdealing": 7499,
      "ĠâĢĿ": 7500,
      "Ġstores": 7501,
      "Ġgrateful": 7502,
      "Ġsomebody": 7503,
      "ĠMass": 7504,
      "Ġdisorder": 7505,
      "asp": 7506,
      "olester": 7507,
      "ĠIV": 7508,
      "Ġretire": 7509,
      "anch": 7510,
      "Ġexch": 7511,
      "Ġenjoyed": 7512,
      "ĠDigital": 7513,
      "Ġreviews": 7514,
      "Ġschedule": 7515,
      "such": 7516,
      "Ġonto": 7517,
      "Ġrepresented": 7518,
      "Ġgreatly": 7519,
      "ĠMusic": 7520,
      "Ġwithdrawal": 7521,
      "Ġletters": 7522,
      "Ġreactions": 7523,
      "ĠSee": 7524,
      "apy": 7525,
      "Ġmixed": 7526,
      "Ġvib": 7527,
      "Ġmaintaining": 7528,
      "Ġokay": 7529,
      "Ġshap": 7530,
      "Ġages": 7531,
      "Ġlights": 7532,
      "ocur": 7533,
      "ĠMartin": 7534,
      "Ġ65": 7535,
      "Ġexceptional": 7536,
      "acing": 7537,
      "yal": 7538,
      "Ġod": 7539,
      "Within": 7540,
      "UN": 7541,
      "Ġprompt": 7542,
      "Ġwheel": 7543,
      "inals": 7544,
      "Ġrestore": 7545,
      "ĠArmy": 7546,
      "Ġdates": 7547,
      "Ġhungry": 7548,
      "real": 7549,
      "Ġlegend": 7550,
      "Ġexcited": 7551,
      "uation": 7552,
      "anted": 7553,
      "Ġsovere": 7554,
      "Ġlighting": 7555,
      "ipt": 7556,
      "ĠIns": 7557,
      "ĠSM": 7558,
      "ĠAdd": 7559,
      "Ġweapon": 7560,
      "'.": 7561,
      "party": 7562,
      "Ġkne": 7563,
      "Ġbroadcast": 7564,
      "grade": 7565,
      "Ġmissed": 7566,
      "Ġrepeat": 7567,
      "Ġinvolving": 7568,
      "ternoon": 7569,
      "Ġcontinuous": 7570,
      "Ġmo": 7571,
      "Ġexplains": 7572,
      "ĠBrussels": 7573,
      "Ġdivorce": 7574,
      "Ġpossibilities": 7575,
      "Ġroot": 7576,
      "ranean": 7577,
      "Ġfirms": 7578,
      "ĠIce": 7579,
      "ĠWay": 7580,
      "Ġwash": 7581,
      "Ġcolon": 7582,
      "Ġmixt": 7583,
      "ĠAfghanistan": 7584,
      "Ġcomprom": 7585,
      "Ġrot": 7586,
      "lls": 7587,
      "ndrome": 7588,
      "Ġanger": 7589,
      "ĠRobert": 7590,
      "Ġsolely": 7591,
      "44": 7592,
      "Ġwhenever": 7593,
      "Ġdiscussed": 7594,
      "Tube": 7595,
      "itical": 7596,
      "host": 7597,
      "Ġstudio": 7598,
      "Ġstimul": 7599,
      "olesterol": 7600,
      "Ġemployer": 7601,
      "Ġtemple": 7602,
      "Ġrefere": 7603,
      "Ġmac": 7604,
      "ĠClass": 7605,
      "Ġaccused": 7606,
      "Ġpotentially": 7607,
      "Ġlock": 7608,
      "ĠLeague": 7609,
      "Vis": 7610,
      "ĠChristianity": 7611,
      "ĠCare": 7612,
      "ĠFrank": 7613,
      "Ġreturns": 7614,
      "ĠIsraeli": 7615,
      "lean": 7616,
      "IR": 7617,
      "Ġborrow": 7618,
      "ĠRob": 7619,
      "Ġ95": 7620,
      "Ġdevelopments": 7621,
      "allow": 7622,
      "itionally": 7623,
      "lication": 7624,
      "aniel": 7625,
      "Ġprospect": 7626,
      "Ġmemories": 7627,
      "Ġthick": 7628,
      "ĠTer": 7629,
      "ĠRight": 7630,
      "Ġparking": 7631,
      "Ġorgans": 7632,
      "Ġdad": 7633,
      "Ġ38": 7634,
      "ĠConf": 7635,
      "Ġsubsequent": 7636,
      "Ġmel": 7637,
      "Ġcats": 7638,
      "Ġguaranteed": 7639,
      "Something": 7640,
      "Ġanxiety": 7641,
      "kel": 7642,
      "Ġdecrease": 7643,
      "reate": 7644,
      "Ġkeeps": 7645,
      "Ġforum": 7646,
      "Ġchoosing": 7647,
      "Ġencounter": 7648,
      "Ġprohibited": 7649,
      "Def": 7650,
      "Ġmankind": 7651,
      "ĠProfess": 7652,
      "Ġnecessarily": 7653,
      "Ġsalt": 7654,
      "Ġmeets": 7655,
      "unning": 7656,
      "Ġsacrifice": 7657,
      "Ġaccounting": 7658,
      "Ġinflamm": 7659,
      "Ġdating": 7660,
      "Ġupdates": 7661,
      "ĠTimes": 7662,
      "Ġtreatments": 7663,
      "Ġpackaging": 7664,
      "Ġchocolate": 7665,
      "Ġultimately": 7666,
      "CA": 7667,
      "ĠBerlin": 7668,
      "ĠDNA": 7669,
      "Ġserving": 7670,
      "Ġcorresponding": 7671,
      "Ġrejected": 7672,
      "**": 7673,
      "Ġtourist": 7674,
      "rie": 7675,
      "Ġads": 7676,
      "ĠSite": 7677,
      "Ps": 7678,
      "Ġfifth": 7679,
      "Ġswear": 7680,
      "Exper": 7681,
      "level": 7682,
      "Ġflood": 7683,
      "axy": 7684,
      "Par": 7685,
      "inity": 7686,
      "Ġproducing": 7687,
      "Ġrestaurants": 7688,
      "rd": 7689,
      "Ġfederal": 7690,
      "illance": 7691,
      "Ġteen": 7692,
      "Ġestate": 7693,
      "Ġshooting": 7694,
      "Ġneuro": 7695,
      "Ġdiagnosis": 7696,
      "Ġequality": 7697,
      "Ġcutting": 7698,
      "Ġepis": 7699,
      "Ġreaders": 7700,
      "ambling": 7701,
      "inking": 7702,
      "Ġimposed": 7703,
      "Ġillust": 7704,
      "Though": 7705,
      "Ġengines": 7706,
      "Ġera": 7707,
      "Ġuncertain": 7708,
      "Ġstood": 7709,
      "cking": 7710,
      "ĠScience": 7711,
      "Ġmedicines": 7712,
      "Ġsupervisory": 7713,
      "Ġstrike": 7714,
      "Ġ~": 7715,
      "uter": 7716,
      "Fi": 7717,
      "Ġsubparagraph": 7718,
      "Ġdivision": 7719,
      "Ġelev": 7720,
      "Ġwal": 7721,
      "Ġqualified": 7722,
      "ĠAD": 7723,
      "Ġvessels": 7724,
      "pping": 7725,
      "ideo": 7726,
      "Ġintroduce": 7727,
      "Ġburden": 7728,
      "Currently": 7729,
      "isp": 7730,
      "Ġroutine": 7731,
      "Ġadvertise": 7732,
      "ĠTurkish": 7733,
      "Ġsenior": 7734,
      "ĠFederal": 7735,
      "Ġphones": 7736,
      "Ġmembership": 7737,
      "Ġinfringe": 7738,
      "rating": 7739,
      "Ġ37": 7740,
      "Ġseed": 7741,
      "iov": 7742,
      "Ġstudied": 7743,
      "cend": 7744,
      "ta": 7745,
      "licit": 7746,
      "Ġcomplement": 7747,
      "Ġchannel": 7748,
      "Always": 7749,
      "icious": 7750,
      "iterranean": 7751,
      "Using": 7752,
      "ĠCD": 7753,
      "Ġdimension": 7754,
      "Ġquantity": 7755,
      "ĠRef": 7756,
      "Ġconversion": 7757,
      "ĠDutch": 7758,
      "ĠSaudi": 7759,
      "Ġmusical": 7760,
      "ĠHeaven": 7761,
      "elling": 7762,
      "BA": 7763,
      "gia": 7764,
      "Ġopens": 7765,
      "Ġaudio": 7766,
      "Ġautomatic": 7767,
      "Ġlifetime": 7768,
      "Ġlucky": 7769,
      "ĠSant": 7770,
      "Ġintelligent": 7771,
      "Ġsouthern": 7772,
      "Ġmail": 7773,
      "ecutive": 7774,
      "Ġtalent": 7775,
      "ĠDel": 7776,
      "eh": 7777,
      "Ben": 7778,
      "orses": 7779,
      "Ġcandidate": 7780,
      "Ġconvenient": 7781,
      "CH": 7782,
      "Ġregarded": 7783,
      "Ġguidance": 7784,
      "amsung": 7785,
      "cessary": 7786,
      "ĠID": 7787,
      "Ġstorm": 7788,
      "ĠVict": 7789,
      "Ġhistoric": 7790,
      "akistan": 7791,
      "osterone": 7792,
      "she": 7793,
      "grad": 7794,
      "Ġunusual": 7795,
      "avor": 7796,
      "Ġconsiders": 7797,
      "Ġtight": 7798,
      "rat": 7799,
      "Ġexpend": 7800,
      "ĠFire": 7801,
      "ĠRet": 7802,
      "Hope": 7803,
      "Until": 7804,
      "Ġpreparing": 7805,
      "Ġcoordination": 7806,
      "Ġmagazine": 7807,
      "Ġexhaust": 7808,
      "ĠSil": 7809,
      "Ġgods": 7810,
      "ĠVi": 7811,
      "Ġstret": 7812,
      "ographical": 7813,
      "Ġmechanisms": 7814,
      "Ġconfig": 7815,
      "Ġvisiting": 7816,
      "Ġdying": 7817,
      "ften": 7818,
      "ĠGen": 7819,
      "rencies": 7820,
      "Ġtargeted": 7821,
      "ST": 7822,
      "Ġintervention": 7823,
      "%,": 7824,
      "Ġerrors": 7825,
      "ĠAffairs": 7826,
      "Ġconformity": 7827,
      "Ġcalculated": 7828,
      "Ġmoves": 7829,
      "Ġposted": 7830,
      "Ġflower": 7831,
      "Ġimper": 7832,
      "Ġthor": 7833,
      "isk": 7834,
      "Ġshame": 7835,
      "lav": 7836,
      "Still": 7837,
      "Ġcoun": 7838,
      "Nobody": 7839,
      "ĠCup": 7840,
      "ĠControl": 7841,
      "Ġsearching": 7842,
      "date": 7843,
      "Ġresponsibilities": 7844,
      "Ġstations": 7845,
      "apse": 7846,
      "Ġuniform": 7847,
      "dent": 7848,
      "Ġelder": 7849,
      "roc": 7850,
      "Ġplus": 7851,
      "Ġantic": 7852,
      "Ġprecisely": 7853,
      "Ġbeloved": 7854,
      "Ġ1980": 7855,
      "ĠHead": 7856,
      "Ġwarrant": 7857,
      "Ġspeaks": 7858,
      "ĠJournal": 7859,
      "Ġfunctionality": 7860,
      "ĠTre": 7861,
      "imal": 7862,
      "weight": 7863,
      "Ġliterally": 7864,
      "Ġindustries": 7865,
      "atican": 7866,
      "Ass": 7867,
      "Ġcrop": 7868,
      "Ġoxygen": 7869,
      "Ġcomparison": 7870,
      "Ġtelephone": 7871,
      "Ġwishes": 7872,
      "Ġflying": 7873,
      "ĠBitcoin": 7874,
      "adian": 7875,
      "Ġprophe": 7876,
      "Ġhormone": 7877,
      "Ġdesired": 7878,
      "ĠRad": 7879,
      "Ġscript": 7880,
      "ĠCommon": 7881,
      "Ġocean": 7882,
      "ĠAfter": 7883,
      "Ġpainful": 7884,
      "Ġtempt": 7885,
      "ologists": 7886,
      "Ġpublish": 7887,
      "Ġadmit": 7888,
      "Ġorient": 7889,
      "Ġfold": 7890,
      "ĠFuture": 7891,
      "Ġtack": 7892,
      "Ġpenalty": 7893,
      "Ġinfections": 7894,
      "Ġcure": 7895,
      "Ġther": 7896,
      "Ġspons": 7897,
      "Ġaer": 7898,
      "Ġdepartment": 7899,
      "Ġuncle": 7900,
      "Ġlegally": 7901,
      "Men": 7902,
      "acher": 7903,
      "ĠEmp": 7904,
      "rip": 7905,
      "Ġthinks": 7906,
      "ĠClub": 7907,
      "__": 7908,
      "Ġpleasant": 7909,
      "ĠBody": 7910,
      "Ġusage": 7911,
      "Ġ1998": 7912,
      "American": 7913,
      "Anyone": 7914,
      "Ġarrival": 7915,
      "uty": 7916,
      "Ġremark": 7917,
      "Ġbroke": 7918,
      "Ġsimultane": 7919,
      "Due": 7920,
      "cure": 7921,
      "Ġsurprising": 7922,
      "Ġlau": 7923,
      "Ġprint": 7924,
      "Ġgenerated": 7925,
      "Ġmaintained": 7926,
      "Ġafternoon": 7927,
      "bration": 7928,
      "xit": 7929,
      "ĠEst": 7930,
      "Ġsword": 7931,
      "Ġnotified": 7932,
      "icted": 7933,
      "Ġtourists": 7934,
      "Ġmyth": 7935,
      "ĠCub": 7936,
      "Ġultimate": 7937,
      "Ġassigned": 7938,
      "otive": 7939,
      "Ġcolleagues": 7940,
      "arrow": 7941,
      "ĠSafety": 7942,
      "Ġrecording": 7943,
      "Information": 7944,
      "ĠDi": 7945,
      "hus": 7946,
      "Ġlad": 7947,
      "Ġnewspaper": 7948,
      "ĠAcademy": 7949,
      "Ġfreely": 7950,
      "?âĢĻ": 7951,
      "Ġsupervision": 7952,
      "wing": 7953,
      "Ġreserves": 7954,
      "hand": 7955,
      "ronom": 7956,
      "Ġsecondary": 7957,
      "Ġreputation": 7958,
      "Ġpoliticians": 7959,
      "utical": 7960,
      "eting": 7961,
      "Ġproduces": 7962,
      "ĠBulg": 7963,
      "ureau": 7964,
      "Ġcorruption": 7965,
      "Prot": 7966,
      "enna": 7967,
      "Ġbonus": 7968,
      "Ġears": 7969,
      "abling": 7970,
      "ĠTerms": 7971,
      "65": 7972,
      "ĠAL": 7973,
      "celona": 7974,
      "ĠUkrain": 7975,
      "ĠBill": 7976,
      "Ġlowest": 7977,
      "Ġgrave": 7978,
      "mm": 7979,
      "Ġservant": 7980,
      ",âĢĻ": 7981,
      "clusive": 7982,
      "Ġprime": 7983,
      "icking": 7984,
      "Ġheads": 7985,
      "Mod": 7986,
      "Ġought": 7987,
      "ulf": 7988,
      "Ġmedications": 7989,
      "Ġregret": 7990,
      "Looking": 7991,
      "Ġobliged": 7992,
      "Ġofficers": 7993,
      "Ġlargely": 7994,
      "Ġsurrounding": 7995,
      "ĠChapter": 7996,
      "Ġdiverse": 7997,
      "heim": 7998,
      "Â°": 7999,
      "ĠDet": 8000,
      "Ġenterprises": 8001,
      "ĠTom": 8002,
      "Ġpromises": 8003,
      "ĠScript": 8004,
      "Ġinitiatives": 8005,
      "GO": 8006,
      "ĠCond": 8007,
      "Ġbabies": 8008,
      "point": 8009,
      "ĠLand": 8010,
      "ĠLong": 8011,
      "Ġclar": 8012,
      "Ġinvite": 8013,
      "Ġven": 8014,
      "Ġlosses": 8015,
      "Ġseeds": 8016,
      "ĠInf": 8017,
      "Ġflights": 8018,
      "Ġnorthern": 8019,
      "Ġster": 8020,
      "Ġasset": 8021,
      "itler": 8022,
      "ida": 8023,
      "arn": 8024,
      "Ġexpenses": 8025,
      "Ġbow": 8026,
      "ĠSupport": 8027,
      "Ġturning": 8028,
      "Ġrescue": 8029,
      "ovo": 8030,
      "pring": 8031,
      "Ġexcessive": 8032,
      "emption": 8033,
      "ĠPrince": 8034,
      "ĠMax": 8035,
      "Ġresidents": 8036,
      "Ġpatent": 8037,
      "umes": 8038,
      "rypt": 8039,
      "ĠStat": 8040,
      "there": 8041,
      "letes": 8042,
      "ki": 8043,
      "Ġpersist": 8044,
      "Ġcandidates": 8045,
      "ceive": 8046,
      "Ġdomin": 8047,
      "Ġ44": 8048,
      "ĠMedia": 8049,
      "SP": 8050,
      "Ġrose": 8051,
      "otal": 8052,
      "Ġsituated": 8053,
      "Ġexpansion": 8054,
      "Ġsatisfaction": 8055,
      "Ġindicates": 8056,
      "Ġmanaging": 8057,
      "Ġprescribed": 8058,
      "Ġflexibility": 8059,
      "Ġneck": 8060,
      "Ġrarely": 8061,
      "ĠSup": 8062,
      "oor": 8063,
      "ĠVirgin": 8064,
      "Ġchecks": 8065,
      "Ġhumanitarian": 8066,
      "ĠBuy": 8067,
      "Ġgreenhouse": 8068,
      "itate": 8069,
      "Ġanc": 8070,
      "Ġensures": 8071,
      "ulous": 8072,
      "Ġpump": 8073,
      "Ġsentence": 8074,
      "ĠSav": 8075,
      "Ġpainting": 8076,
      "ĠJack": 8077,
      "ĠDeath": 8078,
      "Ġfestival": 8079,
      "ĠMediterranean": 8080,
      "Ġdisaster": 8081,
      "gu": 8082,
      "Ġlawyer": 8083,
      "urities": 8084,
      "Ġresort": 8085,
      "Ġpoet": 8086,
      "Ġacquis": 8087,
      "Ġachieving": 8088,
      "Ġreveal": 8089,
      "Free": 8090,
      "inet": 8091,
      "ults": 8092,
      "och": 8093,
      "Ġeast": 8094,
      "Ġmeasured": 8095,
      "Ġ55": 8096,
      "Following": 8097,
      "Ġperm": 8098,
      "Ġped": 8099,
      "Ġdisturb": 8100,
      "Ġrising": 8101,
      "Ġengineering": 8102,
      "Ġreplacement": 8103,
      "Ġships": 8104,
      "Ġcertified": 8105,
      "Ġdelic": 8106,
      "aceutical": 8107,
      "ĠJoseph": 8108,
      "Pri": 8109,
      "Ġministry": 8110,
      "ĠLast": 8111,
      "Ġagriculture": 8112,
      "ĠAge": 8113,
      "Ġcapabilities": 8114,
      "Ġbalanced": 8115,
      "International": 8116,
      "Ġremoval": 8117,
      "inced": 8118,
      "ĠMiss": 8119,
      "Ġhandling": 8120,
      "Ġcelebrated": 8121,
      "Pat": 8122,
      "Ġfounder": 8123,
      "Ġderived": 8124,
      "Ġfavourite": 8125,
      "Ġassume": 8126,
      "Ġinjuries": 8127,
      "plement": 8128,
      "Ġbreathing": 8129,
      "lets": 8130,
      "Ġmeals": 8131,
      "ĠHam": 8132,
      "hemical": 8133,
      "Ġsurvival": 8134,
      "Ġextension": 8135,
      "ĠGirl": 8136,
      "Ġflesh": 8137,
      "ĠRoad": 8138,
      "Ġdecent": 8139,
      "Ġcitizen": 8140,
      "Ġwarned": 8141,
      "esty": 8142,
      "Ġindex": 8143,
      "ĠRiver": 8144,
      "Ġhighlight": 8145,
      "Ġpresents": 8146,
      "Ġactor": 8147,
      "iler": 8148,
      "Ġupper": 8149,
      "Ġjustified": 8150,
      "ĠViet": 8151,
      "Ġportion": 8152,
      "Ġcultures": 8153,
      "Ġmirror": 8154,
      "Min": 8155,
      "Ġfactory": 8156,
      "Ġmonthly": 8157,
      "ye": 8158,
      "Ġfab": 8159,
      "bor": 8160,
      "Ġsolidarity": 8161,
      "TA": 8162,
      "CE": 8163,
      "Ġwalked": 8164,
      "Ġicon": 8165,
      "Ġpersonnel": 8166,
      "ĠECB": 8167,
      "ĠWall": 8168,
      "ĠAirport": 8169,
      "erals": 8170,
      "ĠTem": 8171,
      "Ġexhibition": 8172,
      "Ġfinger": 8173,
      "yan": 8174,
      "Ġluxury": 8175,
      "Ġcholesterol": 8176,
      "Ġphenomenon": 8177,
      "ĠShow": 8178,
      "Ġseats": 8179,
      "ouses": 8180,
      "ĠSky": 8181,
      "oca": 8182,
      "ĠFord": 8183,
      "Ġchurches": 8184,
      "clusions": 8185,
      "ĠPet": 8186,
      "Ġabortion": 8187,
      "lla": 8188,
      "Ġhousing": 8189,
      "ĠBas": 8190,
      "lad": 8191,
      "Ġfro": 8192,
      "Ġfulfilled": 8193,
      "Ġsettlement": 8194,
      "inent": 8195,
      "Ġroads": 8196,
      "ĠHen": 8197,
      "ĠVer": 8198,
      "Ġpsychological": 8199,
      "LE": 8200,
      "ĠWi": 8201,
      "Ġmotion": 8202,
      "ĠCharter": 8203,
      "Ġdust": 8204,
      "Ġguarantees": 8205,
      "ĠExper": 8206,
      "Mean": 8207,
      "Ġdisappear": 8208,
      "ĠSatan": 8209,
      "Ġdifficulty": 8210,
      "Ġheav": 8211,
      "Ġtraveling": 8212,
      "oured": 8213,
      "otherapy": 8214,
      "enth": 8215,
      "Ġloud": 8216,
      "urse": 8217,
      "Ac": 8218,
      "Ġsubstantial": 8219,
      "bally": 8220,
      "asting": 8221,
      "Four": 8222,
      "Ġchances": 8223,
      "ĠHistory": 8224,
      "ĠPrize": 8225,
      "World": 8226,
      "icit": 8227,
      "Ġresolve": 8228,
      "Ġharder": 8229,
      "Ġtail": 8230,
      "Ġminds": 8231,
      "Welcome": 8232,
      "illa": 8233,
      "ĠWars": 8234,
      "Ġalarm": 8235,
      "nament": 8236,
      "Ġgentle": 8237,
      "Ġticket": 8238,
      "Ġelectron": 8239,
      "ĠCustomer": 8240,
      "ione": 8241,
      "Ġsurveillance": 8242,
      "Ġcourses": 8243,
      "van": 8244,
      "Ġnearby": 8245,
      "Ġsecrets": 8246,
      "Ġattached": 8247,
      "istor": 8248,
      "Ġcompare": 8249,
      "Ġdeposit": 8250,
      "ĠLive": 8251,
      "Ġforgive": 8252,
      "ĠRevolution": 8253,
      "Ġschem": 8254,
      "Ġsupplier": 8255,
      "Ġswimming": 8256,
      "Ġscore": 8257,
      "top": 8258,
      "Ġenorm": 8259,
      "Ġfantastic": 8260,
      "Ġmarks": 8261,
      "Ġpull": 8262,
      "Ġrow": 8263,
      "Ġreduces": 8264,
      "ĠMembers": 8265,
      "ĠProducts": 8266,
      "Ġworried": 8267,
      "AD": 8268,
      "gi": 8269,
      "ican": 8270,
      "Ġtourism": 8271,
      "Ġflat": 8272,
      "atre": 8273,
      "Ġirre": 8274,
      "Post": 8275,
      "Ġdrag": 8276,
      "Ġregulated": 8277,
      "amber": 8278,
      "95": 8279,
      "Ġprivile": 8280,
      "ĠVatican": 8281,
      "Ġcow": 8282,
      "sen": 8283,
      "tra": 8284,
      "Ġcomplaints": 8285,
      "Ġvitamins": 8286,
      "Ġmodified": 8287,
      "Ġbio": 8288,
      "Ġsheep": 8289,
      "Ġcopyright": 8290,
      "Ġnutrition": 8291,
      "Ġcryptocur": 8292,
      "Ġdeemed": 8293,
      "ruit": 8294,
      "Ġtariff": 8295,
      "Ġhotels": 8296,
      "ĠMoon": 8297,
      "Ġdisplayed": 8298,
      "stream": 8299,
      "ĠAdam": 8300,
      "ora": 8301,
      "vey": 8302,
      "ĠCas": 8303,
      "Ġposts": 8304,
      "Ġunexpected": 8305,
      "ĠYouTube": 8306,
      "Ġdependent": 8307,
      "ĠClin": 8308,
      "Ġproclaim": 8309,
      "ario": 8310,
      "ĠPeace": 8311,
      "acco": 8312,
      "Ġconstitute": 8313,
      "Has": 8314,
      "ĠBack": 8315,
      "Ġperforming": 8316,
      "Ġcease": 8317,
      "Ġframe": 8318,
      "Ġneighbour": 8319,
      "Ġvoluntary": 8320,
      "Ġtort": 8321,
      "gers": 8322,
      "ĠJob": 8323,
      "Ġsuit": 8324,
      "Ġexecution": 8325,
      "Ġinnocent": 8326,
      "Out": 8327,
      "Ġaged": 8328,
      "Ġtickets": 8329,
      "Incre": 8330,
      "Ġpraise": 8331,
      "Ġdrawing": 8332,
      "ĠCast": 8333,
      "Ġprofound": 8334,
      "ilty": 8335,
      "Ġhoney": 8336,
      "Ġsubstit": 8337,
      "Ġrighteous": 8338,
      "ertain": 8339,
      "ĠFriend": 8340,
      "Help": 8341,
      "Ġric": 8342,
      "ĠExt": 8343,
      "Ġsplit": 8344,
      "chain": 8345,
      "ĠSwedish": 8346,
      "arks": 8347,
      "Ġmanufactured": 8348,
      "ĠAngel": 8349,
      "ishops": 8350,
      "Ġchick": 8351,
      "ĠTim": 8352,
      "Ġtransformation": 8353,
      "Ġattain": 8354,
      "icip": 8355,
      "Ġprosper": 8356,
      "Ġroyal": 8357,
      "Ġdomain": 8358,
      "Ġpilot": 8359,
      "ĠForce": 8360,
      "nings": 8361,
      "Ġbike": 8362,
      "ups": 8363,
      "author": 8364,
      "struction": 8365,
      "Ġtennis": 8366,
      "Ġbanned": 8367,
      "Ġarising": 8368,
      "Ġseparated": 8369,
      "pons": 8370,
      "low": 8371,
      "Ġclassified": 8372,
      "ruck": 8373,
      "ĠOlympic": 8374,
      "Ġaccum": 8375,
      "zone": 8376,
      "Someone": 8377,
      "portant": 8378,
      "door": 8379,
      "asures": 8380,
      "tt": 8381,
      "disc": 8382,
      "OD": 8383,
      "person": 8384,
      "ĠKorean": 8385,
      "Ġthereby": 8386,
      "aks": 8387,
      "oked": 8388,
      "ĠKh": 8389,
      "Ġcoc": 8390,
      "Ġpreventing": 8391,
      "ĠAnge": 8392,
      "Point": 8393,
      "asts": 8394,
      "Ã¼": 8395,
      "ĠExecutive": 8396,
      "Ġrelief": 8397,
      "ĠTHE": 8398,
      "Ġfreed": 8399,
      "adays": 8400,
      "Ġprayers": 8401,
      "Ġtongue": 8402,
      "Ġexamine": 8403,
      "ucks": 8404,
      "Ġcameras": 8405,
      "Ġphysically": 8406,
      "Äį": 8407,
      "ĠYears": 8408,
      "Fe": 8409,
      "Ġoperated": 8410,
      "osystem": 8411,
      "Ġacknowled": 8412,
      "Ġconsume": 8413,
      "ĠNext": 8414,
      "Ġdisag": 8415,
      "Ġconvinced": 8416,
      "Ġcelebration": 8417,
      "Ġphr": 8418,
      "they": 8419,
      "hop": 8420,
      "lock": 8421,
      "Scient": 8422,
      "Ġfib": 8423,
      "ĠAward": 8424,
      "Ġconflicts": 8425,
      "Ġreserve": 8426,
      "lege": 8427,
      "athered": 8428,
      "Ġsustainability": 8429,
      "Ġruling": 8430,
      "Ġintake": 8431,
      "class": 8432,
      "Ġsuggested": 8433,
      "Ġdisorders": 8434,
      "IG": 8435,
      "Ġwatched": 8436,
      "ĠHy": 8437,
      "Ġsmartphone": 8438,
      "Ġinse": 8439,
      "Ġtablets": 8440,
      "Mon": 8441,
      "Health": 8442,
      "ache": 8443,
      "Ġscheduled": 8444,
      "Ġforb": 8445,
      "ĠLike": 8446,
      "Ġnotify": 8447,
      "Ġformula": 8448,
      "angel": 8449,
      "Ġgradu": 8450,
      "Ġwestern": 8451,
      "Ġliterature": 8452,
      "Ġcopies": 8453,
      "Ġgall": 8454,
      "awn": 8455,
      "iment": 8456,
      "Ġwherever": 8457,
      "this": 8458,
      "Aut": 8459,
      "redit": 8460,
      "Ġdelight": 8461,
      "Ġunemployment": 8462,
      "Ġmanual": 8463,
      "Ġgenerate": 8464,
      "char": 8465,
      "Ġaffil": 8466,
      "Ġsurf": 8467,
      "Ġ120": 8468,
      "Ġmeditation": 8469,
      "Disc": 8470,
      "ĠKen": 8471,
      "Ġcycl": 8472,
      "Ġmathem": 8473,
      "Ġgal": 8474,
      "ĠAN": 8475,
      "Ġdiscovery": 8476,
      "Ġsafely": 8477,
      "ftware": 8478,
      "Ġfaced": 8479,
      "onna": 8480,
      "Watch": 8481,
      "Ġsequ": 8482,
      "Ġpoison": 8483,
      "Ġhasn": 8484,
      "pol": 8485,
      "Ġdecline": 8486,
      "zing": 8487,
      "ĠNight": 8488,
      "Ġaddresses": 8489,
      "enez": 8490,
      "ĠAustralian": 8491,
      "ĠBlue": 8492,
      "Ġtrained": 8493,
      "ĠScot": 8494,
      "ĠTruth": 8495,
      "ĠPR": 8496,
      "Ġcovering": 8497,
      "Ġmonetary": 8498,
      "ĠVen": 8499,
      "Ġ39": 8500,
      "outs": 8501,
      "utors": 8502,
      "necessary": 8503,
      "Ġhall": 8504,
      "Ġlicens": 8505,
      "Ġjournalists": 8506,
      "Ġmarry": 8507,
      "ĠLead": 8508,
      "pection": 8509,
      "Ġcarrier": 8510,
      "Ġdollar": 8511,
      "ĠOrder": 8512,
      "Ġcontinuing": 8513,
      "ĠIrish": 8514,
      "Ġdelete": 8515,
      "Based": 8516,
      "Ġdocumentation": 8517,
      "Ġprogramming": 8518,
      "Ġmask": 8519,
      "Ġobviously": 8520,
      "pin": 8521,
      "ĠChampions": 8522,
      "Ġfunny": 8523,
      "Med": 8524,
      "Ġran": 8525,
      "everal": 8526,
      "Ġsupplies": 8527,
      "Ġmothers": 8528,
      "Ġargument": 8529,
      "pass": 8530,
      "Ġforgiveness": 8531,
      "Ġconventional": 8532,
      "CP": 8533,
      "gency": 8534,
      "Ġgrows": 8535,
      "Ġpride": 8536,
      "Ġsilver": 8537,
      "urable": 8538,
      "acific": 8539,
      "Ġconsolid": 8540,
      "ĠCamp": 8541,
      "Ġacceptance": 8542,
      "advant": 8543,
      "Ġdemonstrate": 8544,
      "third": 8545,
      "Ġtall": 8546,
      "Choose": 8547,
      "raham": 8548,
      "Ġtrials": 8549,
      "Det": 8550,
      "iry": 8551,
      "ĠGame": 8552,
      "ĠHelp": 8553,
      "Ġshel": 8554,
      "ĠNorway": 8555,
      "Ġcommitments": 8556,
      "Dis": 8557,
      "2014": 8558,
      "ypes": 8559,
      "Ġaffairs": 8560,
      "Ġtears": 8561,
      "gor": 8562,
      "ĠPerson": 8563,
      "2009": 8564,
      "Ġmysterious": 8565,
      "Ġinspection": 8566,
      "49": 8567,
      "iological": 8568,
      "ano": 8569,
      "Ġshower": 8570,
      "Ġnative": 8571,
      "ĠDisc": 8572,
      "Ġsilent": 8573,
      "hesis": 8574,
      "Ġconsec": 8575,
      "sm": 8576,
      "Ġinhabitants": 8577,
      "Ġcontractual": 8578,
      "HO": 8579,
      "Ġseeks": 8580,
      "etics": 8581,
      "inem": 8582,
      "Nevertheless": 8583,
      "ationally": 8584,
      "Ġsem": 8585,
      "Ġpremium": 8586,
      "des": 8587,
      "Ġplug": 8588,
      "Ġmandatory": 8589,
      "Ġentertainment": 8590,
      "Ġrural": 8591,
      "Ġmanufacture": 8592,
      "Ġtestim": 8593,
      "Ġfisher": 8594,
      "Ġcigaret": 8595,
      "Ġcapture": 8596,
      "Ġtroub": 8597,
      "Ġinterf": 8598,
      "Ġdistributed": 8599,
      "Ġbatteries": 8600,
      "writ": 8601,
      "Ret": 8602,
      "Ġcivilization": 8603,
      "ĠTop": 8604,
      "vity": 8605,
      "Ġtank": 8606,
      "ĠBelgium": 8607,
      "ifference": 8608,
      "uct": 8609,
      "Ġfrequent": 8610,
      "whel": 8611,
      "Ġchat": 8612,
      "alling": 8613,
      "Ġenterprise": 8614,
      "Ġ85": 8615,
      "Ġtoys": 8616,
      "Ġhardware": 8617,
      "Right": 8618,
      "icago": 8619,
      "Ġcontacts": 8620,
      "Ġpanel": 8621,
      "Ġsevent": 8622,
      "ĠHD": 8623,
      "itative": 8624,
      "GB": 8625,
      "Ġacids": 8626,
      "Ġstro": 8627,
      "Ġattempts": 8628,
      "ĠCorpor": 8629,
      "Ġ1997": 8630,
      "Ġterritories": 8631,
      "market": 8632,
      "Ġdimensions": 8633,
      "eries": 8634,
      "ĠLady": 8635,
      "Ġapost": 8636,
      "anguage": 8637,
      "ĠIN": 8638,
      "Ġsignals": 8639,
      "Ġpension": 8640,
      "ĠFramework": 8641,
      "Ġdict": 8642,
      "ĠPartners": 8643,
      "Ġprotocol": 8644,
      "Ġparad": 8645,
      "cf": 8646,
      "ĠÂ£": 8647,
      "Ġfairly": 8648,
      "EE": 8649,
      "asm": 8650,
      "Ġ250": 8651,
      "ĠRules": 8652,
      "ĠLos": 8653,
      "Ġdefault": 8654,
      "ĠEconom": 8655,
      "ĠPakistan": 8656,
      "Ġenthus": 8657,
      "ĠNorthern": 8658,
      "Ġvoted": 8659,
      "sey": 8660,
      "Ġdriven": 8661,
      "iates": 8662,
      "Ġinput": 8663,
      "riving": 8664,
      "Ġabilities": 8665,
      "ĠYOU": 8666,
      "Ġgambling": 8667,
      "ibl": 8668,
      "Ġexplanation": 8669,
      "Ġreaching": 8670,
      "Ġnutrients": 8671,
      "Ġtransf": 8672,
      "Ġamended": 8673,
      "Ġrefund": 8674,
      "Ġdeter": 8675,
      "Ġautomated": 8676,
      "ĠBos": 8677,
      "Ġending": 8678,
      "ĠCroatia": 8679,
      "Ġcontra": 8680,
      "Ġsupplied": 8681,
      "live": 8682,
      "ioxid": 8683,
      "Ġanticip": 8684,
      "Ġspect": 8685,
      "ĠBarcelona": 8686,
      "Ġ)": 8687,
      "Ġconqu": 8688,
      "Ġneutral": 8689,
      "andom": 8690,
      "Ġlandsc": 8691,
      "Ġtemperatures": 8692,
      "Ġsatellite": 8693,
      "ĠCommissioner": 8694,
      "ĠLiber": 8695,
      "Ġawesome": 8696,
      "oler": 8697,
      "chers": 8698,
      "ĠPres": 8699,
      "ĠArabia": 8700,
      "Ġdirective": 8701,
      "ĠEnter": 8702,
      "Ġwars": 8703,
      "Ġethnic": 8704,
      "Ġimports": 8705,
      "oices": 8706,
      "Ġprotest": 8707,
      "Ġminimal": 8708,
      "Ġobstacles": 8709,
      "ĠiP": 8710,
      "erry": 8711,
      "Ġdesigns": 8712,
      "Ġclimb": 8713,
      "Ġblessed": 8714,
      "Ġemployed": 8715,
      "Ġprisoners": 8716,
      "ĠHIV": 8717,
      "Ġnarrow": 8718,
      "Ġhunger": 8719,
      "Ġtraditions": 8720,
      "Ġtopics": 8721,
      "ĠSeries": 8722,
      "after": 8723,
      "Ġpassword": 8724,
      "Ġsurrounded": 8725,
      "iti": 8726,
      "Ġ*": 8727,
      "Ġjudges": 8728,
      "Art": 8729,
      "Ġpunishment": 8730,
      "PR": 8731,
      "Ġaccompany": 8732,
      "ĠChair": 8733,
      "Ġdiamond": 8734,
      "ĠSign": 8735,
      "Ġdeeper": 8736,
      "Ġownership": 8737,
      "Ġviolent": 8738,
      "enezuel": 8739,
      "Ġtoile": 8740,
      "Ġcooking": 8741,
      "Ġmenu": 8742,
      "iac": 8743,
      "Pay": 8744,
      "Ġcream": 8745,
      "Ear": 8746,
      "Ġscan": 8747,
      "anna": 8748,
      "Tw": 8749,
      "Ġdoctr": 8750,
      "ĠList": 8751,
      "cker": 8752,
      "Ġstayed": 8753,
      "ĠLou": 8754,
      "Indeed": 8755,
      "Whatever": 8756,
      "Ġarise": 8757,
      "TO": 8758,
      "Ġcooperate": 8759,
      "ds": 8760,
      "roph": 8761,
      "ĠChange": 8762,
      "Ġverify": 8763,
      "Ġantibiot": 8764,
      "Ġinvesting": 8765,
      "ĠSupreme": 8766,
      "ĠMedical": 8767,
      "Ġarbit": 8768,
      "Ġacceptable": 8769,
      "ĠTwo": 8770,
      "ĠUkrainian": 8771,
      "itiveness": 8772,
      "ĠReview": 8773,
      "Ġoperates": 8774,
      "Ġstakeholders": 8775,
      "ervative": 8776,
      "Ġholidays": 8777,
      "Ġnose": 8778,
      "ĠVeg": 8779,
      "ascular": 8780,
      "vals": 8781,
      "ĠOver": 8782,
      "sts": 8783,
      "Ġeastern": 8784,
      "ĠMoses": 8785,
      "Ġtonight": 8786,
      "col": 8787,
      "ocate": 8788,
      "idency": 8789,
      "ĠMotor": 8790,
      "Ġtiny": 8791,
      "uous": 8792,
      "Ġreply": 8793,
      "Ġcomposed": 8794,
      "TM": 8795,
      "Ġweren": 8796,
      "ĠDead": 8797,
      "Ġacquire": 8798,
      "Ġgathered": 8799,
      "Ġrating": 8800,
      "Ġpreferences": 8801,
      "Ġagenda": 8802,
      "ĠSerb": 8803,
      "Ġeditor": 8804,
      "isco": 8805,
      "Prov": 8806,
      "onal": 8807,
      "HA": 8808,
      "Ġ42": 8809,
      "ndum": 8810,
      "lywood": 8811,
      "Ġcontam": 8812,
      "Ġmotivation": 8813,
      "Ġadmitted": 8814,
      "Ġromantic": 8815,
      "ĠAny": 8816,
      "Ġbone": 8817,
      "Ġlift": 8818,
      "Ġcharity": 8819,
      "Ġtruck": 8820,
      "Ġvan": 8821,
      "phones": 8822,
      "amm": 8823,
      "Ġ1992": 8824,
      "Ġlists": 8825,
      "Ġschemes": 8826,
      "ultural": 8827,
      "Ġscared": 8828,
      "Ġinitially": 8829,
      "ova": 8830,
      "Ġattach": 8831,
      "quarters": 8832,
      "Ġmolec": 8833,
      "ĠRest": 8834,
      "vol": 8835,
      "ulin": 8836,
      "Ġtransmitted": 8837,
      "cher": 8838,
      "Ġspaces": 8839,
      "Ġsyndrome": 8840,
      "Ġimmigration": 8841,
      "Ġreceives": 8842,
      "Ġoral": 8843,
      "Ġhorses": 8844,
      "Ġconsumed": 8845,
      "ĠRock": 8846,
      "herent": 8847,
      "47": 8848,
      "ĠStart": 8849,
      "Ġimpacts": 8850,
      "ĠBaby": 8851,
      "Ġproductivity": 8852,
      "Ġaffecting": 8853,
      "Ġfastest": 8854,
      "itivity": 8855,
      "Ġgate": 8856,
      "Ġrefrig": 8857,
      "Otherwise": 8858,
      "obby": 8859,
      "Ġburied": 8860,
      "Ġfrust": 8861,
      "Ġpatterns": 8862,
      "Ġnewly": 8863,
      "Ġpreserve": 8864,
      "Ġforecast": 8865,
      "42": 8866,
      "Ġdesk": 8867,
      "ĠMa": 8868,
      "claration": 8869,
      "Ġpatience": 8870,
      "Ġlovely": 8871,
      "uis": 8872,
      "Ġentrepreneurs": 8873,
      "Ġguitar": 8874,
      "Ġaudit": 8875,
      "Ġanybody": 8876,
      "ĠArea": 8877,
      "dam": 8878,
      "Ġcreatures": 8879,
      "Ġassign": 8880,
      "Ġecosystem": 8881,
      "Ġ1970": 8882,
      "Ġprize": 8883,
      "Ġcompete": 8884,
      "ĠDenmark": 8885,
      "Ġpounds": 8886,
      "Ġentrance": 8887,
      "Ġemotion": 8888,
      "Several": 8889,
      "Ġpair": 8890,
      "Ġguest": 8891,
      "ealous": 8892,
      "Ġbones": 8893,
      "Ġshift": 8894,
      "Ġacknowledge": 8895,
      "Ġelderly": 8896,
      "Ġoutstanding": 8897,
      "ustainable": 8898,
      "Ġenormous": 8899,
      "Ġmanagers": 8900,
      "Ġcreativity": 8901,
      "Ġboss": 8902,
      "Ġbenefici": 8903,
      "Ġ365": 8904,
      "Ġnationals": 8905,
      "Ġsafeguard": 8906,
      "ourg": 8907,
      "ĠTele": 8908,
      "Ġlaboratory": 8909,
      "Ġexpenditure": 8910,
      "ĠPrivacy": 8911,
      "Ġsuperior": 8912,
      "Ġtons": 8913,
      "Ġcontents": 8914,
      "ĠDam": 8915,
      "Ġvoting": 8916,
      "acts": 8917,
      "Ġdispl": 8918,
      "Ġlung": 8919,
      "Ġimprovements": 8920,
      "Ġangels": 8921,
      "Ġtwelve": 8922,
      "Ġspir": 8923,
      "gl": 8924,
      "Ġvisits": 8925,
      "Ġsurely": 8926,
      "Almost": 8927,
      "Ġalter": 8928,
      "Ġathletes": 8929,
      "55": 8930,
      "ĠMill": 8931,
      "rague": 8932,
      "Ġcouncil": 8933,
      "loven": 8934,
      "consc": 8935,
      "Pal": 8936,
      "ĠAud": 8937,
      "inf": 8938,
      "unicip": 8939,
      "Ġconnections": 8940,
      "ĠMont": 8941,
      "ĠJac": 8942,
      "Ġmiracle": 8943,
      "otion": 8944,
      "Ġsample": 8945,
      "Ġash": 8946,
      "afa": 8947,
      "ĠVAT": 8948,
      "Ġ1994": 8949,
      "Ġhazard": 8950,
      "Ġreturning": 8951,
      "Inter": 8952,
      "Ġoverwhel": 8953,
      "BM": 8954,
      "Ġannually": 8955,
      "Ref": 8956,
      "Ġcenters": 8957,
      "ĠEmpire": 8958,
      "Five": 8959,
      "Ġdescribes": 8960,
      "Press": 8961,
      "Ġelsewhere": 8962,
      "ĠPress": 8963,
      "Ġactors": 8964,
      "Ġobserve": 8965,
      "Commission": 8966,
      "anes": 8967,
      "Ġoccas": 8968,
      "Ġbreach": 8969,
      "Ġwest": 8970,
      "ĠWilliam": 8971,
      "Ġcontrovers": 8972,
      "Ġservers": 8973,
      "Ġbegun": 8974,
      "Ġguilty": 8975,
      "Ġparameters": 8976,
      "ĠThese": 8977,
      "inction": 8978,
      "Ġmeasurement": 8979,
      "Stop": 8980,
      "Ġconclusions": 8981,
      "ĠWays": 8982,
      "ĠLo": 8983,
      "Ġimpressive": 8984,
      "ĠTex": 8985,
      "made": 8986,
      "PA": 8987,
      "ket": 8988,
      "Ġcompassion": 8989,
      "Ġdesper": 8990,
      "Ġyield": 8991,
      "igious": 8992,
      "Unlike": 8993,
      "itamin": 8994,
      "ctic": 8995,
      "ĠEuropeans": 8996,
      "rite": 8997,
      "aph": 8998,
      "contin": 8999,
      "auses": 9000,
      "hester": 9001,
      "Israel": 9002,
      "Ġprincipal": 9003,
      "Ye": 9004,
      "ĠKong": 9005,
      "ĠPalestinian": 9006,
      "Ġlady": 9007,
      "66": 9008,
      "Ġinterface": 9009,
      "bably": 9010,
      "ĠBrexit": 9011,
      "ston": 9012,
      "Ġstrengthening": 9013,
      "venant": 9014,
      "Ġprofessor": 9015,
      "Ġreligions": 9016,
      "Sorry": 9017,
      "yes": 9018,
      "ĠHill": 9019,
      "Ġexplicit": 9020,
      "Ġinspect": 9021,
      "ĠZeal": 9022,
      "Besides": 9023,
      "Ġprotective": 9024,
      "Ġdefeat": 9025,
      "rategy": 9026,
      "Ġcheaper": 9027,
      "Ġreceipt": 9028,
      "ĠAngeles": 9029,
      "Apple": 9030,
      "Ġcultivation": 9031,
      "ailed": 9032,
      "Human": 9033,
      "azz": 9034,
      "mony": 9035,
      "ĠMoney": 9036,
      "Bre": 9037,
      "Ġlessons": 9038,
      "Ġratio": 9039,
      "Ġdesert": 9040,
      "Ġincredibly": 9041,
      "ĠNob": 9042,
      "gments": 9043,
      "arest": 9044,
      "uchar": 9045,
      "ĠBrother": 9046,
      "Ġconscience": 9047,
      "SD": 9048,
      "ĠThird": 9049,
      "Contin": 9050,
      "Ġrailway": 9051,
      "ĠThen": 9052,
      "ĠPot": 9053,
      "ĠÅ": 9054,
      "ĠInvestment": 9055,
      "Ġsimultaneously": 9056,
      "Ġwaves": 9057,
      "ĠBur": 9058,
      "Ġlimitations": 9059,
      "ĠRelations": 9060,
      "2008": 9061,
      "Support": 9062,
      "essions": 9063,
      "ĠGe": 9064,
      "Ġoils": 9065,
      "Ġsake": 9066,
      "Ġ1995": 9067,
      "Ġwireless": 9068,
      "Ġtables": 9069,
      "Ġrecipe": 9070,
      "aire": 9071,
      "Ġliberal": 9072,
      "who": 9073,
      "ĠZealand": 9074,
      "Ġsle": 9075,
      "National": 9076,
      "Ġquot": 9077,
      "Ġproved": 9078,
      "resses": 9079,
      "Ġretirement": 9080,
      "Ġcolumn": 9081,
      "oids": 9082,
      "through": 9083,
      "Ġcm": 9084,
      "liminary": 9085,
      "erate": 9086,
      "Techn": 9087,
      "ima": 9088,
      "Ġstrictly": 9089,
      "Ġdiscount": 9090,
      "log": 9091,
      "Ġinflation": 9092,
      "iscal": 9093,
      "ĠFour": 9094,
      "Ġmixture": 9095,
      "Calls": 9096,
      "sters": 9097,
      "Ġenabling": 9098,
      "Ġprofits": 9099,
      "ĠRom": 9100,
      "Later": 9101,
      "rape": 9102,
      "ĠCanadian": 9103,
      "VD": 9104,
      "itz": 9105,
      "Ġ99": 9106,
      "Ġcombine": 9107,
      "Ġschol": 9108,
      "ĠHitler": 9109,
      "government": 9110,
      "Ġgeographical": 9111,
      "irable": 9112,
      "ĠRomania": 9113,
      "Meanwhile": 9114,
      "Aust": 9115,
      "Ġease": 9116,
      "Ġantioxid": 9117,
      "Ġshipping": 9118,
      "bar": 9119,
      "ĠIM": 9120,
      "iating": 9121,
      "Ġglasses": 9122,
      "ĠAsian": 9123,
      "Ġmetabolism": 9124,
      "Ġdeals": 9125,
      "Ġcastle": 9126,
      "Ġreveals": 9127,
      "ĠStr": 9128,
      "Ġjuice": 9129,
      "Social": 9130,
      "Ġcha": 9131,
      "father": 9132,
      "Ġhormones": 9133,
      "ĠCharles": 9134,
      "Ġacademic": 9135,
      "ĠDist": 9136,
      "ĠTax": 9137,
      "Ġgovernance": 9138,
      "uters": 9139,
      "ĠName": 9140,
      "inder": 9141,
      "Ġcouples": 9142,
      "Ġpursue": 9143,
      "OW": 9144,
      "Ġoptimal": 9145,
      "Ġuniversities": 9146,
      "Ġmechanical": 9147,
      "ags": 9148,
      "Fr": 9149,
      "Ġconcert": 9150,
      "Ġestimates": 9151,
      "Ġglobe": 9152,
      "198": 9153,
      "Ġquantities": 9154,
      "peror": 9155,
      "ĠSmith": 9156,
      "],": 9157,
      "Ġputs": 9158,
      "Ġemployers": 9159,
      "Ġblame": 9160,
      "Ġ1996": 9161,
      "ĠAdv": 9162,
      "ĠCost": 9163,
      "archy": 9164,
      "Ġfallen": 9165,
      "Ġclock": 9166,
      "Ġpurchasing": 9167,
      "ĠCop": 9168,
      "Hence": 9169,
      "ĠMem": 9170,
      "Dear": 9171,
      "67": 9172,
      "ĠGuard": 9173,
      "ado": 9174,
      "vironments": 9175,
      "Ġhol": 9176,
      "Ġrej": 9177,
      "abb": 9178,
      "Top": 9179,
      "ategory": 9180,
      "ĠAM": 9181,
      "Ġtestosterone": 9182,
      "ĠCollege": 9183,
      "isted": 9184,
      "Ġnavigation": 9185,
      "Ġfought": 9186,
      "plant": 9187,
      "aughters": 9188,
      "Ġaggressive": 9189,
      "AF": 9190,
      "Ġpock": 9191,
      "formance": 9192,
[...]
