#version: 0.2
Ã ¡
Ġ s
Ġ p
Ġ v
Ġ n
o v
Ġ a
Ã Ń
i e
Å ¾
Ã ½
Ä į
t o
c h
e n
Ã º
Ã ©
Å ¥
Ġp r
Å ¡
Ġ z
s t
Ġ m
Ġ k
i a
Ġ o
j e
a n
Ġ d
t e
Ġp o
Ġn a
o m
r a
r o
h o
n e
l a
k o
l e
Ä ¾
Ġ b
l i
Ġ t
i n
Ġ je
r e
Ġs a
n o
e d
l o
v o
Ã½ ch
Å¾ e
s k
r Ã¡
Ã ´
Ġn e
m e
c i
v a
Ġ u
n Ã©
Ġd o
Ġ Äį
p o
m i
d e
Ġpr e
to r
Ġz a
Ġ to
r i
a Å¥
a k
Ġv y
â Ģ
c e
j Ãº
Ġ ro
t i
k u
n i
b o
a l
s Å¥
v e
Ġk tor
k y
st i
k a
Ġs t
Å¾ i
n a
Ġ Å¾e
o b
Ġs Ãº
Ġ h
o r
n Ã½
Å¡ e
u je
Ġa ko
l Ã¡
Ġo d
Å Ī
Ġo b
Ġa le
ov an
Ġ Ãº
u d
c k
Ä ı
e r
Ã ³
Ġ Å¡
Ġn Ã¡
o n
r u
a d
a v
e j
a r
Ġb o
Ġ in
Ġ i
Ġb y
b y
Ġs i
Ġ f
n Ã¡
Ġpr i
Ġv e
o d
a s
Ġ te
n y
Ġpr ÃŃ
c ie
o u
ne j
Ġs p
Ġn ie
l u
k ov
t Ã¡
Ġpo d
t a
Ġv Ã½
ÃŃ m
i Å¥
p e
n u
Ġz Ã¡
l en
m u
Ġm o
Ġale bo
Ã½ m
Ġ e
r ov
i l
Ġ 1
n ÃŃ
t u
Ã© ho
Ġ S
en ie
Ã ¤
d a
r an
Ġm Ã´
te Ä¾
Ġm a
n Ã½ch
Ã¡ l
Ġ ch
Ġpr ed
Ġpr o
Ġ âĢ
Å¡e t
Ġ 2
Ġ (
m en
m o
Ġs po
Ġv o
i s
t ov
ho d
a t
Ġs vo
Å¡ ie
Ġro z
Ġktor Ã©
t y
n Ãº
Ġje d
z i
ia d
Ġs om
a Å¾
z a
k Ã¡
no sÅ¥
Ä¾ a
la d
u jÃº
Ġt ak
Ġ re
en ia
Ġ B
no sti
Ġa j
Ġa k
ĠÄį o
ov aÅ¥
Ġ A
Ġd e
Ġna j
Ġ P
t ÃŃ
d y
e z
Ġ M
a li
âĢ ľ
s ob
Ġk on
Ġ E
b a
u de
Ġv Å¡et
Ġa by
l ov
Ġ ce
v y
e Äı
u s
r ie
Ġ Ä¾
v Ã¡
Å¾ ÃŃ
ĠmÃ´ Å¾e
nÃ© ho
c a
en Ã©
c ia
j a
d u
v an
i st
. .
Ġsvo j
Å¡ ÃŃ
Ġm Ã¡
ko n
to m
ra v
0 0
Ġpr Ã¡
Ġp ov
N a
u p
d i
Ġ ho
Ġve Ä¾
m y
k lad
sk y
ia c
l y
Ġ Å¾i
u r
Ġ C
t re
lo Äį
Å¥ a
m a
Ġs me
ra z
b e
Ġ Å¾
Ġv Ã¡
m Ã¡
ĠÄ¾ ud
P o
r ÃŃ
N e
Ġby Å¥
Ġb ude
Ġ T
v i
s le
Ġ r
Ġ V
Ġv z
Ġk to
Ġ c
Ġm i
Ġpo u
Ġ K
Äį i
Ġktor Ã½
ro b
c ov
Ġ le
Ã¡ va
m ie
J e
Ġi ch
l ie
re d
Ġz o
Ä Į
r y
Ġd Ã´
st a
Å¡ i
s a
Ġn i
Ġt ie
Äį a
o l
h u
Ġm e
Ġspo loÄį
Ġ R
n ov
Ġs e
Ġs o
Ġ D
Ġb ez
Ġk eÄı
en ÃŃ
to Äį
Ġz d
ro d
aÅ¾ d
Ġ ra
st av
n om
Ġo p
g i
a m
sle d
t Ãº
ĠâĢ ŀ
nu t
en Ã½
Ã¡ d
sk u
st up
Ġs ve
Ġs te
f or
Ä¾ ad
k om
v ed
tre b
nÃ½ m
Ġm ed
Äį o
ÅĪ a
s e
Ġpo Äį
Ġn ov
in Ã¡
k e
re j
ovan ie
z e
ĠÅ¾i vo
an ie
Å¾ÃŃ va
A k
Ã´ sob
Ġm ie
z na
l ÃŃ
Ġk o
ĠÄį as
Ġ I
Ġ2 0
Å¡ ak
in y
Ġ -
Ġv iac
ra j
tÃŃ v
Ġ len
z Ã¡
o k
P re
ur Ã³
ny ch
ĠâĢ ĵ
ĠÅ¡ tÃ¡
Ġs k
en Ã¡
Ġ H
p a
an i
s i
ch Ã¡d
h a
Ġro ku
ci u
Ġu Å¾
v ie
Ġje ho
Ġk om
ko Ä¾
Ġm us
f i
Ġ L
Ġ j
Ġt r
pe Äį
ch o
en t
rÃ¡ t
an e
Ã¡l ne
Ġbo l
Ġv a
Ġ G
Ġ F
r g
t vo
Ġb ud
Ġmo Å¾
Ġs y
v r
i d
T o
r om
Ã¤ Äį
Ġ Äı
la st
Ġs ku
Ġ 3
sk ej
Ġdo b
h y
Ġ g
ti ck
Ã ļ
Ã½ mi
p i
Ġv Å¡ak
Ġv ed
s to
p ov
Ġk aÅ¾d
Ġjed no
Ġto m
p l
ÃŃ n
te r
u n
ov a
sk a
Äį ÃŃ
chÃ¡d za
v Ã½
Ġpo z
âĢ ŀ
urÃ³ p
Ġkto rÃ¡
s ia
e k
Ġ O
ka z
la t
vo d
p ad
rÃ¡ v
Å¾ u
Ġsvo je
Ġpo treb
Äį ia
Ġ "
l Ã©
en to
ĠveÄ¾ mi
ĠÃº Äį
Ġo sob
Ġpr a
h Ä¾ad
Ġsp Ã´sob
r iad
in a
t Ã©
Ġk a
st ÃŃ
st vo
Ġ J
ko u
b u
Ã¡ r
ra d
le p
j te
Ġbud Ãº
Ġin for
e l
Ġm u
Ã´ Å¾e
le Å¾i
st Ã©
Å¡ te
Ġpr av
Ġ hod
ie Å¥
Ġd om
Ġk raj
k t
ch od
s po
ÃŃ s
Ġnie k
A ko
ci ÃŃ
v om
Ġpre to
ĠB o
p u
ci i
.. .
Ġ20 1
Ġch ce
in u
le j
s pe
rÃ¡ n
g ra
ĠvÅ¡et k
Ġo rg
h ov
Ġpr ie
an ia
Ġpov ed
Ġe x
Ġce l
Ġna p
Ġm no
Ġmed zi
an ov
ĠÄį i
lu Å¾
p rav
Ġst a
Ġa u
Ġv last
Ġ ja
Ġza b
Ġtie Å¾
Ġ N
r ia
Ġ1 9
Ġbo li
Ġm y
Ġm en
Ã¡ m
lÃ¡ n
Ġpro st
sk Ã©
ĠÅ¡ t
ĠÄ¾ud ÃŃ
en Ã½ch
Ġd ru
Ġktor ÃŃ
Ġbo la
Ġje j
Ġt u
Ġbo lo
ia Ä¾
t ne
Äį nÃ©
Ġpo k
Ġd i
Ġ W
) .
ck Ã©
po r
ĠÅ¾ iad
m ov
Ġh la
Ġm al
l ia
st e
ovan Ã©
Ġs luÅ¾
Ġ U
vo j
ovan ia
Äį as
Ġto ho
ĠÄı al
Ġpo sky
N ie
d ob
Ġvy s
ĠÄį len
no u
c u
in g
Å¡ a
Å¡ÃŃ ch
v is
Ġne p
Ġte j
e t
v ÃŃ
Ġt Ã½
Ġh ov
r Å¾
Ġ 5
Ġpod Ä¾a
r Ã©
i li
Ġpou Å¾ÃŃva
Ġ 4
ve k
Ġro kov
Ġu r
ĠmÃ´ Å¾u
koÄ¾ vek
Ġsy stÃ©
ve r
ne s
t ie
Ġa Å¾
Ġ cie
Ġ rÃ¡
t ro
. âĢľ
od u
j ov
lo Å¾
Ġinfor mÃ¡
ed y
Ġt Ã½ch
ĠnÃ¡ s
an Ã©
Ġv ie
ie l
ni Å¥
Ġz na
Ġroz hod
ĠÃº da
Å¡e j
pov ed
Ġpo s
h e
Ġn ed
Ġ rov
ra Å¥
Å¾i Å¥
k la
sa h
ci ch
Ġz men
h la
v Ã©
en e
sk e
Ã¡ ch
u l
Ġt Ã½m
a j
Å ł
Ġt re
z ÃŃ
ĠvÅ¡et ky
Ġmus ÃŃ
ĠÅ¾ivo t
s ko
Å¥ aÅ¾
Ġn o
ÄĮ o
Ã½ va
Ã¤ Å¥
n ie
me r
z nÃ¡
Ġ Z
p ra
l Ãº
Ġpo t
Ġ lie
teÄ¾ ov
Ġ ov
Ġma jÃº
st va
Ġo ch
Ġd l
Ġpr ia
nÃ½ mi
o ch
i m
Ġtej to
ĠvÃ¡ m
ri Å¥
Ġro b
c ÃŃ
ĠveÄ¾ k
A le
i ch
Ġsku toÄį
Ġu ved
st at
Ġm aÅ¥
V y
Ġst ra
Ã¡ n
ĠE urÃ³p
van ie
po j
ez peÄį
sk Ã½ch
nÃº Å¥
d en
b li
ov Ã©
. "
to k
i t
T ak
i u
Ġo s
cho p
Ã¤Äį Å¡
ĠmÃ´Å¾e te
s p
ĠÄį a
z y
Ġj u
âĢ Ŀ
ĠvÅ¡etk Ã½ch
nÃŃ c
Ġe Å¡te
Ġna d
Ġma li
Å¾ dy
Å¡ t
Ġp ar
Ġdru h
Ġm in
Ġpr odu
Ġa n
Ġt ento
v Ã¤
h li
ck Ã½ch
Ġ2 00
i r
pa de
) ,
Ġpr ob
l ne
in an
Ġspo lu
Ġk de
Ġk rÃ¡
Ġne b
me ri
Ġprost red
va Å¥
r d
d rÅ¾
jÃº ce
Ġst ran
va li
Ġbez peÄį
ĠvÃ¡ s
Ġpo mo
uje m
vÃ¡ d
ĠvÅ¡et ko
Ġpo li
Ġne m
Ġob la
Ġf un
ĠprÃŃ pade
Ġd Ã¡
Ġte ch
ĠpoÄį as
i de
h to
n ak
Ġza me
ĠspoloÄį nosti
u j
s y
Ġd ie
b er
Ġp e
z d
tvo r
Ġprob lÃ©
Ġz ÃŃ
Ġnie Äįo
Ġst rÃ¡n
Ġpo Å¾
Ġpro ti
Å¡ ia
Ġhov or
Ġza Äį
Ġ li
Ġto hto
ĠÄį lÃ¡n
Ġa ni
Ġ lÃ¡
Ġvy h
Ġt Ãº
Ġne j
Ġ en
Ġsp rÃ¡v
ch u
an ÃŃ
Äį iÅ¥
Ġ ru
mo Å¾
t ra
Ġst re
Ġp a
nÃŃ kov
z u
Ġcie Ä¾
Ġu rob
K eÄı
ĠvÃ½ rob
Ã¡ to
e b
v u
Ãº p
ck ej
sk Ã½
a la
ov Ã¡
ed z
Ġpre s
lo sti
ovan Ã½
Ġro k
Ã´ r
Z a
Ġ 6
c om
d o
Ġob chod
Ġsve te
Äį nÃ½ch
Ġde ÅĪ
Ġpreto Å¾e
s lu
ĠnÃ¡ m
Ġi ba
Ġpod po
Ġdo st
en ÃŃm
Ġf or
Ġf inan
l Ã³
j av
no k
Ã´ z
Ġvy u
Ġ Ne
c ky
Ġorg ani
p is
Å ½
Ġnaj v
Ġs lov
ĠdÃ´ leÅ¾i
ov Ã½ch
Ġto mu
g u
ĠprÃ¡ v
ovan ÃŃ
ĠÄ¾ud ia
Ġpred stav
Äį nÃ½
rÃŃ klad
Ġtie to
Ġposky t
uje me
Ġpri j
Ġza h
sk Ã©ho
P od
Ã¡l ny
Ġst Ã¡
ĠÄį lov
Ġce st
Ġv od
Ġt y
za j
Ġpra cov
Ġsk Ãº
Ġne po
p ly
rie Å¡
Ġpo m
Ġniek tor
Ġr Ã½ch
p lat
an d
u t
Ġni k
ti Å¥
Ġro d
Ġvz Å¥a
Ġhod no
p rÃ¡
B o
sÅ¥ ou
O d
c Ãº
Ġp Ã´
s u
Ġs to
ck Ã½
Ġobla sti
Ġoch ran
st n
ho l
Ġpou Å¾i
en o
je k
Ġ w
Ġr Ã´z
h nut
g e
ĠtÃ½ch to
P ri
van ia
Ġte le
ch y
p re
tÃŃv ne
ka mi
ĠÅ¾ en
ro j
Ġ lo
Ä¾ Ãº
Ġsp rÃ¡
ÅĪ uje
Ġne Å¾
Ġz m
Ġr iad
Na j
C h
Ġpo tom
Ġ ci
z or
ĠÃºÄį in
Ġvo j
tÃ¡ z
Ġprodu k
l om
Ġi de
nÃŃc t
ĠÅ¡ ko
Ġi m
men Ã¡
Äį ov
ko ch
a mi
Å ķ
Ġpro gra
Ġne ch
ĠE Ãļ
M o
D o
Ġnaj lep
Ġsvoj u
zna m
e m
Ä º
Ġmi li
i ne
V Å¡et
Ġ 7
ov o
vy Å¡
inÃ¡ rod
Ġnie koÄ¾
u m
Ġp l
Ġv Å¾dy
Ġt am
Ġve Ä¾a
Ġhla v
Ġc en
Ġle p
ujÃº ce
b ra
t li
p li
i teÄ¾
Ġv er
od poved
Ġv lÃ¡
spo d
Ġex ist
k re
Ġtom to
zi d
ro z
u b
c ou
Ġ1 0
at r
Ġpoved al
ob e
Ġen er
ĠvÃ¡ Å¡
g ie
ĠinformÃ¡ cie
mie n
Å¡i ch
ĠÃº pl
bo r
Ġob sah
Ġktor Ãº
no stÃŃ
ĠspoloÄį nosÅ¥
Ġpod ni
Ġt vo
sk Ãº
Ġktor Ã½ch
Å¡ ÃŃm
Ġv id
ĠkaÅ¾d Ã½
Ġte raz
Ġm an
Ãº d
Ġ 8
ra t
nej Å¡ie
a lej
Ġp lat
Ġsve t
a le
Ġp la
ĠnÃ¡ j
Ġv ÃŃ
ie r
J ed
Ġsa mo
u ni
Äį ne
2 0
ov ej
d ia
ĠzÃŃ sk
ĠprÃŃ pad
slu Å¡
Ġsku p
Ġjedno du
s o
ĠÄį in
k tor
M Ã´Å¾e
ĠsÃº Äįas
Ġv rÃ¡t
Ġsp ra
f ek
ov ali
Ġvy ko
te ri
ov al
Ġe le
Ġd u
e ÅĪ
Ġve rej
nÃŃ k
Ġdo sia
Ġne vy
ÃŃ me
Ġo tÃ¡z
ĠzÃ¡ klad
Ġra st
Ġjed en
Ġt en
Ġ 9
ÃŃ te
Ġ Je
ran i
ĠÃº rov
Ġne bo
sk om
mu s
Ġz nÃ¡
ĠmÃ´ j
Ġpotreb nÃ©
Å¾ ne
ĠtÃ½ Å¾
li vo
T ie
Ġu moÅ¾
Ġs chop
g en
Ġk vali
ĠÄįlÃ¡n ku
Ġz odpoved
t ky
u Äı
Ġv nÃº
Ġsvoj ho
sk Ã¡
Ġni ch
Ġop atr
Ġ ri
Ã³ n
Ġp er
ĠÅ¡ pe
Ġza riad
Ġin ter
Ġmu Å¾
bo u
a jÃº
Ġo ko
te j
s ad
Ä¾a h
Äį enie
Ġzab ezpeÄį
Ġmo de
m r
ĠmoÅ¾ nÃ©
Ġsvoj ich
Ġ rieÅ¡
t nÃ©
m edz
Ġp Ã¡
ro k
ĠI n
ĠprÃŃ stup
ĠtÃ½ ka
Ġpr v
S A
ie b
Ġm il
m Ã¤
ĠprÃŃ sluÅ¡
Ġto to
Ġin Ã©
ĠrÃ¡ m
Ġst anov
ar d
Ġh Ä¾ad
Ġzd rav
ci Ã¡l
Ġned o
t ia
Ġ Å¥aÅ¾
no st
Ġne u
ru Å¡
t ku
nut ie
Ġur Äįi
Ġdo kon
p y
li Å¡
spod Ã¡r
Ġo n
vÃ¡d z
Å¡i u
c en
lÃ¡ s
Ġmie st
Ġele kt
p le
Ġva Å¡e
ĠâĢ ľ
ie k
o z
Ġt ri
a teÄ¾
i sti
ĠvrÃ¡t ane
Ġmed z
Ġk re
ia ch
t Ã½
ĠpoÅ¾ iad
ov Ã½
Ġk ni
ci ou
Ġ ÄĮ
ĠstÃ¡ le
T ento
h nu
Ġkon tro
Ġne s
ia ce
Ġsvoje j
Ġde ti
Ġpo nÃº
Ġb i
ske ho
e Ä¾
ply v
Ġk u
je d
ko j
v en
nÃŃct vom
Ġnik dy
ra Äį
ro ch
ro st
Pre Äįo
Ġvyko nÃ¡
Ġk r
Ġmno h
ĠÃºda jov
Ġpro ce
T e
Ġd va
Ġst ar
Ġorgani zÃ¡
ÃŃ v
Ġa l
Ġpo sled
ny m
te lia
Ġmy s
Ġo stat
Ġt i
Ġzm lu
vie d
ru k
om is
ĠM a
00 0
ĠÅ¾ivo ta
uje te
vr d
lo bo
i k
je m
Ġf o
t en
Ġni Äį
la de
st Ã¡
To to
ve t
Ġk edy
l an
ĠzÃ¡ kaz
va jÃº
k rÃ¡t
Ġzna menÃ¡
b av
ovan Ã¡
f e
Ġv Ã¤ÄįÅ¡
kre m
Ġpre Äįo
ĠÃº lo
Ġnap rÃŃklad
V Ã½
ĠvÃ½ sled
Ġfun k
Ġmedz inÃ¡rod
K aÅ¾d
b ud
Ãº Äįa
ck Ã¡
Ġkom uni
Ġnej ak
k Ã©
Äį nej
x ist
tov aÅ¥
le d
Ġz vÃ½
Äı ak
Ġve ci
rÃ¡ l
Å¡ie l
kla de
Ġ ,
Ã³ nov
Ġpo stup
Ġin Å¡
chÃ¡dza jÃº
Ä¾ ko
se l
Ġf il
Ġd nes
Ġ .
Ġtech no
Ġin ve
i la
N Ã¡
rie d
tu Ã¡
Ġdo d
lep Å¡
ĠÅ¡tÃ¡ t
Ġme s
Ġrov nak
ci Ã¡lne
Ġmno Å¾
Ġin Ã½ch
Ġspo j
Ġpr vÃ½
t vÃ¡
ĠtÃº to
âĢľ .
Ġv Ã´
st ro
ĠrÃ¡m ci
Ġna o
ĠsluÅ¾ by
t r
Ġd ve
m ÃŃ
lo gi
Äį ky
Ġs na
ĠP o
Äį om
Ġhovor ÃŃ
Ġce z
ĠÄıal Å¡ie
Ġne z
ĠcieÄ¾ om
ĠsÃº vis
kon om
r ne
c Å¥
li Å¥
Ġvo Ä¾
Ġv ide
ck Ã©ho
kÃ¡ z
Ġnem Ã´Å¾e
Ġprostred nÃŃctvom
en ej
ĠnÃ¡ rod
Å¥a st
Ġw eb
vo t
ovan Ã½ch
ĠÃºpl ne
S Ãº
Ch ce
Ġnaj mÃ¤
ĠsÃº lade
Ġte da
lie n
Ġbude te
Ġs rd
Ġna riad
ĠniekoÄ¾ ko
ie n
r ch
ĠnÃ¡ Å¡
Pre to
Ġna sled
Ġu drÅ¾
sk Ã´r
ĠprÃ¡ va
Ġne mÃ¡
Å¡ u
Ġin te
leÅ¾i to
Ã¡va jÃº
Ġ Å¥a
o g
Ġpoz or
ĠmoÅ¾ no
ĠÃº spe
P red
Ġp ÃŃs
ĠzÃ¡ klade
Ġzo st
Ġpou Å¾ÃŃ
Å¡ om
ĠÅ¡ tÃº
Äį e
Ġsi tuÃ¡
ÃŃ ta
to u
ujÃº ci
Ãº t
Ġob dob
Ġkto rej
an Ã½
Ġpra c
Ġma la
Ġpri prav
Ġneb ude
S po
n enie
f er
m om
Ġmo hli
Ġnov Ã©
ĠmÃ¡ te
Ġvy Å¡
Ġm ÅĪa
po Äį
Ġ %
Ġdl h
Ġpod ob
t Ã½m
tick Ã©
ĠÄįas to
Ġ Åł
pli kÃ¡
ra k
Ġlep Å¡ie
J a
ĠÃºda je
Ġd is
t aÅ¥
Ä¾ ov
Ġse ba
s la
Ġmes iac
s ov
Ġe urÃ³p
Ġp at
Ġpod mien
Ġvy tvo
lo sÅ¥
Ä İ
ti fi
ri l
en iu
Ġa meri
O b
Ġb e
a lo
Ġzd ra
Äį ak
Ġp lÃ¡
ĠA n
âĢ ¦
Ġpoli ti
v lÃ¡
sky ch
x i
men t
ĠprÃ¡ ve
s tor
r ni
b i
Ġorg Ã¡
Ġk ul
Ġzame stn
Ġrob iÅ¥
ti on
Ġm lad
Ġod s
Ġz e
Ġna Å¡ich
in ou
Ġu z
ova la
nÃŃ ci
Ã¡va Å¥
Ġ ÅĪ
Ġ1 5
Ġri zi
teÄ¾ om
rÃ¡ niÅ¥
ĠspÃ´sob om
Ġpov aÅ¾
ch ov
Ġpov in
Ġurob iÅ¥
Äį ka
s il
Ġman Å¾e
Ġsve ta
rej me
z ov
Ġt la
ĠvÃ½ sku
Ġv la
Å¾ ia
Ġna Å¡e
Äį nÃ©ho
Ġpom Ã´
rÃ¡ cie
l Ã½
Ġdob re
ĠC h
ĠU SA
po dob
c ent
hov or
p om
Ġtechno lÃ³
nut ia
Ġja zy
Ġh rÃ¡
Ġd vo
Ġnao zaj
ĠsluÅ¾ ieb
Ġt ran
Ġ Ãļ
Ã³ ri
Äį nÃ¡
li ne
Z Ã¡
ro u
vi d
Pod Ä¾a
P rÃŃ
Äıak a
ch a
Ġna v
k Ãº
nosÅ¥ ou
Ġob medz
na ko
Ġprav id
en Ã©ho
po zÃŃ
Ġho r
Ġau tom
Ġur Äį
ĠskÃº s
T Ã¡to
kÃ¡ Å¾e
Ġmo j
Ġv Ã¤Äį
Ġmo je
t ak
, "
ĠÅ¡tÃ¡ ty
ĠdÃ´ vod
Ã ģ
Ġ1 8
len ie
te dy
d ie
Ġvo zid
Ġs mr
Ġpar tne
ĠpoÅ¾iad av
Å¾ ad
M Ã¡
Ġmie sto
Ġk ri
obe c
I n
to ch
zna Äį
ĠsÃº Äįa
Ġle kÃ¡
i lo
Ġa d
Ġ ...
cie n
Ġdob r
A j
Ġb an
ĠK omis
inÃ¡ ch
f t
Ġob jav
g a
Ġpro jek
Ġbo j
Å¡e obec
p la
ti vi
Ġf ak
Ġro di
Ġod st
konom i
ĠÄįlov e
ĠzvÃ½ Å¡
ran cÃº
Ġob e
st anov
ob il
N o
Ġ Ä¾ah
Å¡ ou
hla s
Ġs ie
Ġza Äįia
t Ã³
Ġinter ne
ĠnÃ¡ klad
li z
Ġt a
vÃ¤ z
ĠsystÃ© m
de podob
ne ho
Ġo st
Ġsi l
ĠdÃ´leÅ¾i tÃ©
ĠBo h
Ġs ch
Ġjednodu ch
ĠbudÃº c
Ġu plat
Ġst av
ÃŃ sÅ¥
Ġf ar
Ġz lepÅ¡
re s
e li
ĠS poj
Ġvy d
de j
Ġdie Å¥a
Ġchce te
Ġkraj iny
o h
hod y
Ġho spodÃ¡r
M y
Ġg ene
Ġv i
Ġvys ok
Ġm inu
tÃ¡ l
P r
m an
Tie to
Ġtak Ã©
e s
Ġz nÃŃ
Ġc ÃŃ
Ġs u
am Ã¤
tor i
ĠvÅ¡et ci
Äįa j
Na p
ĠÄįlov ek
c o
rancÃº z
Ġpr in
ve j
Ġo h
ov i
Ġt ra
my sel
Ġdo sta
ujÃº cich
Ġtech ni
Ġzd ro
Ġd ia
e Ä¾a
Ġ1 2
Ġmen ej
Ġ la
Ġmus ia
o sÅ¥
teÄ¾ a
Ġch y
vo u
Ġc ent
o sti
Ġu vied
n ia
" .
v ia
Ġk an
Ġn or
Ġs lobo
sku toÄį
Ġpre vÃ¡dz
Ġa plikÃ¡
Ġob y
Ġv rÃ¡
ĠÅ¾iad ne
ĠÄ¾ uÄı
ĠÅ¾ ia
Ġfun g
o s
Ġk rÃ¡t
Ġstran y
ĠS lov
Ġza t
Ġ Y
Ġak Ã©
m in
r en
P ro
tÃº ry
uj ÃŃm
vr h
rie k
Ä ½
Ġm od
Ġna z
z ie
Ġvy j
ĠinformÃ¡ ciÃŃ
V o
ĠvÃ½ ro
Ġne za
Ġpo stav
Ġtr hu
Ġz ob
ar t
p er
ĠmoÅ¾ nosÅ¥
Ġj as
rov aÅ¥
ĠJ a
Å¡ li
ny mi
Ġlie Äį
Ġod por
Ġu stanov
Ġtak mer
Ġe fek
hÄ¾ad om
Ġpoved aÅ¥
t nÃ½
s aÅ¥
ia n
Ġpot rav
Ġk ar
ali z
Ġopatr enia
p red
ĠvzÅ¥a h
l ÃŃm
ĠvÃ½ znam
Ġch o
z rejme
z ni
Ġza ch
Ġp lÃ¡n
y zi
ĠsÃº d
ie c
ÅĪ ujÃº
Ġpo ci
Ġz ne
Ã© mu
ĠÄįa sti
be c
1 0
po n
ĠrÃ´z nych
Ġau to
ĠnÃ¡ v
Ġv hod
ra jÃº
Ġe konomi
ĠprÃŃ liÅ¡
ĠÅ¡ ty
n aÅ¥
Ġo znÃ¡
ĠÄįas e
Ġro koch
Å¾ en
Ġvz ni
x u
Ġd a
ĠponÃº ka
Å¡ ko
z ra
Ġvyh lÃ¡s
va l
nÃŃ ka
Ġktor om
z o
Ġ lÃŃ
ce p
Ġvy ze
Ġre gi
lo b
a g
Ġna h
ĠÄįa sÅ¥
Ġdokon ca
ĠtÃ½Å¾ d
Ġ3 0
fer en
ĠrÃ½ch lo
nÃ© mu
an Ãº
rÃ¡ ni
1 9
Ġz b
s on
ĠskÃºs eno
ve rej
vo du
Ġpo mÃ¡
ĠprÃ¡ ce
Ġzdra vot
Ġma teri
an Ã¡
Ġktor Ã©ho
Ã¡ v
Ġdvo ch
Ġo tvor
vÃ¡d za
ĠÅ¡ Å¥ast
Ġt Ã¡to
ĠE urÃ³
ĠmÃ¡ m
le s
Ġza loÅ¾
ti l
ĠprÃ¡ vo
Ġsme rni
ĠR e
Ġz vyÅ¡
Ġvz de
ĠÅ¡tÃ¡ tov
Ġz ni
e by
ĠkrÃ¡ Ä¾ov
Ä¾Ãº b
Ġpok iaÄ¾
Ġz vie
Ġfo to
Ġpre h
ni te
ĠÅ¾en y
Ġ jÃº
p ri
E S
Ġk rÃŃ
ĠM o
Ġna Å¡ej
st Ãºp
rov eÅĪ
Ġ19 9
Ġvid ieÅ¥
Ġk Ãº
Ġnajv Ã¤Äį
en a
lo Å¾i
Ġz h
Ġniek to
Ġpomo c
Ġprost ried
Ġpodpo ru
ĠJe Å¾i
d ov
ÃŃ na
ĠA meri
Ġspo treb
M us
ka m
Ġna chÃ¡dza
ĠsystÃ© mu
ti tÃº
Ġb lÃŃ
KaÅ¾d Ã½
B ude
g ist
Ã¡l nej
Ġp enia
Ġspolu prÃ¡
i c
Ġd ovo
ĠmanÅ¾e l
Ġhov o
Ġpre k
Ġm ar
ĠV a
no ho
Ã³ ny
, âĢľ
chÃ¡d z
Ġa si
Ġst rÃ¡
Ġjedno tli
Ġo pe
ho r
hÄ¾ad u
ri li
Ġle bo
Ġvy Å¾ad
Ġnajlep Å¡ie
teÄ¾ nÃ©
ĠÅ¡t ud
t h
Å¡t ruk
Ġsve tov
Ġv Å¡eobec
Ġsp om
ĠdÃ´ sled
ĠpoÄį ÃŃta
y k
ko na
Ġak tu
. âĢĿ
Ġprav depodob
b s
k rom
Ġzamestn an
at ÃŃv
ĠnÃ¡j sÅ¥
Ġu ni
Ġu Å¾ÃŃva
ÅĪ ov
ck Ãº
Ġ raz
Ġs kon
Ġd nÃŃ
ĠprÃŃ be
Ġh ud
j om
Ġdo ku
ĠÄį ÃŃs
p Ã¡
Ġoko lo
ri st
Ġt ÃŃm
Ġf yzi
ro ni
ĠÄı alej
Ġvy tvÃ¡
Ġz nov
ĠzÃ¡ vis
Ġdom Ã¡
Ġprie stor
d iel
lÃ¡ r
Ġjed nÃ©ho
Ġs ed
len Ã©
Ġpa cien
Ġvyj ad
Ġz vy
Ġne zÃ¡
Ġd ÅĪa
ka ch
Ġne ho
ĠmnoÅ¾ stvo
Ġ ?
Ġd en
Ġktor Ã½m
h at
Ġk Ã½m
Ġtre ba
ĠV Ã¡
ĠmÃ´Å¾e me
Ġpomo cou
jÃº ci
Ġniektor Ã©
Ġrov nako
van ÃŃ
Ġpo tre
Ġo Äįak
ru m
tÃ¡ lne
xist uje
ĠEurÃ³p skej
ĠÄįas u
i g
ad y
Äį nÃº
k rÃ©
ra l
Ġpri sp
ĠÃºÄį e
en Ãº
de r
ĠskutoÄį ne
ko ho
Ġu skutoÄį
R oz
ĠprÃŃ leÅ¾ito
o p
Ġmie sta
Ġma lo
kov Ã©
R e
Ġp u
Ġvys o
Ġuved enÃ©
Ġv iace
lÃ¡ nok
Ġjed in
pozÃŃ cii
Ġpov o
ĠveÄ¾k Ã©
ze m
T u
Ã¡l nych
p r
Ġo f
ĠÅ¡tÃ¡ tu
Ġpred pis
Spo loÄį
Ġst red
Ġdom ov
ali zÃ¡
kÃ¡ za
a y
Ġdo stup
p rÃŃ
hnu Å¥
Nie ktor
ĠmÃ¡ me
Ġkre sÅ¥
a ri
Ġp Ã´sob
ie m
Ġk li
Ġz om
Ġmili Ã³nov
Ġnov Ã½
n enÃ©
Ġzah Åķ
Ġpar la
Ġ /
Ġcel Ã½
Ġdl ho
ĠzÃ¡ kon
ĠzÃ¡ uj
Ġs led
z ko
spo ÅĪ
Ġmo hol
Ġvy tvor
K to
st ve
Ġcel om
ovan ÃŃm
z ia
ĠinÅ¡ titÃº
Ġod bor
ĠvÃ´ bec
Ġpo hy
Ġt voj
Ġzat iaÄ¾
Ġ 000
Ġpok raÄį
kov aÅ¥
ie Ä¾
tÃº ra
Ġkon tak
n d
Ġ ÃŃsÅ¥
ĠÄıal Å¡ÃŃch
v Å¡ak
sa hu
ru Äį
Ġte st
an u
Ġdis pozÃŃcii
Ġt aj
ĠspoloÄį en
ie s
Ġne ma
Ġniek edy
z er
Ã© r
ĠÃº Äįa
ĠpouÅ¾ÃŃva Å¥
S a
ĠsÃºÄįa sÅ¥ou
Ġb lo
ro n
Ġde tÃŃ
men tu
Ġtele f
L e
f in
Ġpenia ze
Ġf ir
V eÄ¾
ĠpomÃ´ cÅ¥
nej Å¡ÃŃ
Ġa gen
Ã¡ ra
v Ã´
Ġtak Å¾e
ĠsÃº krom
u st
Ġz isti
Ã½ Å¡
Ġsta rost
K o
Ġdob rÃ©
Ġd ar
v in
Ġsk Ã´r
ĠproblÃ© m
Ġi den
Tak Å¾e
pra c
ĠzÃŃsk aÅ¥
e st
N ik
VÅ¡et ky
me c
Ġh y
Ġne mo
or d
Ġ1 3
Ġ1 00
Ġsvoj om
t al
s kou
S om
ĠÅ¡ por
Ġv on
Ġvyu Å¾ÃŃva
ce m
Ġmno ho
Ġ1 1
Ġkraj ÃŃn
O krem
te g
ĠÄįlove ka
nÃŃ kom
Ġan al
ĠpoÄį et
Ġbo le
vÃ´ li
Ġved ieÅ¥
rÃ¡ Å¾
Ġpou Å¾iÅ¥
Ġk la
ĠM ar
rod z
Ġdo lÃ¡
ĠsprÃ¡v ne
ri t
ĠpÃ´ vod
r Ã½ch
ti cky
b ie
t ri
o st
Ġsto ro
rÃ¡ cia
Ġzariad enia
tick Ã½ch
Ġte lo
sk Ã½m
Ġzah rani
p ÃŃs
v Ã½ch
ne Å¡
Ġse be
Ġstre t
Ġskup iny
ĠS e
ĠsÃºÄįas nosti
ov Ã©ho
Ġpria teÄ¾
MÃ´Å¾e te
ĠprÃ¡ cu
ĠveÄ¾ ko
ÄįÃŃ na
Ġr y
ĠSlov en
Ġk Ä¾Ãº
n ÃŃm
Ġt Ã¡
Ġpo h
an a
Äİ al
an Ã½ch
Å¥a z
Äı alej
ĠstrÃ¡n ky
Ġov eÄ¾a
Ġdo sÅ¥
Ġpro fe
jÃº cich
Ġh lad
Ġt vrd
Ġob nov
Ġ Â
Å¡ Å¥
Ġt ro
Ġ [
Ġtran s
ĠA l
Ġsp rav
âĢľ ,
âĢ ĵ
Ġ1 4
t Ã½ch
ĠG o
Ġroz diel
Ġpri d
Ġnov Ã½ch
Ġvo Äįi
Ġvod y
Ġmnoh Ã½ch
ĠnÃ¡ ro
k Ã½m
ĠEurÃ³ pe
ĠÃºÄįe ly
Ġza ujÃŃm
ĠÃºrov ni
g y
Äį enÃŃ
ĠÄį er
l Ã½ch
ku p
my sle
Ġko ne
Äį enia
g ia
Ãº Äį
Ä½ ud
Ġ2 5
Ġkon krÃ©
ĠL e
Ġv Ã½ch
Ġka pi
bli Å¾ne
Ġ1 6
Ġi st
ĠÄį ak
Ġs ÃŃ
Ġstarost livo
la v
te c
Ġso ciÃ¡l
Ġcel kov
Ġnep ria
Ġroz voj
ĠÅ¾ivo te
g li
ÃŃ c
Ġro ka
b ri
Ġochran u
ĠpomÃ¡ ha
ĠnÃ¡ bo
Ġpred tÃ½m
k vi
lov i
Ġener gie
rie Å¥
Ġnariad enia
Ġdo pl
Ġro ky
Ãº f
Ġob raz
Ġne vie
Ã´ b
Ġ :
Ġne skÃ´r
ci fi
Ġzmen y
Ã¡l na
Ġz i
ĠproblÃ© my
Ġproce s
Ġmi mo
an ÃŃm
ĠvÃ¡Å¡ ho
Ġ5 0
h ra
Ġdie v
Je ho
ĠvÃ½sku m
Ġoby va
Ġvy kon
ĠvÃ½ kon
Ġmy Å¡
Ġod poved
Ġa spoÅĪ
Ġsp Ã¤Å¥
p ro
Ġpria mo
k Ã½ch
Ã½ ta
ĠnÃ¡ zor
mo k
Ġa bs
Ġ1 7
Ġjed nej
Ġv en
pra vy
ĠvÃ½ voj
e mi
Ġs ub
en Ã½m
Ġpodmien ky
s ne
Po tom
Ã´ vod
Ġs Ã¡m
Ġov plyv
Ġod se
Ġpo riad
Ġjed nÃ½m
Ġop Ã¤Å¥
Ġpo pu
u Å¾
ca mi
t ka
Äį er
ĠkaÅ¾d Ã©ho
Ġsp Ã¡
ĠÄį ÃŃ
Ġpo rov
Ġb a
k raj
Te raz
Ġhla s
Ã© n
Ġnap ÃŃs
k iaÄ¾
ĠT e
ĠskutoÄį nosti
Äį il
Ġza d
Ġvzde lÃ¡
ĠdolÃ¡ rov
ni l
Ġch a
ĠBo ha
Ġzob raz
Mo Å¾
r enie
Ġtre st
ĠvÃ½ raz
b ili
Ġza s
Ġniektor Ã½ch
Ġpri Äįom
p lo
Ġu mie
Ġme tÃ³
ĠvÃ½ ni
Ġve cÃŃ
tick ej
Äįaj ne
Ġmin im
Ġs va
Ġre Å¡
Ġve c
Ġprie be
len ia
Ġtr h
Å¡ tÃ¡
pu bli
Ġv Äıaka
ĠnÃ¡v Å¡te
i Äį
je kt
Ġod h
Ġstran e
Ġmin Ãºt
zid ent
ĠH o
Ġb Ã½va
e la
Ġosob y
Ġjednodu cho
Ġva Å¡ej
ĠÅ¡ i
va Å¾
Ġa r
Ġk vÃ´li
Ġved om
U Å¾
Ġv plyv
Ġ Na
ck Ã½m
ĠtÃ½m to
ti m
Ġpo Ä¾
Ġnevy hnut
K on
Å¾i te
h lo
de ÅĪ
h i
t nÃ¡
Ġna rod
Å¡ lo
2 00
li n
Ġon line
Ġsk ve
nu tÃŃ
van Ã©
Ġvy b
Ġmateri Ã¡l
si on
Ġnie len
Å¡i m
Ġprij at
ĠÃºspe Å¡
Ġz vlÃ¡
ĠrÃ´z ne
D e
Å¾ Å¡ie
j de
ĠsprÃ¡ vy
Ġt vÃ¡
Ġk ro
L en
ÄįÃŃ ta
pov eÄı
Ġfoto gra
Ġbude me
Ġbe Å¾
Ġp i
ĠveÄ¾k Ã½
om en
ĠS a
Ġtak Ã½
S t
Ġh ne
Ġza ÄįÃŃna
ci Ã¡ch
Ne ch
on d
ĠÄį ist
Ġp Ã¡r
ĠÅ¡t Ã½
av y
Ġak Ã½
ĠR u
s ed
Ġu da
h ne
Ġp Ã¤Å¥
Ġh ry
Ġkul tÃº
m Ã½Å¡
? "
ĠT he
ĠzÃŃ ska
t nej
Ġk Ãºp
ĠBo Å¾
ĠzÃ¡ p
Ġk Ã³
re l
ĠdÃ¡ v
k ej
ĠnezÃ¡ vis
Ġo krem
ĠnÃ¡ sled
Ġve ku
gi u
ĠmusÃŃ te
ĠzahÅķ ÅĪa
Ġv Ã¤
Ġv tedy
Ġak tivi
Ġu me
Ġneb ezpeÄį
ve tov
ĠvÃ½ Å¡
my s
Ġob rÃ¡
Ġpred aj
20 1
Ġdost aÅ¥
Ġhod ÃŃn
ver zi
ĠsÃº bo
ĠnÃ¡bo Å¾en
Ġvy z
Po z
a ce
ĠzÃ¡ roveÅĪ
ovan ej
Ġp ly
ÅĪ ovaÅ¥
Ġch vÃŃ
l n
Ġprij ÃŃm
ti li
Ġo znaÄį
is to
Ġme sta
Ġna u
Ġnep re
Å¡ko d
k to
ra li
Ġkraj inÃ¡ch
Ġg lob
g o
B ol
t k
Äįi li
po klad
ti z
Ġh ist
og le
ĠP re
s tom
Ġjed nu
lÃ¡ v
ĠÄįlen skÃ½ch
ĠÅ¾ ien
Ġkom is
Ġp ia
tu jÃº
st vÃ¡
Ġnajv iac
ĠÅ¡t vr
Ã¡lne ho
toÄį nÃ©
ĠkeÄı Å¾e
ĠumoÅ¾ ÅĪuje
Ġt roch
Ġjed na
ĠD e
ĠprÃŃ tom
st ie
t ing
kov Ã½ch
ĠÅ¡tÃº di
ov Ãº
Ġk eby
SpoloÄį nosÅ¥
Ġra d
Ġpri rodz
ĠbudÃºc nosti
nut Ã©
toÄį ne
Ġpot en
va p
ck om
Ġpri bliÅ¾ne
Ä¾ u
ĠvnÃº tor
Ak Ã©
Ġpodni k
ist er
Ġs lÃº
Ġmie ste
t ÃŃm
Ġmesiac ov
Ġt ÃŃ
M a
p ie
ĠP ar
la Å¥
Ã© ri
Ġn ÃŃ
ĠsÃºvis losti
ĠnÃ¡Å¡ ho
Ġvytvo riÅ¥
Ġte x
Ġd ieÅ¥
Ġo bo
ĠÃļ nie
ĠÃº rad
b Ã¡
Ġdi sk
Ġin Ã½
Ġexist uje
Ġ X
Ġo t
Ġod mie
Ġre publi
Ġpr ak
Ġb un
Ġprogra m
ĠÅ¡t and
vo k
Ġosob nÃ½ch
ĠvÅ¡etk Ã½m
tie Å¾
Ġkraj ine
Ġpod por
ĠÄį lÃ¡nok
ĠnÃ¡ stro
Ġmen o
ti Å¾
c Ã©
Ġzmen iÅ¥
ĠzÃ¡ sad
Ġspra vod
ter na
Ġob last
ĠNe w
Ġroz Å¡ÃŃ
ĠnÃ¡ z
Ġs vÃ¤
Ġma j
Ġpos il
Ġp lo
Ġci r
ĠÅ¾i Å¥
Ġkom ple
p ÃŃ
Sa mo
Ġan ti
st re
Ġh mo
ĠÅ¥aÅ¾ kÃ©
n enia
al ÃŃ
Ġst aÅ¥
Ġdi zaj
Ġdoku men
Ã³ nu
le g
zna men
Ã´ leÅ¾i
en d
Ġpo r
ĠmyÅ¡ lien
Ġch od
Ġde saÅ¥
Ġper cent
ĠÄįin nosti
Ġna stav
h rad
Ġa t
s ÃŃm
Ġmo c
kÃ¡ ch
Ġzdro jov
Ġdi gi
ni i
st roj
ĠÄıal Å¡ÃŃ
ĠÄį ia
b il
Ġrob ÃŃ
li t
re c
ĠtÃ½ka jÃºce
Ġd ra
u ro
Ä¾ uje
ĠprÃŃpad och
Ġpoz nÃ¡
Ġt is
VÅ¡et ko
lo s
Ġme sto
ĠÅ¡pe cifi
Ġto tiÅ¾
Ġu kaz
Ġobsah uje
Ġch la
st er
Ġzh rom
tor ov
Ġpoci t
Ġra kov
Ġdo spe
Ġra di
me ran
Ġpotre by
cov ia
tÃŃv ny
Ġoch or
Ġpr vÃ©
ĠÅĪ om
vo ja
Ġpo rad
ĠS t
Ġka teg
ĠzaÄį aÅ¥
ĠÄįlen ov
Ġre gist
ĠnÃ¡j de
Ġk or
Ġkom b
tick Ã½
Ġh rani
Ġin f
Äį ku
Äį nÃ½m
Ġp ek
al ian
ud Ãº
Ġpravid lÃ¡
Ġin di
ĠdÃ´ ve
V Ã¤ÄįÅ¡
Ġob Äį
Ġz loÅ¾
H o
Ġdo kÃ¡Å¾e
ĠvlÃ¡ d
ĠtÃ½Å¾ deÅĪ
ĠzaÄįia tku
Ġn ÃŃm
Ġnaj vyÅ¡
Ġdruh ej
Ġpri poj
al Ã¡
st ra
ho u
P ov
cia mi
ĠB ri
ĠvnÃº tro
ĠbezpeÄį nost
V ie
ĠprÃŃ jem
Ġna Äıalej
h er
Ġpres ved
ĠrieÅ¡ enie
k aÅ¥
Å¾i l
Ġbude m
Ġk am
Ġp amÃ¤
Ġde fin
Ġpriebe hu
st u
a re
en tov
Ġd Ã¡va
lo u
Ġautom a
Ġspra c
Ġin Ã©ho
ĠvÃ½sled ky
Äį in
jed nÃ¡
Ġni mi
ĠSpoj enÃ½ch
ĠprÃŃ rod
Ġprac ovaÅ¥
Ġv ra
rost red
MoÅ¾ no
V ed
Ġ Å½
Ġk lien
Ã© di
i mi
s s
sti Å¥
Ġst ane
Ġost rov
Ġz re
Ġre ak
Ġrod iny
Ġza Äįa
Ġ Å¡e
Ġo k
1 1
Ġproduk tov
ri te
Ġiden tifi
Äº Å¾
Ġuvied ol
ĠdieÅ¥ aÅ¥
m or
Ġosob nÃ©
Ġochran y
Ġz vo
ed zi
Ġb ie
ĠvÃ¤ z
m enie
Ġz verej
ĠpoÅ¾iadav ky
Ġc vi
Ġra do
P ou
Ġre kla
ĠÅ¡ty ri
kÃ¡ cie
ĠJeÅ¾i Å¡
Ġb Ã¡
ĠdÃ´ kaz
t ad
st vom
Ġob rov
zÃ¡ cie
Ã´ Å¾u
Ġzame ran
cia ch
Ġdosia hnuÅ¥
Ġpo lovi
Ġd ed
ud z
Ä½ud ia
Ġpo chop
ĠkresÅ¥ an
ovan Ã©ho
f ri
z mus
Ġch ud
Ġnor m
ĠzÃ¡ vÃ¤z
Ġch cÃº
mok ra
ni li
ol Ã³
drÅ¾ ia
Ġcho ro
ĠD u
Ġbo hat
Ãģ no
kla da
Ġme ste
enÃ½ mi
ti ch
Ġvlast nÃ©
Ġprav ide
x im
Ġch Ã½
ni ka
Ã¡ ri
Ġposkyt uje
Ġpo nu
Ġ2 4
Ġd aÅ¥
Ġpo zi
ĠdÃ´ vodu
en om
Ġprogra mu
Ġtaj om
Ġsa mi
ĠC ir
Ġs ved
Po Äįas
ov Å¡et
Ġnech ce
ĠD o
Ġ Ã¡
Ġpres ne
Ġh l
Ġdom a
ma il
ĠÃº nie
Ġdo hod
Ġos Ã´b
ĠR ady
Ġte la
d Ã¡
Ġvyso ko
Ġpre jav
Ġsta lo
A vÅ¡ak
ri sti
Ġd voj
Ġzvie ra
t nÃ½ch
Ġpat rÃŃ
ru Å¾
Ġne v
Ġcha rak
p anie
nu Å¥
zÃŃ v
d li
Ġz ÃºÄįa
ĠP ro
Ġsmerni ce
D nes
pu st
Ġzdrav ie
Ġved e
Å¡ie ho
ĠpouÅ¾i tie
Ġpartne r
Ġp sy
c t
Ġroz poÄį
ĠvÃ¤ÄįÅ¡ ina
1 2
Ġne sp
Ġroz de
ĠmuÅ¾ ov
Å¾i li
b al
ĠbezpeÄį nosti
Ġpot vrd
g an
E Ãļ
Ġpre z
ko l
ĠV Ã¡m
My s
Ġmode r
ĠlekÃ¡ r
ĠM e
Å¡et r
tov Ã©
Ġorg Ã¡n
z mu
zi den
Ãº Å¡
Ġs ko
mie sto
kon iec
Ġu kon
Ġelekt roni
no du
ĠmÃ´Å¾e m
Ġpred me
Ġvy rob
ĠbezpeÄį nosÅ¥
ĠP Ã¡
ci on
Ġv r
ĠnÃŃ z
P rÃ¡
Ġh raÅ¥
p te
to l
Ġdl hod
Ġmal Ã©
sky t
b ÃŃ
ĠpoÅ¾ ad
ovÅ¡et kÃ½m
Äį nom
Ġpo ko
Ġd neÅ¡
Ġse xu
ĠmÃ´j ho
ĠorganizÃ¡ cie
Ġvy pl
Ã¡l nu
Ġzd roj
Ġtvo r
rÃ¡ lne
" ,
hod no
Åķ t
tÃ¡ cie
Ġpredstav uje
Ġmus ieÅ¥
to n
ĠotÃ¡z ky
ĠÅ¡t ruk
Ġst al
s lov
Ġmo z
I de
lÃ¡ d
ĠÄį e
s om
Ġprie mysel
ĠprÃŃbe h
Ġinfor m
Å¡ la
Ġsy m
Ġzmlu v
Ġvz Ã¡
Ġv stup
? âĢľ
ft vÃ©
ovan iu
rÃ¡ ciu
k Ã½
Ġstra tÃ©
Ġpred poklad
ĠÄĮ ÃŃ
Ġza stav
s ie
Ġpri pom
Ġte plo
len Ã½
Ġsch vÃ¡
Ġpe v
Ġelekt ri
Ġkon ku
da j
Ġ4 0
ĠurÄįi te
Ġce lej
ĠnÃ¡ zov
Ġk aÅ¾
Ġv ar
P om
Å¾ a
Ġproduk ty
ĠdÃ´sled ku
Ġnaj men
ĠrÃ¡ d
Ġo kam
Ġu vÃ¡dza
Ġpoz ÃŃ
Ġnaj d
Ã³ rie
ĠP a
ĠEurÃ³p skeho
Ġh roz
Ġslov Ã¡
ĠvnÃºtro Å¡tÃ¡
ĠEurÃ³p y
Ġener ge
Ġtr va
S p
Ġtro chu
Ġ201 5
ĠGo ogle
for mÃ¡
Ne m
Ġnaz Ã½va
ale bo
Ġod kaz
Ġm obil
lÃ¡ cie
ĠÃºlo hu
Ġs er
Ã³ ne
Ġne e
ĠnÃ¡ vr
ie t
ĠkaÅ¾ dej
Ġhovo riÅ¥
v ky
mie nok
ĠÄį ÃŃm
Ġ â
ĠI I
ĠI zra
te l
ke v
ĠÅ¾ia da
Ġo tvo
Ġk y
f a
Ġe mi
Å¥a h
ĠvÃ½ z
Ġva Å¡ich
ĠC o
lo Å¾iÅ¥
tor y
Ġpr inÃ¡
ĠÃºÄį el
ni ce
ĠNe mec
ĠÄ¾uÄı om
Ġrozhod nutia
Ġrozhod nutie
Ġop ak
Ġtele vÃŃ
Ġdod Ã¡va
Ġinve stÃŃ
Ġinte g
ĠL i
u k
ĠR o
Ġdobr Ã½
ĠvÃ½ ber
li k
Ġvy hÄ¾ad
ĠudrÅ¾ ateÄ¾
j ÃŃ
Ġu de
Ġsp l
ci Ã¡lny
Ġpohy b
Ġzmlu vy
ĠprÃŃ de
Ġpre zident
Ġ19 8
chy b
ĠvyÅ¡ Å¡ie
Ġs klad
o logi
Ġvy bav
Ġre Å¾i
Ġzvy Äįajne
Ġhodno ty
k ro
Ġlie tad
ĠskÃº Å¡
van Ã½
Ġin ak
Äįi la
Ġvoj en
S N
ĠoznÃ¡ mi
Ġnajv Ã¤ÄįÅ¡
ri la
Ġ 0
Ġuved om
ad a
ĠkaÅ¾d om
Ġd y
nej Å¡ÃŃch
n al
Ġsamo zrejme
Ġpotreb uje
ĠÄ¾ah ko
Ġz mie
Ġcel Ã©ho
ĠprÃŃ klad
Ġz ran
Ġi z
ĠT o
Ġstoro Äįia
Ġt Ã©
5 0
Ã´ d
Ġnap riek
k cie
t rov
Ġchce m
Ġposky tov
ĠÅ¡ k
Ã¡ Å¡
Ġroz prÃ¡
zi u
up er
ru h
Ġpo hÄ¾ad
ĠÃºrov eÅĪ
me ÅĪ
Ġostat nÃ½ch
ova lo
Bo lo
Ġdost ane
Ġposled nÃ½ch
Ġpo ruÅ¡
m Ãº
Ġc o
Ġko Ä¾ko
vo Ä¾
ĠV eÄ¾
ĠsÃº hlas
Ġmed i
ed e
Ġjed ine
ti la
Äįia n
ĠprÃ¡ vom
ka li
u Å¥
Ġrizi ko
Ġh rd
Ġpravdepodob ne
kt Ã³
Ġcest u
Ġdo tk
Ġo fi
ĠVÃ¡ s
Ġkr v
ĠznÃ¡ me
ĠzabezpeÄį iÅ¥
Ġsmr ti
Ġkontro l
Ġse bou
Ġfinan c
ch ani
Ġj anu
m on
Ġodse ku
ĠznÃ¡ my
Ġpu bli
Ġv l
Ġprofe sion
Ġosob it
ĠS po
Ġra da
Ġh ra
ti v
Ġtre tÃŃ
Ġde Å¥
de l
D ob
po d
ĠnÃ¡klad y
V Å¾dy
ĠÄįÃŃs lo
Ġh vie
Ġcen y
Ġd ni
Nap rÃŃklad
Ġnav Å¡
ĠzaÄį al
Ġzariad enÃŃ
Ġf i
o Ä¾
Ġpod mienok
Ġmo hla
Å¾ as
ĠÄį om
âĢ ¢
Ãº pi
VÅ¡et ci
Ġchce l
ar mo
Ġmo ja
ĠvyÅ¾ad uje
r Ãº
Ġdob u
V iac
i te
sk Ã½mi
Ġabs ol
m ou
ĠF rancÃºz
ĠpoÄ¾ noho
h aÅ¥
ĠznÃŃ Å¾
ĠnÃ¡ d
Ġkraj ina
ĠzÃ¡kaz nÃŃkov
ĠmoÅ¾ nosti
ĠvlÃ¡ dy
stÃ¡ le
3 0
k edy
ĠdÃ´vod ov
Ġme sia
st ej
E urÃ³p
b Ãº
ace bo
Ġso ftvÃ©
t enie
Ġne mus
ĠvzÅ¥a hu
Ġvz du
Ġa rch
Ġo hÄ¾adu
ĠpouÅ¾ÃŃva jÃº
ĠK a
ĠÄįlen skÃ©
VÃ¤ÄįÅ¡ ina
t Ã©ho
ĠÅ¡ ÃŃ
ro zu
Ġnema jÃº
Nik dy
Ġde cem
as led
Ġm Ã©di
Ġsmr Å¥
ta mi
Ġne mu
Ġpod rob
Ã³ na
nÃ¡ va
l Ã©ho
s li
tov Ã½ch
ma ti
is tori
ku je
ĠtechnolÃ³ gi
Ġvz dia
Ġnebo l
Ġ2 1
edz inÃ¡rod
ÅĪa zÃŃ
ĠrieÅ¡ enia
ma mi
Ġvyu Å¾i
len ÃŃ
V a
Ġde mokra
ĠÃº to
Ġop rÃ¡v
Ġle te
Ġtak to
le r
Ġvy rÃ¡
S ta
an om
Ġpri meran
Ġriad iteÄ¾
i teÄ¾ov
Ġsvoj im
ĠÄį ier
Ġpred ovÅ¡etkÃ½m
ĠblÃŃ zko
Niektor Ã©
Ġpe ÅĪazÃŃ
Ġkon f
ĠsystÃ© mov
Ġ201 6
ĠÃº ze
me s
Ġuved enÃ½ch
Ġprostred ie
H lav
Â Ń
Ġo ce
Ã´leÅ¾i tej
v inu
Ġk Ã¡
Ġdo prav
Ġo Äįi
Ġnik to
Ġ201 4
Ġparla mentu
ia m
Ġma xim
Ġna vr
Ġz ist
Ġnep ri
ĠÅ¡tÃ¡ toch
p ak
ĠBoÅ¾ ie
Samo zrejme
Ġdo be
Ġve s
ĠprÃŃ j
Ġsta ve
i ska
1 5
n anie
Ġznov u
o re
ĠK rist
st y
Ġporiad ku
ĠzÃ¡p as
ĠÅ¾en a
Ġod poveÄı
Ġnov Ã©ho
Ġfunk cie
le k
ĠnÃ¡ stroj
po zor
Ġna mi
kÃ¡z al
Ġod pad
ĠprÃŃ spe
Äº ÅĪa
Äį en
Ġnes mie
ĠskÃºseno sti
b le
V z
tÃ¡ r
ĠpoÄį Ãº
Ġna Å¡u
Ã´ raz
kov Ã½
c kou
Ġnov Ãº
ĠponÃº k
Ġne od
o c
cÃŃ ch
S me
l iad
tÃ© ri
Ġtak Ã½ch
Ġmys lÃŃ
Ġh e
Ġvoj ny
Ġves mÃŃ
an ej
Ġn enÃ¡
Ġved Ãº
Ġosob a
Ġvz or
ĠprÃŃ lo
Ġpri chÃ¡dza
vo sÅ¥
Ãº to
B ez
ale ko
d lo
Ġdu Å¡e
Ġne ob
an t
ĠV y
Ġfor mu
Ġt ov
u to
f Ã©
Ġrok mi
ĠorgÃ¡ ny
Äı te
ia r
Ġod de
q u
Ġslov o
kÃ¡ Å¾
Ġch emi
Ġpr vom
Ġdu chov
Ġpacien tov
Ġpo loÅ¾
Ġmin ister
tick Ã¡
Ġvyb raÅ¥
Ġm Ã¤
Ġpo Å¡kod
Ġ201 7
Ġprostred ia
Ġu Å¾i
Ġpozor nosÅ¥
T O
ci Ã¡m
M Ã¡m
sto j
Ġpo ze
al y
Ġob Ä¾Ãºb
Ġpre u
z uje
t la
Ġdlhod ob
ĠÄ¾uÄı mi
ri g
ni tor
Ġbo d
ĠS y
Ġpo ku
ĠÅ¾i je
tÃŃv nych
ÃŃ Å¡
i i
Ġzb ran
Ġsy n
Ġi stÃ©
Ġdiev Äįa
pte m
t nÃ©ho
ĠkrÃ¡ s
Ġte r
ani u
livo sÅ¥
ud i
Ġpre st
Ġzni Å¾
Ġte ro
ĠZ Ã¡
Ġbud ov
Ġanal Ã½
Ġm ne
Ġm as
A by
ĠL a
spe k
Ġme chani
V Äıaka
zÃ¡ cia
Po kiaÄ¾
panie l
Ġodpor ÃºÄįa
Ġden ne
Ġvys vet
Ġpom Ã´Å¾e
Ã´ j
Ġzo zna
Ġ6 0
Ale bo
Ġcel kom
Ġdo hody
1 8
Ġs Å¥aÅ¾
sko ro
Ġobdob ie
ĠsprÃ¡ va
ĠlÃ¡ sky
ĠnÃ¡ vrh
Ġm Åķt
Ġt Ã½mi
ĠvÃ½rob kov
ĠmusÃŃ me
Ġho ci
xist ujÃº
ĠvÃ½ men
ĠzÃºÄįa st
Ġs ez
Ġo ktÃ³
ĠÅ¡tand ard
Ġpoliti ky
ĠtakÃ© to
Ġpred sed
z nak
Ġodpor ÃºÄį
Ġdo drÅ¾ia
Ġinte li
t rÃ©
Ġva Å¡u
Ġd ÅĪ
st ov
ĠÃº Å¾as
Ġpotreb ujete
Ġre gu
Ġautom obil
ni la
Ġin Ã½m
Ġsie te
Ġprisp Ã´sob
Ġcen u
n enÃŃ
Ġvyu Å¾ÃŃ
K de
ĠdÃ¡ tu
ĠÅ¡e sÅ¥
ĠO SN
o na
Ġpre ziden
Ġzamestnan cov
Ġschop nosÅ¥
Ġhmo t
Ġso ciÃ¡lne
Ġkonku ren
Ġman aÅ¾
lej Å¡ie
Ġu prav
men ia
z on
g atÃŃv
Ġne ved
ke ting
Ġd rÅ¾
Ġob Äįian
Ġdom u
vÃ¡ Å¾
ĠproblÃ© mov
ĠvlÃ¡ da
Ġnie koho
na mi
ĠÃºÄįa st
ĠÅ¾iad ny
ĠvÃ½ch od
ĠB a
Ġn ena
ĠlÃ¡ ska
ĠtechnolÃ³ gie
Å¡ enie
ck Ã½mi
Ġ201 8
ĠE U
ĠniekoÄ¾ kÃ½ch
Ġdo da
ia no
Ġspo koj
Ġvhod nÃ©
Ġd r
en i
ĠvÃŃ Å¥az
Ġj ad
vi li
Ġkvali ty
Ġad re
Ġje sÅ¥
ĠzaÄį ne
rÃ¡ va
ĠprÃ¡ ci
van Ã¡
by t
Ġva Å¡a
E xistuje
Ġkni hy
ÄĮ len
Ġpred sa
av Ã©
Ġs la
ĠprinÃ¡ Å¡a
kÃ¡z aÅ¥
tÃ¡ cia
to sÅ¥
Ġoh roz
ĠBri tÃ¡
Ġdo z
V eÄı
Ġa prÃŃ
n anÃŃ
Ġle g
Ġznov a
ova teÄ¾
ka j
Ġzd ieÄ¾
Ġkla si
Ġobdob ia
Ġpri Å¡iel
Ġnem ali
Ġnov ej
Ġhne Äı
Ġb uÄı
re k
Ġse ptem
Ġpo koj
Ġpre skÃº
va j
ce j
ĠÅ¥aÅ¾ ko
Ġty p
Ġre ali
zi i
Ġzo znam
Ġk ur
ĠstrÃ¡n ke
Ġostat nÃ©
j sÅ¥
Nap riek
ĠvykonÃ¡ va
Ġto Ä¾ko
Ġu Äįi
Ġvie sÅ¥
Å¡ iÅ¥
Ġpl anÃ©
M no
Ġmoje j
Ġin Ã½mi
ĠnÃ¡s il
Ġma je
Ġkon ci
n enÃ½
ti u
ĠvÃ¡ Å¾ne
Ġte ba
m ia
ĠmÃ¡ lo
Ġprav du
ĠktorÃ½ mi
Ġz em
ĠBo hu
Ġposkyt nÃºÅ¥
lo k
rov oÄ¾
ia cich
Ä¾a hli
Ġf rancÃºz
Ġan gli
Po treb
Ġtvo je
Ġt rie
Ġneu stÃ¡le
Ġvyze rÃ¡
ck e
Ġde t
ran ie
n Ã³
Ġs ieÅ¥
st red
Ġak Ã½m
1 4
ĠKomis ie
Ġvy vo
ist ri
Ġ rie
ĠmÃ´ cÅ¥
ĠÅ¡ ta
O n
ĠinÅ¡ pi
ĠprvÃ½ krÃ¡t
Ġod vet
Ġpro spe
on g
pra va
to sti
Ġm Ãº
R o
r Ã½va
m ne
Ġu spo
Ġce ste
ĠÅ¡ an
Ġst rom
Ġzodpoved nosÅ¥
Ġnebo lo
Ġce lÃ©
Ġg ra
Ġpomo ci
Ġprek vap
o ri
Ġu te
l anie
Ġuz av
Ġne me
Ġpo sti
ni k
iad ne
Ġte ho
z dy
Ġ201 3
Ġmo hlo
ĠÄ¾ud skÃ©
T en
or k
Ġ19 7
Ġk al
Ġpoved ala
Ġzab ud
ĠobrÃ¡ z
Ġu s
Ġhist Ã³ri
c yk
ĠzÃ¡ ujem
kÃ¡za li
âĢ Ļ
ĠpoÄ¾noho spodÃ¡r
ĠaplikÃ¡ cie
1 3
hnut ie
Ġved Ä¾a
C el
Äį iek
ĠprÃŃ Äį
Ã¡ te
ĠkÄ¾Ãº Äį
Ġne moÅ¾
l and
Ġprodu kt
Ġopatr enÃŃ
Ġkontro lu
ĠsprÃ¡v u
Ġz la
Ġna vrh
nov Ã¡
Ġz ruÅ¡
Ġch or
w s
ĠÅ¡ko ly
ak ujem
ĠA p
ov om
to ra
ĠvÃ½ hod
Ġod liÅ¡
Ġp ÃŃ
Ġcel Ãº
di li
Ġin Å¡t
ĠkÃºp iÅ¥
Ġh ru
ta li
Ġdruh Ã½
st Ãºpi
Ġfotogra f
Ġjednoduch Ã©
ĠvÃ½rob ky
vo r
ĠnÃ¡z vom
j aÅ¥
ĠzÃ¡ pad
Ġsamo stat
ia ci
Ġin ovÃ¡
en y
ĠzaÄįa la
ĠbudÃºc nosÅ¥
Ġze len
E R
Ġp as
Ġumie stn
Ġc yk
Ġt vr
N ed
vi du
Ġmo nitor
ĠJ oh
ti s
Ġustanov enia
Ġexist ujÃº
Ġjednotli v
ĠW in
Ã į
Ġkon feren
ĠzÃ¡ stup
ĠÄįia s
Ġm omen
ho da
Ġk up
Ġvypl Ã½va
Ġf Ã¡
z ovaÅ¥
Ġpo hod
Ġh istori
teÄ¾ nÃ½
VeÄ¾ mi
Ġsrd ce
Ġsi ly
1 6
ĠB e
ĠÃº sil
Ġzd Ã´raz
Ġslobo d
Ġprij aÅ¥
! "
Ġhl bo
Ġplat for
Ã³ ria
ĠpouÅ¾ÃŃ vanie
ĠkaÅ¾d Ãº
Ġjed nom
an g
Ġ2 2
ĠA r
ĠcÃŃ tiÅ¥
Ġved ie
ov or
h le
Ġ ran
ĠvzÃ¡ jom
Ġdo by
Ġk ry
l d
Ġob ran
ĠprÃ¡ ca
Ġpro te
Ġtak tieÅ¾
Ġpa ra
Ġak Ãº
tÃ¡ ch
Ġhodno tu
m inÃ¡
li l
ĠzaÄį ali
Naj lep
J ej
V er
Ġskup ina
Ġcest y
ta u
Ġne gatÃŃv
Ġv nÃŃm
Ġne o
tor om
Ã¡ lu
I S
Ġrod in
ĠdieÅ¥aÅ¥ a
Ġob jek
P rav
kov ej
eb ru
ĠKomis ia
Ġin i
Ġk rok
u jte
Ġob sahu
Ġpr eno
ĠK ri
Ġnov em
chÃ¡dz aÅ¥
Ġak ej
ĠvÃ½ni m
ĠF ran
Ġpre poj
M edzi
Ġkomb inÃ¡
Ġtra di
Ġodst rÃ¡n
jÃºce ho
Ġoblast iach
fi k
ÄĮ i
Ġnajmen ej
ĠzÃ¡ kona
Ġpok Ãº
ĠA k
g ent
Ġvlast ne
Ġch lad
ĠzvÃ½Å¡ iÅ¥
Ġpo ist
Ġsna Å¾ÃŃ
Ġd al
ĠzÃ¡ ko
ĠT i
Ġnejak Ã©
ÅĪ aÅ¥
Ġpo l
rad ÃŃ
Ġmy sle
ĠnÃ¡ pad
Ġna pl
ĠJ o
ĠD a
tick Ã©ho
Ġzna men
ĠÄįin nosÅ¥
Ġb rat
ĠprÃŃ ro
Ġan d
Ġo ni
r ka
Ġuni verzi
ĠprÃŃ znak
ĠSpo loÄį
Ġkr vi
lie ha
O p
Ġz mysle
aÅ¾ Äı
1 7
Ġpla tÃŃ
z da
d av
b Ã¡ch
ĠzÃ¡ bav
un g
te raz
lÃŃ n
Ġchud ob
Ġpodni ka
Ġal terna
Ġal bu
ou r
Ġno ci
ĠÃºÄįin ky
ĠzÃ¡ leÅ¾ito
Ġmi g
ist ra
Äį aÅ¥
kÃ¡ cia
Ġz vu
Tie Å¾
Bo la
K omis
Ġs lÃ¡v
Ġhlav ne
h om
r b
Ġst Ã¡va
k lo
Ġsvoj ÃŃm
Ġpo lÃŃ
van ÃŃm
Ġho te
M al
Ġoko l
Å¾ d
ĠpokraÄį ovaÅ¥
vie sÅ¥
Ġdigi tÃ¡l
ÅĪ ovanie
st al
Ġnajd Ã´leÅ¾itej
Ġsub jek
Ġminu losti
Ġmar keting
Po Äį
ĠC a
ĠreÅ¡ pe
ĠakÃ© koÄ¾vek
Ġfinan ÄįnÃ½ch
Ġchla p
. )
st iach
Ġve Äįer
Ġvy da
h Ã¡
Ġ9 0
Ġza poj
ĠspoloÄį nostÃŃ
ĠS o
ĠN Ã¡
Ġ19 6
Ġmod lit
Äįia r
c y
ĠR a
ĠÅ¡tÃ¡ te
ĠhÄ¾ad iska
H ovor
Ġfir my
ÄĮ as
ĠnÃ¡jde te
Ġn ut
K edy
tÃŃv nej
nÃŃk mi
Ġpri h
Ġmode l
Ġp le
sky m
Ġkan ce
sk up
z me
ni ca
Å¡ Å¥ast
b aÅ¥
ĠÅ¡tÃº die
K a
ĠÅ¾ivot nÃ©ho
ĠÄ¾ud skÃ½ch
ve ri
om a
Ġar mÃ¡
ĠÃ¡ no
Ã¡lny m
Ġob le
A N
Ġtov ar
pr v
u Å¾ÃŃva
Ġbo jov
Ġ &
ĠzÃ¡ ve
Ġfil m
Ġrodi Äįov
Ġm Ãºd
Ġk lu
Ġnebo li
Ġsvoj imi
Ġf ebru
ĠP e
Ġpotreb ujÃº
ĠotÃ¡z ku
Ġst ro
ĠÃºda j
Ġm is
Å¡ aÅ¥
mÃ½Å¡ Ä¾a
Ġkomple x
va r
ĠA fri
Ġo tec
na j
Ġme st
ly m
te ra
Ġzdro je
ĠS vÃ¤
Ġst up
Ä¾ ub
Ġmi mor
Ġpo lo
Ġb rit
Ġm or
Ġva Å¡om
Ġpo chÃ¡dza
ĠÅ¾e le
Ġ201 0
Ġra dy
Ġ8 0
du k
Ġd vom
ĠÄį ÃŃn
t kom
kÃ¡ ciu
Ġfor mÃ¡
Ġop u
Ġno s
Ġd cÃ©
Ġ201 2
ĠsÃº Å¥a
Ġprojek tu
Nem Ã´Å¾e
r Ã½
od en
Ġrovnak Ã©
Ġde sia
Ġpro jekt
Ġvy p
ĠG a
ĠF acebo
li ny
Ġhod iny
nÃŃct va
Ġfinan ÄįnÃ©
Ġviace rÃ½ch
ĠvzÅ¥a hy
b us
ĠvrÃ¡ tiÅ¥
Ġvide o
Ġrob ia
Ġned Ã¡v
is ko
ba mi
ic ro
Ġdopl n
Ġvla sy
vÃŃ ja
Ġindi vidu
Ġvon kaj
Ġnejak Ã½
Ġroz po
Ġtis ÃŃc
la mi
Ġpodob nÃ©
ĠudrÅ¾ ia
tÃ¡ ciu
Mno h
Chce m
Ġ20 20
Ġmin Ãº
Ġokam Å¾ite
stej Å¡ie
Ġvzdia len
ti sti
r tifi
Z at
Ġna Å¡i
ho ch
to lÃŃ
mo ch
Ġnep rÃŃ
Ġt he
ĠE x
Ġrozhod ne
t in
f f
T Ã½m
vo dy
ĠU ni
Ġpro sÃŃm
Ġtelef Ã³n
Ġspo Ä¾ahli
r uje
ĠK o
Ġprie mer
Ġre zer
ova ru
Ġpoz rieÅ¥
Ġpracov nÃ½ch
Ġm lie
prav u
tÃŃ va
MÃ¡ te
tov ej
Ã© rie
Ġnemo c
ru jÃº
Ġsa d
Ġre la
ĠstrÃ¡ nok
Ã¡ vania
Ġzvie rat
Ġva mi
Niektor ÃŃ
Ġdost al
p rÃ¡v
s Ãº
Ġz lÃ©
Äį ist
ĠA ko
Ġcie le
Ġkedy koÄ¾vek
ĠprÃŃleÅ¾ito sÅ¥
ĠspoloÄį ne
Ġka ri
Ġna koniec
Ġdob rovoÄ¾
Ġbole sti
Z o
Ġjedno u
Ġco ok
Preto Å¾e
a ja
ĠznÃŃ Å¾iÅ¥
Ã¡l nom
Ġobdob ÃŃ
tÃŃ vy
Ġ201 1
ĠH e
om e
b ezpeÄį
2 5
R ov
ĠkonkrÃ© t
Ġpotrav ÃŃn
, âĢĿ
Ġvy stav
Ġde je
ov e
Ã¡ cie
Ġsta la
ĠU S
Ġaktivi ty
no ch
Ġurob il
Ġsym bo
la l
Ġprav da
ĠsystÃ© my
Mys lÃŃm
Ġka pa
Ġsa m
ed i
Ġce rtifi
Ġb ra
Ġz jed
Ġvi ta
ĠÅ¾iad osÅ¥
Ġ2 8
hnut Ã©
Ġobla sÅ¥
Ġnajlep Å¡ÃŃ
Ġspolu prac
d saÅ¥
en stva
ĠÃºspe ch
Ġa m
Ġo lej
st ar
Ġchce li
ĠÄı aleko
ĠpouÅ¾ÃŃva teÄ¾ov
Ġob jednÃ¡
ĠrÃ¡ no
Ġneb udÃº
T re
gra m
en stvo
Ak Ã½
S o
Ġza znamen
Ġpod sta
! !
Ġce sta
Ġkni Å¾
Ġzost Ã¡va
Ġ2 3
Ġna miesto
Ã¡l y
kov ateÄ¾
Ġinve st
Ġfung uje
ov Ã½m
Ġsi lu
Ġfor me
Ġprostried ky
M Ã´j
st ran
se m
Ġna Å¡om
ĠÄįlÃ¡n kom
ĠpÃŃs m
Ko Ä¾ko
vy k
c ka
ĠspoloÄįnosÅ¥ ou
sku m
t s
l nÃ©
ne r
ĠnÃ¡vÅ¡te v
c ko
a jte
lÃ¡ da
u Å¾i
Ġt ovaru
Ġd ro
nut ÃŃm
Ġg e
Ġroz sahu
ĠprÃ¡v nych
Ġhovor ia
ĠnavÅ¡ tÃŃv
Ġru ky
Ġtrans ak
Ġnedo sta
Ġpr en
Ġty pu
stie v
ov ia
Ġprin cÃŃ
Ġvozid iel
Ġhud ob
j i
PrÃ¡ ve
lobo d
rÃ¡ cii
z ne
hovor u
an k
Ġe ko
Ġsrd ca
Äįi lo
ch ran
Ġkon ania
Ġpr vej
ari lo
Ġvie m
as h
Ġlo kali
o ku
s me
Äį enÃ½
Ġvy Å¡etr
Ne vie
E N
ĠkonkrÃ© tne
a u
tick Ãº
Ġpoten ciÃ¡l
p en
tov Ã½
Äį enÃ©
Ġmlad Ã½ch
kov Ã¡
Ġd re
ĠÃºÄį tov
Ġvie te
Komis ia
Ġda ÅĪ
Ġpre bie
Ġk ÅĪa
an Ã©ho
Ġr Ãº
ri s
ĠveÄ¾ kÃ¡
Ġvyu Å¾iÅ¥
Ġre ag
ĠlÃ¡ sku
a h
ĠkaÅ¾d oden
tÃº ru
ĠveÄ¾k Ãº
Äį nÃ½mi
Äİal Å¡ie
Ġe m
ĠsociÃ¡l nych
Ġu voÄ¾
Ġkon ca
Ġu znÃ¡
ĠS tre
Ġna Å¡a
p ia
Ġpri ja
b ur
st vu
Ġhlav nÃ©
Äı a
S te
ova cie
Ġjas nÃ©
Ġpria teÄ¾ov
Ġd istri
Ġspotreb iteÄ¾
O S
Ġb alÃŃ
Ġchce me
Ġvy nika
ĠÃº ra
Ġminim Ã¡lne
tÃŃv na
Ġkon zu
Ġza j
bli Å¾
Ġzdrav ia
t nÃº
S kÃº
ĠchÃ½ ba
Å¡a de
Ġinfor ma
Ġli cen
r v
ĠâĢ Ķ
Ġau tor
Ġ200 8
ĠÅ¡pe cia
ĠT u
ĠR us
ra st
ovan Ã½m
Ġsvoj ou
gra fi
rg ani
tÃ¡ m
di la
ve tli
Ġist Ã½
Ġporov nanÃŃ
Ġnebo la
Ġbole sÅ¥
ovan Ãº
lu s
ĠorgÃ¡ nov
K om
Ġna dob
Ġze me
Ġpre men
m aÅ¥
Ġza ved
Ho ci
Ġu pozor
Ġe ur
icro so
Ġproce su
Ġza pla
Ġvlast nÃº
s en
Ġnevyhnut nÃ©
Ġzame st
ĠlÃ¡ tky
Å½ i
ĠL ond
m lu
I A
ce r
ĠÅ¡pe ciÃ¡lne
k mi
li li
Ġobyva teÄ¾ov
Ġno c
in o
lie Å¥
n enÃ¡
ra Å¡truk
Ġz v
ĠnapÃŃs al
ĠeurÃ³p skych
Ġs us
anÃº Å¡i
ĠCir kvi
Ġu h
Ġz mysel
w e
Ġst ani
b re
u li
ĠvnÃº tri
ĠÅ¾iad osti
si li
I N
ĠreÅ¡ tau
Å¾i Å¡
ĠspoloÄį nÃ©
nut Ã½
cho de
Ġs ti
Ġd ov
ĠÅĪ ou
Ġ2 7
Ġpo ru
Ġ200 9
ĠÅ¡i rok
Ġstarostlivo sti
ĠC on
Ãºf am
Ġo cho
ve rov
ĠM i
nej Å¡ia
z ul
Ġvie me
Ġjed lo
po koj
Ġpat ria
ĠprÃŃpad ov
Ġprv Ã½ch
ie la
ĠVÃ¡ Å¡
Ġ201 9
vo lÃº
ĠpoÅ¾ ia
E Å¡te
Ġu li
Ġweb ovÃ½ch
ĠH ar
livo sti
f il
V e
ĠzÃ¡vis losti
len Ã¡
Pr vÃ½
ĠB i
v il
ĠvÃ½sku mu
Ġch Ã¡
k Ãºp
Ġf ut
Ġsi g
Ġod ov
tra k
ĠoÄįak Ã¡va
âĢĿ .
jÃºce j
ar ÃŃ
Ġdisk us
va hy
Ġini cia
Ġi sla
ĠvÃ½ bor
Ġkateg Ã³ri
Ġpov ie
ru s
Ġzo hÄ¾ad
Ġku chy
Ġf on
d la
Ġad min
Ġti tu
Ġsvet lo
ĠH a
Äį ie
aliz ovaÅ¥
T y
ĠH ol
M ali
Ġz ly
ĠÃºze mÃŃ
Ġp am
inÃ¡ r
m ÃŃn
Ġ19 4
i sÅ¥
ie Ä¾a
ni ci
Ġsed em
Ġte ra
ĠP Ã¡n
Zat iaÄ¾
a ko
Nie kedy
ĠjÃº na
ĠpovaÅ¾ uje
Ġpo ho
zÃ¡ ciu
Ġnem Ã´Å¾u
Ġinf raÅ¡truk
Ġregi on
Ġjad rov
.. ..
Ġz bav
Ġz jav
ĠprÃ¡v ne
Ġop rav
lÃ¡ cia
s ud
ĠB ar
Ġdost ali
d ro
Ġ7 0
Ġf a
rig in
pe ri
r enia
Ġ2 6
Ġi nej
Ġo z
ĠÅ¡tÃº dia
ĠzÃ¡ Å¾i
Ġnem al
Ġstra ch
Ã¡ rov
le y
in i
ĠA le
Ġdecem bra
Ã¡ vanie
Ġ lu
ĠtÃº Å¾
Ġs uper
Ġsme rom
il l
Ġzariad enie
Ġov lÃ¡d
ĠzlepÅ¡ iÅ¥
ĠvÃ½ro by
ci m
Ã³ re
ed a
Naj v
Ġsvoj mu
ĠvÃ½ hody
Ġstra te
ĠL u
Ġ Q
Ġsto jÃŃ
se Ä¾
sah uje
Ġnesp rÃ¡v
my slu
Ġvy vinu
ch e
do ws
Ġin fek
E C
ĠzÃ¡klad nÃ©
st ane
kov a
ĠvÅ¡etk Ã½mi
Ġs ln
bo ru
Poz rite
ing u
Ġkvali tu
Ġte m
ĠEU R
od i
Ġpo plat
A R
ta il
Ġdovo len
ĠstrÃ¡n ku
Ġp al
Ġz loÄį
ĠtechnolÃ³gi ÃŃ
Ġkontro ly
Ġdia g
ÅĪ ou
ca j
ĠE uro
Ġu tr
Ġvlast nÃ½
cov i
Ġmil iar
ĠtakÃ½ch to
Å¡i li
ĠvÃ¡ Å¾
Ġrod ina
Ġod o
Ġc uk
Ġpre ven
ĠÃº zem
ÃºÅ¡ Å¥a
Ġtr hov
Ġprisp ie
Ġu loÅ¾
Ġz mien
A S
Chce te
Ġmen e
ĠÅ¾ivot nÃ©
te s
Ġzna Äįky
ÅĪ u
l ovaÅ¥
Roz hod
Ġh rie
Ġobo ch
Ġpok ro
Ġtvrd ÃŃ
ĠÅ¾iad na
ĠT alian
Ġni Å¾Å¡ie
Ġp lne
Ġpodpor uje
Ne bo
Ġinve sti
ĠdomÃ¡ c
ĠsÃº Å¥aÅ¾
c ed
Äį ania
Ġkri tÃ©ri
Ġle ti
ĠÃºlo hy
T ÃŃ
Ġsk la
d ra
at ie
Ġtr Ã©n
ĠmÃ¡ Å¡
Ġzmen u
Ġmu Å¾i
Ġch rÃ¡n
o ni
Bo h
kÃ¡ Å¾u
Ġdru hov
Ġna chÃ¡dzajÃº
Ġlie ky
Ġpre v
Ġjanu Ã¡ra
! âĢľ
Ġz nak
Ġex trÃ©
Ġpo mer
Ġnajlep Å¡ÃŃch
ov ky
rÃ¡l ny
ÄĮlen skÃ©
cep t
Ġzost aÅ¥
Ġspoj enÃ©
ri lo
ĠvÃ½Å¡ ke
vi ron
ĠvykonÃ¡ vaÅ¥
Ġpr vÃ¡
Ġzre teÄ¾om
Ġra de
Ġpredpis ov
Ġvzni k
Ġpo zna
Ġkapa ci
de sia
Ġpochop iÅ¥
los vetov
Ġdlh Å¡ie
Ġop tim
ĠS Ã½
ĠzÃ¡ vaÅ¾
Ġrado sÅ¥
formÃ¡ cie
Ġzhrom aÅ¾d
Ġnaj nov
Ġv ply
S e
Ġpo Å¡
icroso ft
Ġo cen
Ġu Ä¾ah
ĠcieÄ¾ ov
Ġz loÅ¾i
ĠS an
Ġorgani z
Ġprv Ã©ho
Ġpre te
Ġzisti Å¥
Ġ5 00
mÃ½Å¡ Ä¾
ĠvÃ½raz ne
Ġener giu
Ġb er
Ġin ten
Ġf anÃºÅ¡i
A meri
z du
ĠkaÅ¾d Ã©
Ġodh ad
is la
Ġstarostlivo sÅ¥
p rostred
ĠsituÃ¡ cie
Ġrast Ãº
Ġko ord
lÃ¡ ch
S i
ĠâĢ ¦
ĠzabezpeÄį enie
ĠveÄ¾k Ã½ch
Ġpravid iel
Ġs en
Ġro bo
ig h
ĠsÃº hla
Ġpod stat
Ġrodi Äįia
2 4
lo ch
Å ¤
Ġpracov nÃŃkov
ĠjÃº la
ĠobÄį anov
om et
g res
Ã¡ me
Ġodst rÃ¡niÅ¥
Do kon
rÃ¡ ciÃŃ
ce ho
pe Å¾
Ġe u
P ra
Ġci tli
ĠSloven sku
Ġweb ovej
ĠM an
Ġschop nÃ½
Ġuvied la
Ġefek tÃŃv
Ġuzav re
ĠAp ple
P a
s h
C ieÄ¾
Ġ3 6
Ġ200 7
ĠvÃ½ni mo
Ġak Ã©ho
ÅĪa j
Ġjazy k
ĠnÃ¡ dej
ĠurÄį enÃ©
Ġpovin nosti
Ġprostried kov
S tÃ¡
ĠU kraj
at y
kÃ¡ m
ĠspÃ´sob iÅ¥
Ġod po
Ġpod arilo
Å¡ÃŃ mi
Ġhodno t
ĠM edzinÃ¡rod
Ġrast u
Ġcharak teri
Ġp Ã½ta
Ġban ky
ĠurÄįi tÃ©
ĠC ar
Ġmo sli
Ġza obe
kov Ã©ho
Ġjedin Ã½
Ġpred chÃ¡dzajÃº
Ġu k
Äį ek
Na Å¡e
ĠspoluprÃ¡ ce
Ġpri tom
ĠÄįlen skÃ©ho
Ġvy men
ra la
Ġroz voja
Ġkance lÃ¡
Ġexist en
ĠprÃŃ sÅ¥
mo s
Å¾i la
Ġvyz Ã½va
ĠtÃ½Å¾d ÅĪov
al l
D i
M e
Ġmo ci
Ġzah r
t anie
no s
Ġanal y
ob er
Ġnau ÄįiÅ¥
Ġroz u
Ġkon zul
Ġob vin
gy p
Ġo m
Ġpos Ãºd
Ġbude Å¡
Ġpo sta
ĠÄį ÃŃta
Ġb at
Ġvy rieÅ¡
Ġschop nosti
ĠJoh n
Ġo hÄ¾adom
S y
g er
Ġdostup nÃ©
ĠprÃŃstup u
ĠÅ¡ty roch
va me
Ġmal Ã½
E D
Ġvz hÄ¾adom
Ġd ÄºÅ¾
Ġo na
Ġpravide lne
x e
ĠÅĪ u
kaz uje
stÃºp iÅ¥
ĠvnÃºtroÅ¡tÃ¡ t
ĠprÃŃleÅ¾ito sti
Ġ Ãģ
Ġkapi tÃ¡
Ġsled ovaÅ¥
ĠG e
Ġf aj
ð Ł
Ġch rÃ¡niÅ¥
Ġpro pa
Ġst ali
ĠV Ã½
Ġnevie m
nÃ¡ sob
M il
ĠLond Ã½
se ÅĪ
Ġh a
Ġv Å¡ade
mu ni
ĠvytvÃ¡ ra
Ġz ruÄį
ne ch
ĠN A
ĠprÃŃsluÅ¡ nÃ©
A n
Ġniektor ÃŃ
Ġkonf lik
Ġov er
2 2
Ġtomu to
Ġta bu
ĠdÃ´ chod
Ġsta bili
ĠvÃ¤Äį Å¡ie
ĠprÃ¡ zd
c ku
ĠD i
i telia
z v
Ġpsy ch
Ġameri ckÃ½ch
k ovanie
Ġjednotli vÃ½ch
Ġkari Ã©
tion al
, ,
ÄįÃŃ taÅ¥
Ġpres ad
to b
Ġ !
ĠPar ÃŃ
st rov
Ġodov zd
ĠW il
Ġza ob
S k
Ġtak Ã¡
ĠB er
U r
r Ã³
Ġzd Ã¡
Ġnah rad
ĠP ri
Ġrod inu
ĠÅ¡tÃ¡ tom
Ġst ia
ĠvÃ½rob u
R a
Ġfil mov
Ġt rÃ¡
Ġvy ber
v Ã½m
men ÃŃ
Ġnasled ujÃºcich
ĠnÃ¡stro je
ĠSe ver
ĠvÃ½ ko
Ġdru hy
sp ar
Ġdosta toÄįne
ĠmÃ¡ ja
ĠzlepÅ¡ enie
Ġsa ma
ujÃºce ho
le van
Po znÃ¡
ĠM ich
zÃ¡ jom
Ġprojek tov
lu jÃº
da jÃº
Ġod vo
Ġnee xistuje
Le bo
Ġm er
ĠkultÃº r
Äı ar
Ġg u
ĠhrÃ¡ Äįov
D ruh
Ġpred chÃ¡dza
Jed en
ĠJeÅ¾i Å¡a
Ġp ali
viron men
Ġb al
Ġp ad
ĠC om
j ak
Ġze mi
Ġcen a
Ġposky tujÃº
Ġmno u
k ovanÃ©
Ġh er
ĠÂ »
Ġat Äı
Ġkon iec
ĠJa pon
ĠvÃ½ stav
ha j
at ia
ĠÃºÄį et
ĠS te
en ou
Ġsvetov ej
Ġne vi
Ġd ej
Ġvla sov
ak e
MÃ¡ me
ĠpouÅ¾ÃŃ vania
ĠÅ¡ ie
ĠÅ¡tÃ½ l
ĠotÃ¡z ka
te x
ĠKri sta
Ġarch ite
ĠzvÃ½Å¡ enie
g Ã¡
o ro
Ġobchod u
Ġpo hla
d om
ra b
Ġprogra mov
teÄ¾ ne
Ġni Å¾
ĠÅ¾iad nu
Ġt radÃŃ
E xistujÃº
ĠM at
ĠkrÃ¡ sne
ĠoktÃ³ bra
Ġstran a
ti vÃ¡
Ġpre kÃ¡Å¾
Ġpov a
ĠvÃ½sled ok
Ġmnoh Ã©
Ġdra h
Ġov o
Ġna znaÄį
na li
teÄ¾ nÃ¡
Ġmoj ich
toÄį nÃ½
ĠpÃŃ Å¡e
Ã´ l
ĠpÃ¡ Äįi
van je
u Å¾ÃŃ
Nik to
ĠtvÃ¡ r
ÅĪ te
Ġkni hu
ĠzÃ¡ ru
ĠN i
Ġka ma
Ġmal Ã½ch
ĠT rum
Ġpro to
tie k
N A
po l
an o
Ġi sto
Ġslov en
ĠvÃ½ Å¾i
Ġpo ste
Ġboj ovaÅ¥
Ġcest ov
Ġrepubli ky
Ġmo tor
ĠWin dows
Å¡ nÃ©
Ġlo gi
va la
Ġpoko Å¾
Ġroz m
Ġza sad
Ġpotrav iny
C O
Ġda ta
S lov
S ku
ĠmyÅ¡lien ky
Ġochor enia
le Å¾ÃŃ
ĠzvyÅ¡ uje
teÄ¾ mi
d ou
nost iach
Ġvykon aÅ¥
Ġja zd
ko r
Ġvlast nosti
ĠpoÄįÃŃta Äį
Ġdo Äįas
sti ch
Ġsus ed
Ġk m
2 1
raz iÅ¥
ou n
bo k
VÃ½ sled
vaj Äįiar
Ġpa pie
Ġprebie ha
Ġce losvetov
vlÃ¡ Å¡Å¥
Ġv odu
ĠÃº vahy
ĠkaÅ¾d Ã¡
I ch
Ġa kÃ¡
Ġvy skÃº
Ġstanov enÃ©
lÃ³ g
Ġak tÃŃv
Ġau tori
E B
ĠorganizÃ¡ cia
Ã´ Å¾
ti mi
e sti
H Ä¾ad
zd rav
Ġt ur
Ġkro ky
ĠÅ¡Å¥ast ie
Ġpovin nosÅ¥
be Å¾
Ġvy lÃº
Ġnov Ã¡
Ġpod uj
le t
Ġzhrom aÅ¾Äı
ĠblÃŃ z
Ġchoro by
Ġjas ne
A ni
om o
Ġo sem
ĠlieÄį by
ĠtretÃŃ ch
Ġroz die
at ÃŃ
ĠÅ¾i jÃº
ĠvyhlÃ¡s il
er u
ĠG u
vÃ© d
nov i
Ġpodpo rovaÅ¥
S tre
Ġpod pÃŃs
va m
ĠvÃ¤ÄįÅ¡ inu
Ġau gu
Ġmie r
Ġvide l
Ġefek tÃŃvne
Ġkon cent
Ġvy bud
KeÄı Å¾e
Ġp Ã¡n
Ġsko ro
van Ã½ch
ĠmuÅ¾ a
Ġli mi
Ġkon aÅ¥
m art
ĠtÃ½mi to
Ġadmin istra
o t
Ġst rÃ¡v
ĠlÃ¡ tok
Ġvys vetli
ĠaprÃŃ la
or g
me j
ujÃº ca
Ġmie ru
Ġtr vÃ¡
Ġst rie
ĠzÃ¡klad nÃ½ch
Ġpotreb ovaÅ¥
Ġo kami
Ġma ter
ĠpoÄį tu
P S
Ġpodpo ry
ĠkrÃ¡ Ä¾
rie n
sta la
Ġpla tob
ĠumoÅ¾ nÃŃ
ky ch
Ġu verej
EurÃ³p ska
ĠrÃ½ch lejÅ¡ie
MÃ´Å¾e m
ĠnÃ¡klad ov
A l
Ġkli ni
ĠF or
ĠduÅ¡e v
ĠsituÃ¡ cia
Rov nako
te d
Ġded iÄį
Ġza p
Ġhlav nÃ½ch
Ġfotogra fi
Ġty py
g h
ĠlieÄį bu
Ġobchod nÃ½ch
Ġochran e
Ġpri Å¡li
Ġo zna
Ġrakov iny
Ġa s
r gi
Ġme ta
Ġprac uje
ne t
pra cov
for m
ĠspÃ¡ ja
ĠÄįÃŃs la
Ġbez plat
Ġse m
Ġin de
Ġre feren
Ġnedo stat
Ġak tÃŃvne
Ġ ÄĮo
ĠsprÃ¡ vanie
. ,
ĠspÃ´sob y
Ne mÃ¡
Ġpriestor u
Å¾ iad
ĠdesaÅ¥ ro
Ġto uto
da li
Ġzom rel
st Ã¡va
le c
ĠÅ¡tÃ¡t mi
Ġ2 9
o pis
Å¾ iaÄ¾
Ġinteli gent
Ġmar ca
ĠnÃ¡d her
ĠB ra
Ġseptem bra
Ã¡r d
Ġposkytov ateÄ¾
Ġpe s
pre z
Ġkone Äįne
ilo zo
S na
Ġak Ã½ch
ni lo
sk ÃŃ
ĠÄįlen om
Ġmi kro
Ġteho ten
Ġpod oz
Ġuda losti
ĠVa Å¡e
tÃº r
vo tnÃ©
Äį te
ob ili
spar ent
Ġpredstav iÅ¥
Ġdob rÃ¡
ĠskutoÄį nosÅ¥
Ġpo bre
ĠÅ¡por tov
Ġriad enia
Ġdo p
Ġ200 6
ĠzÃŃsk al
O sob
Ġla c
r n
Ġpracov nÃ©
Ġkom en
ujÃºci m
âĢ ĭ
Ġmu l
Pov ed
en u
ĠtÃŃm u
Ġofi ciÃ¡lne
ĠnajvÃ¤Äį Å¡ÃŃch
Dokon ca
Ġako by
ĠÃºrov ne
sti l
Ġautoma ticky
Ġvytvor enie
Ġak cie
ĠpÃŃs om
nu tÃ¡
ĠmetÃ³ dy
Ġkto rou
ĠÅ¡ta tisti
b ude
Ġzamest nÃ¡va
ĠvÃ½ dav
C e
Ġs via
z naÅ¥
KaÅ¾d Ã¡
kÃ¡ r
Ġprostred ÃŃ
ĠcÃŃ ti
ĠP or
ĠnÃ¡rod ov
Äį nou
Ġnap r
ĠtÃ½ka jÃºcich
ĠkÃº pe
Ġ3 1
Ġnemus ÃŃ
Äº b
ze rÃ¡
Ġaktu alizÃ¡
Ġmili Ã¡rd
ĠstrÃ¡n kach
ĠdÅĪ och
Ġneu veri
ĠzaloÅ¾ enÃ¡
Ġpe st
in ky
ĠÅ¡tud entov
avy Å¡e
ĠveÄ¾ko sÅ¥
ĠspoluprÃ¡ cu
Ġmnoh ÃŃ
Ġpreziden ta
el l
Ġkni ha
Å¡i la
Ġen vironmen
Ġvozid la
nÃŃc tvo
ĠspÃ´sob ov
hu Å¾iaÄ¾
ĠA ust
Ġschop nÃŃ
N asled
Ġzviera tÃ¡
Ġhla vy
ĠsÃºÄįa sÅ¥
v ku
Ġmoz gu
prav ed
Ġposky tovaÅ¥
Ġpre mi
Ġinve stor
ĠvyuÅ¾ÃŃva Å¥
Ġobsah ujÃº
Ġkapi to
Ġkomis ia
ĠM icrosoft
Ġdruh Ã©ho
N ez
ĠO n
Ġh um
rne ho
Ġspravod li
an y
i ta
Ġobmedz enia
Ġf ede
Ġvod a
f Ã³
por t
ĠnÃ¡vr hu
Ġleg isla
Ġvy bra
Ġpod iel
loÅ¾i l
Ġpodsta te
Ġverej nosti
Ġi P
w it
Ġakej koÄ¾vek
Ġmili Ã³na
Ġpia tich
ĠmÅķt vy
CieÄ¾ om
f fi
ĠplÃ¡ nu
N avyÅ¡e
ĠnajvÃ¤Äį Å¡ÃŃ
Ġkon Å¡truk
ĠnÃ¡ kup
Ġdom nie
ĠdÃ´ stoj
d ÃŃ
Ġre levan
Ġfut bal
ĠvÃ¤ÄįÅ¡ inou
Ġnav zÃ¡jom
Ġt roj
Ġli st
Ġ200 0
Ġroz sia
ti ky
Ġslobo dy
lÃ¡ m
ĠsÃºvis iace
ĠznÃŃÅ¾ enie
Ġuplat ÅĪ
ĠskÃºseno sÅ¥
Ã¤ tov
me stn
Ġdo h
Ġchce la
Ġne Ãº
Å¡ ka
Åł t
Ġmys lÃŃm
Ġz lom
Ġpre chod
ĠmedzinÃ¡rod nÃ½ch
Ġm enÃŃ
Å¡ ta
ĠvÃ½ voja
Ġvie ry
Ġmus ÃŃm
K tor
ĠvzÅ¥ah uje
ĠÄįo koÄ¾vek
h nÃºÅ¥
Ġfor m
hnu teÄ¾
Ġtre tej
Ġnadob ud
da jte
Ġz riad
sti ckÃ©
Ġpoli caj
Ġdosia hnutie
ĠvzdelÃ¡ vania
ch om
ĠÅ¾i v
Ġle ho
Ġt rÃ¡v
Vz hÄ¾adom
Ġh ran
p h
t mi
Ġs lÃ¡
t kov
klad y
Ġpr enÃ¡
Ġpok ry
Ġzas lÃº
Ġa spek
Ġnaj skÃ´r
ĠnÃ¡stro jov
Ġcir kev
s ok
ĠspÃ´sob uje
ĠsituÃ¡ ciu
Ġzame ria
Ġvlast nej
ĠJ u
klad Ã¡
ĠO t
R A
in t
I I
ĠhÄ¾ad aÅ¥
ĠPÃ¡ na
b roj
kÃ¡za la
Ġse ver
ĠZ a
Ne za
Ġs lu
por ÃºÄįa
in te
Pou Å¾ÃŃva
Ġ ðŁ
in Å¡t
Ġne spo
Ġdo pravy
ĠveÄ¾k ej
ĠÄįo skoro
Ġdata bÃ¡
Ġpostup y
ĠinÅ¡titÃº cie
ĠktorÃ© mu
Ġagen tÃºra
zna menÃ¡
ĠmÃ´Å¾e Å¡
ĠSpoj enÃ©
vo sti
Ġsp Ã¡n
Å¡ k
ĠakÃ©ho koÄ¾vek
Ã© f
ĠstrÃ¡n ka
Ã½ tal
Ã¡l ov
ĠÄįÃŃ taÅ¥
ia Å¥
ane c
ĠsluÅ¾ bu
Ġne sta
Ġna po
ĠudrÅ¾ aÅ¥
ĠO b
Ġvita mÃŃ
sk i
2 3
Ġka me
H S
Ġcent rÃ¡l
Ġde st
ad u
ĠzaloÅ¾ enÃ©
Ġvy rov
Ġsad z
Ġka ta
Ġblo g
Ġdvom a
re ÅĪ
ĠPo Ä¾
ĠÄ¾ud skej
koÄ¾ ko
Ġtvo ria
Ġos la
Ġs ne
) ;
av i
Ġka tolÃŃ
z aÅ¥
Ġvlast nÃ½ch
da m
ĠsÃºbo ry
Ġse ku
Ã½ taÅ¥
c in
Ġ3 5
K eby
rek ven
ĠvÃ¤Äį Å¡ÃŃ
Ġdom e
Ġnov Ã½m
Ġnes Ãº
Ġnovem bra
Ġrozhod ol
Ġdizaj n
Ġdest inÃ¡
Ġukaz uje
Ġza kÃ¡z
ujÃºce j
ch Ã½
Ġvi di
ved om
ĠrÃ¡ di
T Ã¡
ĠveÄ¾k Ã½m
ĠV e
Ġs lne
Ġpri ori
tov al
Ġo Äį
Ġt k
ĠG rÃ©
Ġrad Å¡ej
Å½ iad
D P
ĠmÃº ze
ĠF a
Ġstrate gi
rov i
Ġtla k
Äįi te
ĠvÅ¡etk Ã©ho
Ġal koho
Ġobchod nÃ©
ĠZ e
K rÃ¡
b lÃŃ
pa ti
ar k
ĠprÃŃznak y
Ġtele s
Ġa vÅ¡ak
ĠkrÃ¡t ko
ro ÄįnÃ½
Nevie m
Ġu vid
ĠÃº pri
Ġpov ol
ĠrieÅ¡ iÅ¥
Ġtak ej
ho ne
Ġpostup ne
Ġmiliar dy
Ġtran sparent
Ġslobo du
Ġpo chyb
ĠsituÃ¡ cii
Ġd iaÄ¾
Ġsta ro
Ġspotreb iteÄ¾ov
ĠblÃŃzko sti
isti te
Ġm Ã³
ĠCh ar
Ġat mos
ĠdÃ´ve ry
ĠE n
pra ve
Ġneza bud
Ġvzdu chu
ZÃ¡ roveÅĪ
Ne po
ĠÄ¾ah kÃ©
Ġvz iaÅ¥
Ġzly h
Ġex peri
w er
Ġdospe lÃ½ch
Ġdve re
Ġchy by
ĠÃº zko
Ġprv Ã½m
M i
I D
nej Å¡ÃŃm
are b
Ġpodni kov
ĠÄĮ e
ĠJ uÅ¾
ĠzÃ¡ sob
Ġmimor iadne
i p
ĠveÄ¾ko sti
P amÃ¤
rov a
ĠspoluprÃ¡ ci
Ġh re
ĠÄĮÃŃ ne
ĠNemec ku
Ġhodno ta
ĠÅ¡ pi
Ġsti mu
s or
pe c
Ġtis ÃŃ
Ġpos lan
lÃ¡ ciu
ĠzvlÃ¡ d
rie m
ĠdeÅ¥ om
ie ra
ĠS er
kÃ¡ t
Ġp ie
Ġsp rÃŃ
ku jÃº
De ti
Ġs c
Ġrozhod nÃºÅ¥
ĠpouÅ¾i tia
Ġk lad
sto u
Ġkar ty
Ġvy Å¡e
en ti
Ġf ilozo
zra el
ĠvedÄ¾a j
ĠumoÅ¾ ÅĪujÃº
Ġtechno logi
A Å¾
Ġsp e
ĠzÃ¡ hra
teÄ¾ov i
Ĥ ¬
B udÃº
o x
gra f
om Ã¡
Ġse kto
Ġkan di
Ã³ r
Ġodmie t
Ġpozi tÃŃvne
ovo Ä¾
Ġsig nÃ¡
Ġmesia ce
inÅ¡t al
Ġmie ry
Ã´ t
Ġk ru
Ġkli k
ĠrÃ½ch le
Ġt zv
Ġposky tne
Ġvyh nÃºÅ¥
o od
k Ã³
lia da
ĠsÃºÅ¥a Å¾e
Ġmiest nosti
Ġu m
ĠÅ¡ko le
ĠmateriÃ¡l ov
Ġse x
ti ku
no r
Ġsp re
Ġurob ili
cie Å¥
Ġsp is
ĠÃºÄįel om
Vie te
Ġzad armo
ĠprÃŃ kaz
Ġstav u
Ġpreno s
ĠA d
Ġtak isto
M in
ĠzÃ¡uj me
Bo li
P Ã¡
Ġ l
Ġdo pad
ĠÄįo raz
Ġtak Ã½m
l Ã½m
4 0
Ġod i
I C
Ġzahrani ÄįnÃ½ch
tre ba
ĠÅ¡an cu
Ġvide li
Ġza v
Ġp last
Ġs Ã©ri
ĠchvÃŃ Ä¾u
Pod ob
ĠpÃ´ jde
A u
Ä¾ ovanie
ĠtÃ½Å¾d ÅĪa
Ġslov ami
Ġprez en
ĠvoÄ¾ by
Ġne znÃ¡
Ġu ply
ri i
ĠzÃ¡vis ÃŃ
Va Å¡e
vy Å¡e
Ġlie kov
Ġagen tÃºry
lov Ã©
Ġhlav nÃ½m
Ġde tail
Ġi muni
av Ã½
ĠM on
Ġop Ã¤tov
le b
Ġzab rÃ¡niÅ¥
Jed nodu
ĠsÃº stred
Ġdod al
Ġmoj u
Ġmus eli
ĠmedzinÃ¡rod nej
Ġop is
Ġhrani ce
z vlÃ¡Å¡Å¥
Ġkul tÃºry
Ġprv Ãº
s ÃŃ
Ġos lobod
Ġs ud
Ġinterne t
ĠbezpeÄį nÃ©
Ġdo teraz
ar y
ĠpoÅ¾iad aÅ¥
Ġved ia
Ġre g
Ġutr p
m ky
Ġd Ã½ch
Å¡Å¥ast ie
lÃ¡ si
ĠpÃ´ vodu
ĠzÃ¡ chran
ĠtÃ½ka jÃº
Ġnasled ov
V eÄ¾a
z bud
ĠpomÃ¡ha jÃº
Ġparla ment
Ġdoz ved
Ġt an
Ġpodni ky
cie ho
hod nÃ©
ĠÄįas opis
Ġpotreb ujeme
ak Ãº
Ġpo te
Po sled
Ġfar by
ĠÅ¡ko dli
Ġk us
ĠnÃ¡ ku
Ġmil ovaÅ¥
Ġb li
E x
ĠmoÅ¾ nostÃŃ
ri ty
E T
Ġv tÃ¡
ÄįÃŃta jte
w a
Ġkom er
Ġper cen
le xi
ĠprÃŃsluÅ¡ nÃ½ch
ĠskutoÄį nÃ©
rob lÃ©
Ġcir kvi
Najlep Å¡ie
Ġute Äįen
Ġve riÅ¥
Ġ >
Ġro Äįne
ĠhistÃ³ri i
Äįe ra
ĠK on
Ġuda lo
Ġna vyÅ¡e
ne y
men a
Ġkraj inu
Ġnaj prv
Ġt alian
Ġk as
ĠvzÅ¥a hov
Ġch cieÅ¥
n ania
ĠproblÃ© mom
Ġko lek
ĠP od
Ġcent ra
ka jÃº
r in
lo n
ĠsÃºÄįas ne
Å¡i ne
Ġrovnak Ã½
ĠnÃ¡m or
Ġvoj ak
ĠpoÄį uÅ¥
Ġb la
Ġin ov
2 7
Ġz ane
Ġv Äıa
T am
Ġb re
lov ej
ĠIzra el
un k
Ġauto bus
s chop
raz ÃŃ
ĠM c
Ġd iel
van iu
Ġprospe ch
Äį anov
Ġz lo
Ä¾ ud
Ġmy seÄ¾
P Ã´vod
ĠnemÃ´Å¾e te
Ġho re
ĠnÃ¡sled ne
re m
P rie
Ġin Ã¡
Ġvyze raÅ¥
Å¾e h
ĠS i
Ġzmen a
Ġnepo treb
T he
ĠÃºÄįin ok
Ġpri mÃ¡
ĠmedzinÃ¡rod nÃ©
kom u
Ġsla b
ko ne
Ġume l
ĠurÄįi tÃ½ch
Ġf alo
Â ´
Ġprogra my
Ãį r
Ġz hor
Ġop a
Ġko sto
ĠkÄ¾Ãº Äįov
ĠrieÅ¡ enÃŃ
ĠpÃ´ Å¾i
Ġdo kona
Ġne hnuteÄ¾
ĠJe ho
Ġk lÃŃm
Ġvod i
I ba
Ġmili Ã³ny
Ġmiesta ch
A T
ĠpouÅ¾i tÃ©
ĠvÃ½nim kou
Ġfebru Ã¡ra
Ġz ub
Äį at
ĠBo Å¾e
Ġsy na
Ġregu la
z mi
h ar
Ġnepo d
Mo ja
ta j
Ġpredstav ujÃº
Ã© ria
Ġlo k
rÃ¡ m
Ġs Ä¾ub
Ġdru hu
Ġim ple
Ġot ca
Mus ÃŃme
Ġde pre
Ġpoz d
Ġdokon al
Ġsp ÄºÅĪa
Ġp an
p s
Ġobyva teÄ¾
Ġs nÃŃm
ĠpoÅ¾iadav iek
praved l
Ġosob u
Ġnejak Ãº
t an
Ġna Å¡im
Ġne ve
Ġhor Ãº
ĠzÃ¡ zna
ĠvÃ¤Äį Å¡iu
ĠsÃº bor
eno sÅ¥
Ġpomer ne
Ġz mi
Ġtak om
Ġoblast ÃŃ
len Ã½ch
ĠVeÄ¾ kej
Ġre prez
Ġpos udz
ĠÃº ro
Ġprojek ty
Ġpla tiÅ¥
ĠT a
Ġdi sku
Mnoh ÃŃ
ĠÄįer v
Ġplat by
Ġpriprav enÃ½
Ġosob ne
Ġe vanje
Ġatmos fÃ©
Ġci vili
ĠnemoÅ¾ no
tick Ã½m
rÃ¡ d
ĠN o
Ġroz hovor
ĠÅł paniel
ĠorgÃ¡ nu
Ġostat nÃ½mi
ĠvrÃ¡ ti
Ġod oh
pi li
Ġdob ro
Ġ200 5
Ġuz at
Ġpodnika teÄ¾
Ġ19 5
Ġo rigin
Ġskup ÃŃn
Ġnaj hor
Ġ200 4
Ġtrva lo
Ġprin ie
ĠvyrÃ¡ ba
Ġbun ky
ĠÃºsil ie
ĠzÃ¡kaz nÃŃkom
P on
ĠÄįa stÃŃ
ovan Ã½mi
Ġto p
Ġmaj iteÄ¾
I T
Ġse ri
ĠinvestÃŃ cie
p to
Ġver zia
Ġp sa
ĠpoÄį ia
Ġokol nostÃŃ
ĠA ir
ĠS vetov
ĠdÃ¡ t
ĠvyhlÃ¡s enÃŃ
O tÃ¡z
la s
D Ã´
d r
Ġpo st
ĠprÃ¡vom o
h rani
t iny
ĠEurÃ³p ska
Äį enÃ¡
ĠC i
na v
Ġos ved
ĠÅ¾i dov
Ġ '
Ġnech aÅ¥
ĠprÃŃ s
Äį kou
Ġvzni ku
vÃŃ jaÅ¥
Ġzbran e
ĠBo Å¾ÃŃ
Ġfak t
Z d
Ġo rien
tvÃ¡ ra
Ġpred loÅ¾
O ba
Ġpov rch
ĠE S
ni Å¾
Ġtr pe
hnut Ã½
Ġvy prac
Ġpo zem
Ġzastav iÅ¥
t uje
Ġdruh om
Ġdo sah
rov Ã©
ti sla
Ġzo h
ĠO d
Ã¡ cia
ĠÄįin nostÃŃ
ĠorgÃ¡ nom
Ġt al
j ÃŃm
Ġsil nÃ©
Ġza chy
ĠakÃ½ koÄ¾vek
Ġtabu Ä¾
vÃ¡ t
Ġchce Å¡
skyt uje
2 8
ĠdÃ´leÅ¾i tÃ½
Ġdo Å¡lo
ĠvÅ¡eobec ne
2 6
ĠÃºÄįin nosÅ¥
Ġmoj om
Ġprv ky
te ch
ĠdeÅ¥ mi
h ad
si ÃŃ
ĠsystÃ© me
ĠpreskÃº m
Ġverej nÃ½ch
Ġre volÃº
Ġpodob ne
Ġkre di
Ġme trov
o de
Ã¡va me
Ġpre hÄ¾ad
Å¡ ku
Ġinterne te
I F
Ġvz d
ĠdÃ´ vody
Ġov lÃ¡da
ĠprÃŃpad ne
Ġpredpis y
Ġkateg Ã³rie
v Ã¤Å¥
ĠÅ¡ko l
Ġvy medz
w n
Ġinten zÃŃv
Ġdosta tok
Ġz by
Ġrodi ne
prÃ¡ va
ĠBoh om
Ġm ani
Ġs lad
Ġroz um
Ġta ble
ce s
Ġ4 5
Ġvysok Ã©
Ġh ier
h am
Ġse st
Ġproduk tu
? ?
Ġod os
ĠnavÅ¡tÃŃv iÅ¥
ĠvÃ½sled kov
Ġdruh Ã©
ri zon
Ġo te
Ġprid aÅ¥
Ġmys lieÅ¥
ĠÄįi ta
Tak Ã©
ĠdÃ´leÅ¾i tÃ¡
tu s
Ġc ud
Ġcent rum
Ġc ol
Ġv ia
Ġv Å¡e
Ġgene rÃ¡cie
MÃ´Å¾e me
Ġtak Ã©ho
Ġkam p
in ov
ti ka
stav y
Ġinte rak
ĠmÃºd ro
Ġmus el
van ej
R ad
ĠÃº sta
Ġn u
ĠÅ¾ al
Ġdi Ã©
Ġfung ovaÅ¥
Ġposled nÃ©
Ġklien tov
ir tu
ver z
w are
Ġno hy
Ġsva d
Ġroz Å¡i
se li
Ġpripom ÃŃna
ĠÃºÄįa sÅ¥
Ġ3 00
kÃ¡ n
StÃ¡ le
liz mus
Ġkata stro
ĠsprÃ¡ ve
ried ka
Ġzbran ÃŃ
Ġa rg
Ġdva krÃ¡t
Ġlie k
ĠL o
nost iam
Ġkomb in
Ġvysok ej
Ġspra cÃº
Ġprie sku
Ġch uÅ¥
Ġp ane
Ġbi ologi
l ania
Ġspra cov
Ġre alizÃ¡
Ġfor my
Ġu ÄįiÅ¥
Ġrozhod li
M noho
ĠNÃ¡ rod
Za Äį
ĠrÃ´z nymi
Ġspo ÄįÃŃ
Ġna kup
ĠAmeri ke
Ġriad enie
Ġpo ky
nut Ã½ch
Ġzd ruÅ¾
ĠkrÃ¡Ä¾ov stvo
ĠvÅ¡eobec nosti
Ã ¨
Bude te
ĠÄįlen skÃ½
Ġverej nej
se xu
Ġhmot nosti
Ġod ol
Ġur ÄįiÅ¥
Ġpri chÃ¡dzajÃº
ĠvÃ½ lu
Ġna Å¡li
Äį ÃŃm
Ġdy nami
O N
Ġdobr Ãº
na pr
ĠrÃ½ch losÅ¥
ĠstratÃ© gie
Ġ +
ash ing
ĠzÃŃsk ali
Ġa pli
S tra
Ġtr p
ĠotÃ¡z ok
ĠÅ¡pe ciÃ¡l
k Ã½mi
Å½ e
ĠspoloÄįen stva
m ka
Ġtre tie
ĠY or
n enÃ½ch
ce l
Ġnorm Ã¡lne
Ġnep red
Ġma tka
ĠI S
Ġnebude te
Ġob avy
Ġdiag nosti
Ġnariad enie
Ġzom re
Ġstave b
Ġtero ri
ĠsÃº du
Ã½ ba
ĠzaÄįia tok
Ġin Ãº
ĠÄ¾ud u
Äįa stejÅ¡ie
D Ã¡
Ġponu ky
Ġposled nÃ½
ĠorganizÃ¡ ciÃŃ
2 9
ez pe
Ãº Å¡Å¥
Ġbo dov
Ġza sia
id ov
d Ãº
rie vod
ĠnajvÃ¤ÄįÅ¡ ÃŃm
Ġpo rozu
M A
Ġtvo rÃŃ
Ur Äįite
Ġm ÃŃ
Ġ |
Äı me
ta ri
Ġvyb ran
Ġvy chÃ¡dza
ĠsystÃ© mom
Ġf rekven
ĠhrÃ¡ Äį
Ġvozid lÃ¡
Ġa trak
re di
Ġte be
ĠnedÃ¡v no
Ġhod inu
ĠÃº mr
Ġstoro ÄįÃŃ
Ġza klada
Ġkli ma
Jed in
ĠÄıal Å¡iu
Ġzodpoved nosti
Äİ akujem
ĠzÃ¡ko ny
Ġsp u
Ġsvet la
Ãº tne
ĠeurÃ³p skej
ost Ã¡va
ĠtÃ½Å¾d ne
Ġe mo
Ġmili Ã³n
g re
Ġsil nÃ½
v Ã©ho
Ġprie myslu
Ġkon cer
Ġpo n
d ol
. [
t inu
nÃŃ h
e c
Ġdi pl
ĠprÃŃlo he
ĠÃºlo h
Ġned eÄ¾
bo rat
ĠvyhlÃ¡s enie
Ä¾a de
ĠK Ã³re
Ġko ho
Äį nosÅ¥
Ġb ak
Ġs vie
ĠB us
Ġty pov
Å¾ in
Ġve k
Ġvo de
Ġweb ovÃ©
ĠpouÅ¾ÃŃva teÄ¾
po z
Ġdohod u
Ġarchite k
ÅĪ aÅ¾
Ġbo ja
ĠzahÅķÅĪa jÃº
lov ek
Ġne f
x us
Ġo tro
Je Å¾iÅ¡
raj te
nes s
Ġmie re
Ġuspo koj
Ġsprac ovanie
Ġeko logi
Jed nÃ½m
ĠÄį aj
Ġnav Å¾dy
M ajÃº
Ġvlast nÃ©ho
Ġzab rÃ¡ni
Tre ba
I P
ĠAn gli
) :
Ġsk ry
Ġkomuni ka
li sti
Ġverej nÃ©ho
ĠvÃ½rob ku
Ġna pad
i o
l h
Ġven ovaÅ¥
Ġnao pak
ffi ce
v nÃ©
Ġnor my
Ġza ruÄį
ĠnemÃ¡ m
Ġk il
Ġz vÃ¡
Å¡t ru
Ġobraz ov
Ġsie d
Ġrizi ka
D ie
tov ali
ĠprijÃŃm a
ĠFacebo ok
men e
sa la
uje Å¡
Ġinov atÃŃv
ĠvyÅ¾ad ujÃº
Ġe pi
P e
Ä¾ ovaÅ¥
Ġnema la
Ġbun iek
Ġpodmien kach
Ġpovo lenie
Ġkon cep
Ġcook ies
Ġrov novÃ¡
Ĩ Ĵ
D od
Ġlo Äı
Ġk ra
Ġpov zbud
Ġp ani
i le
Ġinterne tu
raz u
inÃ¡ m
a b
z ujÃº
Ġrekla my
Ġst vor
ĠsoftvÃ© r
Ġpostup ov
Ġtr vaÅ¥
in k
Ġf Ä¾a
i ca
ĠYor ku
Ġzvy k
ĠÅ¾ele zni
klad aÅ¥
Ġso li
Ġza re
cha jte
Ġhovo ril
ho de
Tak to
Ġz lÃº
Ġv rch
Ġzmie r
ĠG ro
Ġfotograf ie
ĠM er
Ġzodpoved nÃ½
Ġtrie dy
ĠBoÅ¾ie ho
Ġpoliti ku
Å¾i tie
tÃŃ k
V iem
om an
ĠvÃ½ poÄį
Ġzdroj om
ĠinÅ¡t alÃ¡
Ġdo py
Ġni m
Ġk ov
Ġkon tex
Ġre for
ĠkaÅ¾d Ã©mu
Ġlep Å¡ÃŃ
I E
Ġodpoved e
c s
tis ÃŃc
Ġjedno tky
pe ra
Ġk nÃŃh
Ġvy Å¡et
ĠRus ko
ĠÄ¾ud skÃ©ho
ÄĮas to
Ġstret nutie
tÃ¡ cii
Ġpravide l
ran tov
ĠvÃ½ vo
Ġzi sk
la y
Ġce stou
lÃ¡ rne
Ġnaz Ã½
ĠsociÃ¡l nej
Ġnut nÃ©
Äį enÃŃm
Ġz bra
ve l
Ġobsah ovaÅ¥
Tak tieÅ¾
ĠsprÃ¡v ny
N ovÃ½
eno sti
B uÄı
Ã³ z
Ġh lÃº
ĠS p
ĠprÃŃtom nosÅ¥
Ġ200 3
it co
ĠY ou
ĠtakÃ½ to
B y
ĠuÅ¾i toÄįnÃ©
Ġvo pred
Ġob vyk
ĠprevÃ¡dz ky
Ġsprav iÅ¥
Ġumie st
Ġod va
Ġf lexi
Ġroz p
Ġvozid lo
Ġboj i
ĠvÃ¤Äį Å¡ine
Ġmi los
ĠskutoÄį nÃ½
Ġkomis ie
ĠV iano
Äį ke
toÄį nÃ¡
ĠzaujÃŃm avÃ©
Ġsk r
ĠÃºÄį tu
Ġu Å¾ÃŃ
tov Ã©ho
Äį uje
Ġpl nÃ½
ĠponÃºka jÃº
Ġfil mu
ĠnenÃ¡ vi
Ġfunk ciu
t ina
Ġ =
Ġan je
Ġroz sah
Ġprac ujÃº
Ġved el
ĠâĢ ĭ
li te
Ġzozna mu
Ġfunk ciÃŃ
Ġos lav
ĠnajvÃ¤Äį Å¡ie
Å¡ ky
ra Å¾
ĠakÃ½ch koÄ¾vek
v Ãº
Ġpoved ali
ĠsprÃŃ stup
Ġzdrav Ã©
Ġne roz
A si
Ġnedo kÃ¡Å¾e
Ġvytvo rili
Na Å¡a
t nÃ½m
Ġ: )
ra mi
Ġpo ch
ĠspÃ¡n ku
V ide
Ġdlh Ã©
on al
Ġdva ja
o zaj
ĠvÃ½sled kom
Ġli n
Ġbi skup
ĠSpoloÄį enstva
Ġp ies
N av
Ġkon cov
ĠaplikÃ¡ ciÃŃ
Ġzisti li
ĠÄįlenov ia
chod om
or ld
ĠÃº spo
Ġpred aja
ĠA s
Ġodh ali
M Ã´Å¾u
Ġregi Ã³ne
Å¾ te
Ġem Ã³
ĠÄįo ho
Ġne znamenÃ¡
lov Ã½ch
Ġpo Å¾eh
li la
Ġ Ãįr
s iÅ¥
Spo lu
Ã¡l nou
A C
ĠÅ¡tand ar
org ani
Ã½ch od
Ġm obili
Ġre Å¥az
o to
be l
Ġn Ãºd
Ġa ka
Ġz nie
lie b
ĠQ u
ĠpÃŃs aÅ¥
Ġpreh liada
ĠkÃ³ d
m ar
sti li
Ġpod vod
Ġh lu
D Ãºfam
ĠCir kev
Ġply nu
t enÃ½
ĠÅ¾en u
ĠÅ¡ o
Ġpro ro
ĠB u
ĠnÃ¡ po
Ġoby Äįaj
Ġdo hovoru
Ġna Å¡iel
ti tu
t enÃ©
Åł tÃº
Ġf esti
Ġve ciach
ĠZ mlu
Ġ gi
6 0
c vi
Ġpod obe
Ġpreh liad
Ġume le
Ġkandi dÃ¡
ĠS ta
ÄįÃŃ t
T r
ĠreÅ¡pe kt
av Ã¡
tov Ã¡
ĠG re
ĠsÃºÄįas nej
ĠSt ar
Ġverej nÃ©
ĠpouÅ¾i tÃŃm
Ġak ti
kov ia
Ġna inÅ¡tal
ĠsprÃ¡ vania
ĠUS D
Ġkomuni kÃ¡cie
Ġvy hov
Pro sÃŃm
ĠplÃ¡ ny
Ġsrd ci
I V
Äį ko
Ġko na
ĠÃºspe chu
U rob
ov iet
ĠIn di
Å¡ ne
ar iad
ĠvytvÃ¡ raÅ¥
men y
ĠTu rec
ĠdÃ¡ ta
Ġdosta la
ra c
ie te
Ġre aliz
ĠvzdelÃ¡ va
ho w
stÃºp il
ĠC O
Ä¾ ujÃº
na p
lym pi
Ġjazy ku
Ġdisk ri
mi l
ĠB la
d sia
ĠneprÃŃ jem
Ġh armo
Ġpodpo ra
Ġpren asled
t va
ĠÅ¡ Ã©f
ĠdÃ´ ver
Ġbli Å¾Å¡ie
Ġstred nej
ĠAust rÃ¡
Ġposti hnut
Ġg rÃ©
M S
ve ry
Ġplo d
ĠmetÃ³ da
Ġskon tro
Ġod Ã´vod
Ġkom pon
Ġkal end
Pred stav
ĠnemÃ´Å¾e m
ĠÅ¾iad en
Ġhovor ÃŃm
i ru
Ġameri ckÃ½
Ġz riedka
Ġst ud
Ġpriprav iÅ¥
Ġpo hÄ¾adu
ĠpovaÅ¾ ovaÅ¥
ov ou
Ġse ktor
ĠnemÃ¡ te
ĠÃº verov
w ard
Ġnap Ã¤
pi ne
3 5
v rÃ¡t
ĠP h
Ġla borat
ĠÄįak aÅ¥
Ġp en
Mus ÃŃte
vÃŃ t
ĠP rÃŃ
Ġchod iÅ¥
s er
Ġstre tÃ¡
Ġpo pred
Ġpartne rov
Ġemi siÃŃ
Ġm lÃ¡
Ġst vo
Z na
Ġju Å¾
ĠkrÃ¡Ä¾ov stva
va lo
f y
Ġne rv
Ġne h
ĠdÃ´kaz y
Ġst roj
Ġvo lÃ¡
Ġpro fil
Ġstra ty
Ġdob rod
Ġdo kÃ¡Å¾u
ĠK an
Ġstre s
Ġbudov y
Ġin om
vo je
Jed na
Ġpotreb u
Ġo ku
j as
tr vÃ¡
ĠsÃŃ l
ĠB ru
Ġk lÃ¡
Ġvy lepÅ¡
Ġnaj bliÅ¾
ĠrÃº k
hov o
ĠsluÅ¾ ba
Ġvy poÄį
ĠrozÅ¡ÃŃ r
Ġkni he
Ġt Ã©mu
ty ch
ĠB M
Ġhodno tenie
Ġkvali ta
V tedy
Ġvz hÄ¾ad
âĢ ĺ
p aÅ¥
Ġpoved anÃ©
ti k
kov Ãº
Ġvod ou
Ġte bou
Ġpopu lÃ¡r
Ġser vis
jÃºci m
Ġniek de
ĠsÃºbo rov
ĠÄįlen skom
ĠprÃ¡v ni
Ġmen iÅ¥
Ġak om
Ġin ÃŃ
ĠpÃ¡ peÅ¾
z ol
Ġdigi tÃ¡lne
Ġd ane
ĠpÃ´sob ÃŃ
st ÃŃn
Ġkon anie
Ġb rÃ¡
r ovanÃ©
t nÃŃ
on y
Ġelekt r
kov o
Ġmen om
M edzinÃ¡rod
ĠÄı akujem
ĠurÄį enÃ½
Ġp iÅ¥
ĠV al
Ġob zvlÃ¡Å¡Å¥
Ġved eli
ĠvÃ½ boru
Ġtechni ckÃ©
Ġpre jsÅ¥
ĠreÅ¡pe k
Ġuved enÃ©ho
ĠzÃ¡uj my
ĠIn ter
ra ku
Ġja pon
ĠdÃ¡tu m
te li
ĠhospodÃ¡r skej
Ġop ÃŃs
ĠbezpeÄįnost nÃ©
Ġpo by
ĠnÃ¡ hra
Ġuda losÅ¥
Ġspravod livosti
ĠskÃºseno stÃŃ
en ta
ste ro
ĠlÃŃ d
je me
Ġa udi
Ġpopu lÃ¡cie
Ġe li
ĠUni ver
Ġpria telia
ĠpomÃ´ Å¾u
Ġvy be
Na koniec
ĠD r
ĠHo spod
Ġmomen tÃ¡lne
Å¡te v
Ġvoj ne
Ġper fek
Ġm g
Ġb iel
ĠâĢĭ âĢĭ
ĠvnÃºtroÅ¡tÃ¡ tne
Ġstar Ã©
Ġst rav
Ġc udz
Ġpe ÅĪaÅ¾
Ġme sa
ro ti
ĠmÃ©di ÃŃ
Ġsna Å¾ia
Ġu ch
Ġhor m
ZÃ¡ klad
zi st
Ġdosia hli
Ġdie la
Ġtla Äįi
ĠslÃº Å¾iÅ¥
ni u
Ġdo hoda
Ġf areb
rÃ¡ ch
Ġpre kon
ĠvÃ½ko nu
Ġadre su
kÃº nd
ien ky
Ġhor Å¡ie
NÃ¡ Å¡
Ġzach rÃ¡niÅ¥
ĠmateriÃ¡l y
ĠorgÃ¡n mi
ĠpÃ´vod ne
Poz ri
lÃ¡ va
Ġdistri bÃº
ĠklÃŃm y
po Å¡
Ne e
ĠbudÃº ci
Ġostat nÃŃ
Ġalbu m
D A
ra zi
tÃº re
R u
Ġpo znamen
Ġhud bu
Ġne rob
Ġnedosta tok
Ġned Ã¡
% .
Pr vÃ¡
on us
Ġsie tÃŃ
ĠzniÅ¾ uje
D om
tÃŃ n
M an
Ġpot ra
s lan
Ġzaj tra
ĠnÃ¡ hod
Ġdruh Ãº
me re
ĠE u
or y
Ġzmlu vu
Ġspoluprac ovaÅ¥
ĠÃºÄįast nÃŃkov
Ġ Naj
ĠÅ¡ko dy
Ġpre mie
Ġimple men
nov Ã©
ck er
Ġnasled ujÃºce
Ġrov no
ĠS h
Ġz le
Ġpre Äį
Ġmal Ã¡
Ġrizi kÃ¡
g al
Ġdro g
la tÃŃ
rÃ¡lne ho
Ġuved enÃ½
Ġrozu mie
R O
Ġtu risti
Ġarg u
T eda
Ġvy vÃŃja
Ġs mart
Ġkonkuren cie
Ġtr Ã©
ĠrÃ¡ mec
Ġpo pis
Ġm Ã½
ti ne
Ġhy po
ĠvÃ½ hrad
ĠzaloÅ¾ enÃ½
teÄ¾ nÃ½ch
a pa
Ġmaje tku
lo Å¾ÃŃ
ĠÄ¾ ad
Ġvz ruÅ¡
ĠvÃŃ k
st nÃ©
ĠspÃ´sob enÃ©
ĠFrancÃºz sku
ve Ä¾
Ġvyrob enÃ©
Ġposkytov a
ĠW ashing
ĠpriateÄ¾ mi
Ġviace ro
Ã© ra
ovan om
ĠO ffice
ĠÄįak Ã¡
pe l
Ġz rejme
ĠdievÄįa tÃ¡
Ġtr en
Ġrozhod nutÃŃ
ol ÃŃ
ĠpovaÅ¾ ujÃº
A kÃ¡
Ã© rov
Ġvy sky
Ġabsol Ãºtne
ĠMa c
Ġdostane te
âĢĿ ,
ĠzdieÄ¾ aÅ¥
Ġpri de
za li
ĠslÃº Å¾i
ĠV i
Ġw e
ĠÃºÄįin nÃ©
Ġisla m
Ġso bo
ck ÃŃ
Ġslov a
ro ÄįnÃ©
Ġu vaÅ¾
Ġex per
Na miesto
po ra
Ġex ter
Ġza se
Ġra du
ĠO rgani
Ġzbav iÅ¥
Chce l
x y
Ġcie n
Ġsp rostred
ĠRu sku
Ġzd ieÄ¾a
r ovanie
Ġotvor enÃ©
gres ÃŃv
Ġdoku ment
t ovanie
ĠeurÃ³p skeho
as e
Ġk les
Ġstran u
Ġ200 2
ĠodstrÃ¡n enie
ĠzaujÃŃm a
tÃŃv u
Ġbo de
ĠP an
terna tional
Ġse kÃºnd
Ġmeta bo
ĠBritÃ¡ nii
Ġvoj na
Ġus mer
zÃŃ k
ĠnaÅ¡i mi
Ġdo hÄ¾adu
vo lu
ĠtechnolÃ³ gia
av id
3 7
ĠzaÄįa lo
Ġinteli gen
In formÃ¡cie
Ġna raz
ne te
Ġope rÃ¡cie
Ġch rb
ĠRu ska
ĠtvÃ¡ re
i lu
Ġakti vÃŃt
ĠB el
ra h
ĠM in
Ġpoli tickÃ©
Ġk Åķ
Ã³ri ÃŃ
P or
z li
mestn an
Ġjed inÃ¡
S P
Ġpoz naÅ¥
ĠpamÃ¤ ti
ĠoÄįak Ã¡vaÅ¥
Ġb om
ĠÃºlo hou
ali for
Ġklu b
Ġten den
Ġprie sto
8 0
Å¥ ou
Ġper son
ĠsÃºvis iacich
ĠBra tisla
Ġsp ie
Ġplat nosti
Ġh ro
ĠS ch
Ġmode lu
ĠvykonÃ¡ vanie
Ġpo bo
Ġg a
P Ã¡n
Äį nÃŃ
ĠpoÄįÃŃta Äįov
Ġ200 1
mo c
r den
Ġtex t
Ġminu lÃ½
ĠsÃŃ d
Ġlie Äįi
Ġre cep
ĠÅ¡i ro
Ġpoci ty
Ġpred poved
TakÃ© to
Ġvysok Ãº
ĠÃº tok
Ġener gi
Ġge o
Ġpre prav
Ġpsy cho
ma z
Ġf an
Ġas ist
o bou
ĠM y
ĠprÃŃspe vok
ri tu
ĠmedzinÃ¡rod nÃ©ho
ĠÃºzem ia
ĠnÃ¡zor y
ĠÅ¡ tvor
ĠvyrieÅ¡ iÅ¥
Ġkil omet
Ġko le
âĢ Ķ
ov Ã½mi
ĠmnoÅ¾ stva
Â »
Ġved ci
Ġpriprav enÃŃ
ĠznÃ¡ ma
vo daj
ĠzaÄįia tkom
ĠA c
Ġry b
ĠvÃ½ro bok
Ġvys lov
Ġz u
ĠzÃ¡sad y
Ġpam Ã¤Å¥
Ġa no
ĠB en
Ġnarod il
Ġskve lÃ½
ï ¿
stu pe
Ġzdra votnÃ©
ĠvzdelÃ¡ vanie
Ġpre chÃ¡dza
Ġtero risti
Ġver ziu
ov in
Ġposkyt ovanie
Ġsp Ã¤
st v
Ġhud by
Ġd Ãºf
Ġv irtu
Ġza mie
Ġu ve
ï¿ ½
Ġre pro
3 3
Ġposled nej
ĠeurÃ³p ske
Ġzne uÅ¾ÃŃ
sta va
Ġods Ãºd
Ġza ist
A L
Ġpodni ku
Ġzne pokoj
ina mi
ĠvesmÃŃ r
s ho
ĠsÃŃ ce
ĠstÃ¡ Å¥
Ġza vo
Ġtak Ãº
Ġpoliti ka
Ġtitu l
ĠnemÃ´Å¾e me
Ġm enia
kÃ¡za lo
Ġod hod
lia n
Ġrozdie ly
Ġu sil
Na ozaj
Ġod ÃŃsÅ¥
Ġj av
or ge
ĠR akÃº
C o
Ġzozna me
ĠÅ¾ alo
Ġa p
ĠÄįlen skÃ½mi
Jed no
je te
ĠÅ¡Å¥ast nÃ½
F i
NÃ¡ zov
Ġochran a
sky mi
Ġ15 0
B e
st aÅ¥
ĠuÅ¾ÃŃva teÄ¾ov
Ġoble Äįenie
Ġokam Å¾i
ĠvÃ½rob cov
Ġskup inu
N i
Ġsu rov
O R
Ġsp rievod
Ãº r
Ġbo dy
nes ie
Ġotvo riÅ¥
ĠM u
ĠP er
Ġzab ezpe
ĠY ork
Ġmo ra
Ġak tiv
Ġsta bil
Ġjazy ka
Ġsku pine
ĠnedeÄ¾ u
Ġb av
be h
di te
Ġprin ies
O V
da la
ĠV ol
Ġvie ru
chov Ã¡va
ĠKrist us
Ġpre klad
Ġu to
men ty
ĠÅ¡pecia liz
Ġdokumen ty
ĠN ie
ĠodporÃºÄį ania
nÃŃ cke
le kt
ĠK rÃ¡
Ġmedi cÃŃ
c an
ĠE gyp
Ġroz sud
Ġv Äįas
Ġsi la
B C
Ġmys lia
sÅ¥ ah
Z ÃŃ
ĠveÄ¾k Ã©ho
Ġsp a
Ġpod lieha
C ÃŃ
ĠrozpoÄį tu
s ch
la r
tÃŃvne ho
Ġvedom ie
Ġtvr dia
tov a
Ġmesia ca
rom ad
Ġu Å¡et
Ġmil uje
sy stÃ©
Ġrast ie
Ġjed la
V Ã¡Å¡
19 9
k ovanÃ½
Ġru ku
ĠhÄ¾ad ajÃº
Ġmys li
N ovÃ©
de lok
ĠS u
Ġd ali
Ġo le
ĠlekÃ¡ ra
tÃ¡ t
ĠÅ¾ivo ty
PoÄį et
ĠproblÃ© mu
ĠstrÃ¡ ca
Ġprinie sÅ¥
Ġnov inÃ¡
ĠspoloÄį nÃ©ho
Ġâ ĨĴ
Ġdod Ã¡v
ĠP et
ĠÃºra du
Ġs cÃ©
Ġvysok Ã½
Ġukaz ujÃº
ĠC or
Ġos vet
Ġmateri Ã¡lu
Ġh an
ĠT wit
Ġskve lÃ©
Ġver zie
T ri
Ġreak cie
P roblÃ©
ob chod
Ġo Äįa
Ġkom u
Äįia ch
ĠvyuÅ¾ÃŃva jÃº
E O
skÃ© mu
Ġsa mov
Ġcvi Äįenie
Ġpred Ã¡va
Ġh lÃ¡s
Ġsy nov
Ġch rÃ¡ni
Ġzost ane
Ġma tky
Ġ $
ĠpouÅ¾ÃŃ vanÃ©
ra lo
Ġkon ver
ĠpoÄįÃº vaÅ¥
Ġâ Ĥ¬
Äį Ãº
Ġpot vr
D va
ĠW e
O ni
Ġh r
ko hol
Ġu kÃ¡zaÅ¥
Ġnad Å¡
lo ud
ĠEurÃ³ pa
Ä¾Ãºb enej
Ġpodpo riÅ¥
ĠB ro
Ġdokumen tov
Od porÃºÄįa
Ġko leg
Ġameri ckej
Ne skÃ´r
ĠsluÅ¾ ob
Ġproce se
za le
Ã¡lny mi
tÃŃv nu
Ġnos iÅ¥
g Ã©
Ġply nov
Ġhist Ã³rie
Ġhla vu
pre du
ĠÅ¡ paniel
Ġprijat Ã©
Ġro kom
Ġne kone
men o
Ġa b
Ġp sov
Ġse k
olÃ³ g
ĠÃº toÄį
k lu
ĠprÃŃ pravy
m b
ĠÃºpri m
Ġbo Å¾
Ġkrajina mi
Ġvy po
Ã½ b
Ġde vÃ¤Å¥
Ġrast liny
t kou
ĠzÃ¡uj mov
ĠII I
Ġm on
ĠmÃ©di Ã¡
ĠzÃ¡ konom
Ġu ÄįenÃŃ
Ġmani pu
Ġrok ovania
3 6
ÄĮ lovek
Ġpor t
ĠnegatÃŃv ne
Ġsc enÃ¡
Ġmode ly
Ġfinan Äįnej
ĠT y
Ġnad mer
Ġch rÃ¡
si ty
Ġ ly
ĠzabezpeÄį enia
f gan
Ġdobrod ruÅ¾
ta jÃº
ĠinovÃ¡ cie
M ala
r chu
Ġpom aly
Ġustanov enÃŃ
Ġos pravedl
ĠvÃ½lu Äįne
ĠkaÅ¾d oro
ĠÃºspeÅ¡ ne
Ġpo chÃ¡dzajÃº
m al
Ġu byt
Ġprav dy
Ġb raÅ¥
ve st
Ġcvi Äįenia
Ġu p
Ġmesiac och
Ġzach rÃ¡ni
Ġd rÃ¡
Ġpolovi ca
ve s
Ne bude
Ġmiest nych
ĠÃº st
Ġfir ma
v tedy
ne d
ĠinÅ¡titÃº ciÃŃ
ri d
ĠnajvÃ¤ÄįÅ¡ ou
Ġdi va
rÃ¡ tor
is a
Ġvi zu
Ġza rad
st an
vied ol
pra vod
h al
Â ®
ĠmyslÃŃ te
Ġnaj star
Bo huÅ¾iaÄ¾
Ġt ich
rÃ¡ ciou
ĠÄıal Å¡ÃŃm
Ġzmen e
Ġin Å¾in
ĠÅ¾ivo tom
de li
so ci
Mo je
Ġri zÃŃk
Ġpod ne
Pr vÃ©
ĠvÃ½z vy
ĠÃº drÅ¾
av Ã½ch
ĠtÃ½Å¾ den
Ġi g
N iÄį
z ou
Ġ7 5
s mi
ber te
Ġpredme tom
Ġse ve
Ġdruh Ã¡
Ġevanje li
Ã¡ li
ĠI P
ran ia
Ġkomen tÃ¡
ĠchvÃŃ li
Ġsrd cov
de mi
ĠK eÄı
ĠprÃŃtom nosti
Ġkde koÄ¾vek
Ġh omo
ky ÅĪa
Ġjednoduch Ã½
ĠtelevÃŃ z
Ġsp ust
ti ci
n Ã´t
Ġpria my
ĠinfraÅ¡truk tÃºry
ĠS am
Ġin teri
ĠvrÃ¡ til
lov Ã¡
Ġpodnik ania
M ie
Ġpoli tickÃ½ch
Ġpo men
pu stiÅ¥
Ġdiev Äįat
n enÃŃm
ĠC an
Ġkon tin
Ġde leg
Ġos ud
V ÃŃ
Ġkoord inÃ¡
Ġhum ani
ĠGro up
Ġpo Å¾i
S poj
Ġameri ckÃ©
Ġh u
Ġbi zni
Ġur Ã½ch
kov i
loÅ¾i li
Za ujÃŃm
Ġcez hrani
Ġlo de
ÃŃ nu
Äİ alej
Ġne hovor
Ġf Ã³
Ġroz li
Ġabsol v
Hovor ÃŃ
ĠÅ¡ie stich
Z ob
isti Å¥
Ġh raÄį
ĠÄįlove kom
ĠveÄ¾ kou
Ġra ÅĪaj
ĠzvyÅ¡ ok
ch Ã¡
E HS
liz mu
Ġnap ÃŃ
Ġvon ku
ĠzÃŃska la
lin g
Ġprav di
ĠMich a
Ġpl nÃ©
Ġ )
ĠprÃŃ prav
Ġsto li
Ġje m
Ġhlad iny
Ġovplyv niÅ¥
E L
Ġo r
ĠÅ¾ l
ĠprÃŃlo hy
te k
Ġstret nutia
p al
Ġangli Äį
Ġnepria teÄ¾
Ã³ nom
b an
Å½i vot
er y
Ġmie stom
ĠÅ¡ am
ĠÅ¡tud ent
ĠkÃºpe Ä¾
ĠdÃ´ve ru
ĠprijÃŃm aÅ¥
Ġko lo
a me
Ġb Ã½
ci ona
ĠK e
Ġkon tra
rist ov
Ġpoten ciÃ¡lne
ti p
Bude me
Ġod d
Ġmlad ÃŃ
Ġpos vÃ¤
f u
rov ali
Ġty pi
ĠEurÃ³p sky
Ġvyjad r
Ġvie Å¡
ĠvÅ¡et kom
ĠdrÅ¾ aÅ¥
bri d
ĠmÃ¤ so
Ġspoj enie
Ġfoto apa
Ne mus
ĠdomÃ¡c nosti
nov a
Ġstanov uje
Ġd ajÃº
Ġuspo riad
Ġb ar
ĠÅ¡ ia
ĠMa Äıar
3 1
Ġt va
Ġcen tre
ĠÃºÄįin nosti
Ġpo klad
Ġspo n
H O
Ġs mu
ĠvyuÅ¾ÃŃ vanie
Ġtr hy
F rancÃºz
Ġovo cie
Ġne be
ĠTrum p
ĠvykonÃ¡ vajÃº
ĠsoftvÃ© ru
Å¾i v
Ġodpoved aÅ¥
ĠdomÃ¡ ce
ĠdÃ´ raz
Ġv ak
ĠÃº nia
Ġbiel kov
c ovaÅ¥
Ġvy tr
tov i
R ob
Ġu menie
Ġo ÄįÃŃ
a ch
Ġom noho
Ġz hod
ĠÄįias toÄįne
ĠzdÃ´raz ÅĪuje
Ġpodporu jÃº
Ġnemo hol
Ġkre atÃŃv
ĠÄįom u
is s
ĠponÃºk nuÅ¥
ob Ä¾Ãºbenej
3 4
Ġstran ami
V id
Ġja z
Ġnov om
Ã¡r ia
ĠV o
ĠspoÄįÃŃ va
lad u
ĠprÃŃro dy
Ġvo la
Te ch
Ġpartne rom
Ġpo j
ĠvlÃ¡ k
zÃ¡ cii
Ġa na
Ġminu lÃ©ho
Ġzab iÅ¥
teÄ¾ nosÅ¥
Ġpon delok
ĠW ar
Ġaugu sta
St ar
ĠnÃ¡rod nÃ½ch
ĠIn ternational
Ġdipl oma
ĠR i
Ġmaxim Ã¡lne
Ġdost Ã¡va
Å¥ah uje
Ġzab ÃŃ
ĠpÃ´ dy
Ġoz broj
Ġ #
Ġzjed nodu
Ġmilos rden
Ġodpad u
ĠzÃ¡Å¾i tok
O be
Ġnaj ne
ĠÄĮÃŃ ny
ĠE d
ĠÃº stav
p in
Ġs nÃŃ
ĠnebezpeÄį nÃ©
Ġkon Å¡ta
ĠÃº c
ĠÄįas om
ĠNA TO
ĠE C
TÃ½m to
Ġpri Å¡la
ĠZ em
Ġexist ovaÅ¥
Ġpo cho
Ġjedin Ã½m
Ġm enÃ¡
Ġpia tok
ova teÄ¾ov
Ġobnov iteÄ¾
H od
isÅ¥ ov
Ġhod nÃ´t
pl an
Ġkilomet rov
Ġk vap
ĠBoÅ¾e j
Ġma ma
di v
k al
Å¡ nÃ½
ĠÅ¡tÃºdi ÃŃ
Ġtajom stvo
Ġb onus
Ġpres u
ran d
' s
M ar
ĠLondÃ½ ne
Chce me
ĠE l
Ġne sko
Ġdo chÃ¡dza
v ka
Ġspravod livosÅ¥
Ġhodnot enia
nÃ¡ Äı
T Ãºto
ĠZ emi
Ġschop nÃ©
e sÅ¥
Ġko re
ĠiP hone
ĠuÅ¾ÃŃva Å¥
Jednodu cho
Ġkvali fi
ĠzakÃ¡z anÃ©
Ġpok rok
ĠtÃ¡ bo
ĠÄıalÅ¡ÃŃ mi
stat nÃ©
rÃ¡ ti
Ġrast lÃŃn
kaz ujÃº
Ġvy nÃ¡
ĠtrÃ©n ing
ĠdÃ´leÅ¾i tej
Ġzahrani ÄįÃŃ
Ġekonomi ky
Ġm m
Ġre cyk
Ġdosia hnu
Ġzameran Ã©
sp ie
Ġprest aÅ¥
Ġvytvo ril
Ġza stup
ĠmanÅ¾el stvo
Ġru kÃ¡ch
f o
Ġzapla tiÅ¥
ĠlÃ¡ ske
Bude m
Ġza kÃºp
ĠM al
Ġnaj vÃ½
Ġstar Ã½
ĠvyuÅ¾i tie
sta lo
Ġgra fi
d ar
Ġp Ã¤
ĠrozprÃ¡ vaÅ¥
ĠÄįlÃ¡n kov
Ġni jak
Ġpoze raÅ¥
t ke
kÃ¡ cii
Ġmi ne
ĠnÃ¡vr hy
z om
hov al
Ġoce Ã¡
Ġvyso kÃ¡
ĠprÃŃ stav
Ġob chode
eru zale
Ġdo ruÄį
Ġope ra
Ġpredpoklad u
ĠAn dro
Ġrozm ani
ed ia
ĠvÃŃ ru
Ġostat nÃ½m
ĠM us
Ġ4 00
ĠzvlÃ¡ Å¡t
ĠAle x
Å¡a jÃº
Ġ lov
Ġpod pis
Ġsp Ã¡ch
Ġroz h
chu t
li i
Ġpo byt
Ġ x
va teÄ¾
ĠakÃº koÄ¾vek
ĠlieÄį ba
po li
ĠW EB
Ġce lÃ¡
Ġfak tory
Äį len
SÃº Äįas
Pon Ãº
3 2
Ã½ r
Ġcest ovaÅ¥
by tok
Ġprek ro
Ġau tÃ¡
Ġhlav nÃ½
Ġcuk ru
Ġenvironmen tÃ¡l
Ġzmen ÃŃ
ĠI T
ĠbeÅ¾ nÃ©
Ġve ter
Ġspo tre
v Å¡et
ĠÅł vajÄįiar
Ġofi ciÃ¡l
Ġrozhod la
Ġg Ã©
ĠzaÄįÃŃna jÃº
ĠprÃŃsluÅ¡ nÃ½
Ġzare gist
Ġ y
Ġu menia
Ġaktu Ã¡lne
Ġm l
Ġdruh Ã½m
ĠprÃŃrod nÃ©
Ġtk ani
Ġpre ÄįÃŃtaÅ¥
Ġchor Ã´b
r ovanÃ½
op ak
ĠHol and
ĠoÄįak Ã¡
inte res
Ġvhod nÃ½
ĠÄį isto
ct va
Ġformu lÃ¡
ĠbezpeÄįnost nÃ½ch
ĠBM W
nu tiu
Ġso ciÃ¡lny
Ġa ud
Ġce lo
ĠH u
bu z
Ġpohy bu
Ġod rÃ¡Å¾
Ġuni verz
ĠdodrÅ¾ia vaÅ¥
Ġv stÃºpi
Ã¡ t
Ġtechni ky
Ġspra vodaj
ĠÅ¡ tÃŃ
Ġriad iÅ¥
Ġuplat ÅĪovaÅ¥
klad ne
3 9
ĠsociÃ¡lne ho
Ġhvie zd
Ġobrov skÃ©
ĠoÄįak Ã¡vania
Ġpo Äıak
Ġcook ie
Ġ *
Ġdovo liÅ¥
Ġzjed no
n g
tÃ¡ n
Ġne re
k ry
Ġpresad z
Ġproto ko
A p
tra s
klu zÃŃv
Ġak ciÃŃ
ĠprÃŃj mov
s l
Ġnemus ÃŃte
ĠÃº sme
Ġfor ma
Ġpartne ra
ĠanalÃ½ zy
Ġalkoho lu
ĠzruÄį nosti
Ġradi k
Ġna ruÅ¡
Ġmen Å¡ie
Ġsna Å¾iÅ¥
ĠZe me
Äį an
ĠpomÃ¡ haÅ¥
rov ej
Nie Äįo
Ġd anej
s lÃŃ
ĠinvestÃŃ ciÃŃ
Ġbo ha
Ġle s
Ġrovnak ej
ĠuÅ¾ÃŃva teÄ¾
Ġfi riem
ĠnÃ¡ rast
ĠÃºze mie
om i
L Ã¡
Ġprogra me
ĠÃºlo ha
Ġdistri bu
ĠuteÄįen cov
Ġbi o
Ġpo stoj
Ġdo le
D Ã´vod
R Ã½ch
P P
Ġma g
ĠÄ¾ud stva
ĠnÃ¡ rok
Ġv iano
Ġh Äºb
Ġs mie
Ġtechni ckÃ½ch
ro s
u Äį
sÅ¥ a
Ġpotreb nÃ¡
ĠkÄ¾ÃºÄį ovÃ©
ti ve
Ġby tosti
ĠpozÃŃ cie
ĠnavÅ¡ tÃŃ
ĠkrÃŃ zy
ĠN or
ĠzloÄį in
K Ã½m
Ġokami hu
Ġau ta
Ġproce sov
Ġz bo
ĠÃºÅ¾as nÃ©
ĠFacebo oku
ĠnesprÃ¡v ne
Ġemo cion
b Ã¡m
Ġkontak tu
A M
Ġsp ad
Ġ% .
ĠP C
ĠpouÅ¾ÃŃva te
Ġdefin ÃŃ
lov Ã½
bo l
ÅĪa mi
Ġe t
pust enie
Ġlu xus
Ġstanov iÅ¥
mÃ½Å¡Ä¾ aÅ¥
ÃŃ nov
U S
Ġstre du
enÃº Å¥
Ġsie ti
ĠMe xi
Ġkonkurencie schop
Ġjednotli vÃ©
Ġkro kom
Ġs Ã©rie
Ġhlbo ko
ĠT V
kov ali
Ġva Å¡i
ovan e
ru ba
Ġosob e
vrÃ¡t ane
o stÃŃ
Ġto xi
ĠB ud
Ġmil ujem
t kami
Ġn om
ko rd
ĠkritÃ©ri Ã¡
Ġpre ruÅ¡
ÅĪ ovania
ĠHar ry
Ġprih lÃ¡s
Ġdie lo
Ġinter pre
ĠÅ¾ivo ÄįÃŃ
Ġjedno zna
Ġreag ovaÅ¥
Ġv in
Ġz me
ja zd
Ġharmo ni
Ġj ar
ta jte
ĠÅ¡k Ã´l
Ġsp aÅ¥
Ġmo ri
Vy h
ĠSloven skej
ske mu
Ġtla ku
Ġneu rob
OtÃ¡z ka
Ġdiskri minÃ¡
Ġprob le
ĠnÃ¡rod nej
Mus ÃŃm
Ġkontak t
Ġv Å¡im
Ġmechani z
ĠuÄįi teÄ¾
ci t
ĠÅ¡tÃ¡t nej
Ġ3 2
ĠdÃ¡v no
Ãº Å¥
Ġi zrael
m s
Ġobsah om
Ġvyh raÅ¥
Ġb ru
Ġzo stav
ĠnapÃŃs aÅ¥
Ġvy hodno
Ġcharakteri sti
Ġprirodz ene
Ġtehoten stva
bi o
Ġne pov
Ġodbor nÃŃkov
Ġprimeran Ã©
Mys lÃŃ
pe v
ĠpozÃŃ ciu
Ġmoz og
ĠF i
ĠvytvÃ¡ rajÃº
en er
ĠprÃŃrod nÃ½ch
ĠvyskÃº Å¡aÅ¥
ĠmlÃ¡ de
Ä¾ ovania
mu n
ĠJ eruzale
ĠvÃ½znam nÃ©
Ġobran y
Ġp y
Ġob sta
Ġde mon
j me
Ġpotreb nÃ½
Ġzmen il
Ġma te
Poved al
Ġs v
Ġoko lÃŃ
tivi ty
Ġbo du
ĠUniver sity
ĠhÄ¾ad Ã¡
ĠzÃ¡p al
L ie
Ġzane ch
ĠSÃ½ rii
Ġch iru
Od poveÄı
Ġpri spe
Ġz ved
Ġponu ku
Ġmi lujÃº
Ġa zy
Ak tu
ĠJa ck
Ġfon du
Ġodst ra
r t
ĠW i
G o
Ġ lÃº
pi la
ĠDu cha
rÃŃ p
ĠM art
ĠÄıalÅ¡ie ho
Ġcharak ter
Ġpo nech
w ay
VÃ½ skum
va te
Ġhmot nosÅ¥
ĠnÃ¡vÅ¡tev nÃŃkov
ĠÃº nii
ĠB ie
Ġvytvo rÃŃ
ĠAn d
ÅĪ om
Ġza interes
ja ko
Ġpo za
Ġb it
Ġtvo ja
va mi
Ġho sti
s ol
p ar
Ã© mi
k ri
Ġtr hoch
ĠdcÃ© ra
Ġreg ul
3 8
Ġprijat ie
Ġener gia
Ġnemu sia
Ġ rÃŃ
u la
Ġna sad
ĠAmeri ky
nap rÃŃklad
Ġle gen
ber g
A P
Ġprv kov
Ġban ka
Ġzab i
ĠhrÃ¡ Äįi
Ġna ro
st rÃ¡n
ĠÄ¾ah Å¡ie
ha jÃº
Ġjazy kov
ĠÄ¾ud stvo
E M
ĠNemec ko
Ġob jem
Ġpek nÃ©
ĠIzra ela
ĠsÃºhla su
x t
ĠpokraÄį uje
Ġdo j
Ġfor mou
ma tickÃ©
roz prÃ¡
ĠzÃ¡uj mu
ĠspÃ´sob mi
Ġpolovi ci
Ved ci
vo de
vo l
ĠÄįlÃ¡n ky
ÅĪ ujeme
Ġameri ckÃ©ho
ko sÅ¥
Ġdruh Ã½ch
Ġmo rÃ¡l
S pom
Ġfinanc ovania
Ġu ÄįÃŃ
ĠÄįlove ku
Ġzost Ã¡vajÃº
ovan ou
pla tok
Ġvoj nu
ĠP ra
jed nodu
Ġob aja
Ġkomuni ty
ĠW orld
Ġkom pli
Ġka meÅĪ
ĠhospodÃ¡r stva
Ġdosia hne
Å¾ ÃŃm
ÅĪ och
Ġsta ÄįÃŃ
ĠS to
Ġkedy si
Ġrovnak Ãº
Ġpovin nostÃŃ
Ã ¼
nosÅ¥ ami
m Ã©
Ġu zdrav
c on
Ġpam ia
ĠÄįlen skÃ½m
ĠÄįa stejÅ¡ie
ĠÃºdaj ne
po zi
Ġprak ticky
ĠK u
Ġfil my
ĠpouÅ¾ÃŃva teÄ¾a
Ġvyjad ril
ĠprÃŃpad y
Ġza rob
Ġaktu aliz
ĠlÃ¡ skou
Ġmode lov
T ra
ĠT ra
ĠÃºÄįa sti
Ġprij ali
en ty
Ġeu roz
S vet
Ġst Äº
Ġverej nosÅ¥
Ġtla Äį
m p
Ġp ilo
Ġd Ã¡vaÅ¥
ĠvlÃ¡ du
ĠI raku
ĠnajdÃ´leÅ¾itej Å¡ie
ĠniekoÄ¾ kÃ½mi
ĠkrÃŃ Å¾
k li
Ġvy vÃ¡Å¾
ĠÅ¾ enÃ¡
itco in
ĠdÃ´sled ky
ĠÅ¡tÃ¡ tne
ĠprÃŃbe hy
i sku
Ġvy stÃºp
ĠprÃ¡vomo ci
ĠrÃ¡ sÅ¥
Ġdva dsaÅ¥
ĠprÃŃ no
Ġovplyv ÅĪuje
Ġpod la
ĠÅ¡tÃ¡ di
ĠprevÃ¡dz kovateÄ¾
ĠnemoÅ¾ nÃ©
Ġb lÃ¡
Ġod bo
Ġn Ãºt
ĠR ober
Ġrezer vÃ¡
Ġuz nes
zi ou
Ġspe vÃ¡
ĠJuÅ¾ nej
B a
Ġob sia
kom uni
Ġrob ÃŃte
Ġzne Äįist
rov al
Ġex tra
Ġpovo lenia
Ġz lat
t av
i ce
klo p
ĠAfri ke
Op Ã¤Å¥
Ġroz vÃŃjaÅ¥
Tak mer
ov ek
t iaÄ¾
zer va
ĠÃºto ku
Ġnaj ÄįastejÅ¡ie
Sp rÃ¡v
ĠM ad
Ġzb ier
Ġpre bud
ko p
N ovÃ¡
ak u
ĠoznÃ¡mi l
Ġu kÃ¡zali
ĠprÃŃ buz
Ġuniverzi ty
Ġodva hu
Ġo lympi
Ġobnov iÅ¥
Ġmnoh Ã½mi
N ad
Ġb ur
c al
om ie
Ġob jed
O rgani
ĠmanaÅ¾ Ã©r
ĠprÃŃbe hu
Ġjednoduch Å¡ie
Ne u
ĠprÃŃ chod
Ġp Ã¡ch
ĠnÃ¡v rat
Ġnahrad iÅ¥
ĠO s
ĠP i
ĠplÃ¡n uje
ĠrÃ½ch ly
Ġz rka
Ġparla men
gi i
Cel Ã½
Ã¡ Å¾
Ġvysvetli Å¥
Ġ3 7
ol f
Ġpov rchu
Ġsme r
T A
ĠsluÅ¾ be
Ġobjav ili
Ġhvie zdy
ĠmuÅ¾ om
ova cÃŃch
Ned o
Ġnariad enÃŃ
Ġsmerni ca
ko nÃ¡
ci mi
Ġop roti
Ġhomo sexu
ĠÅ¡ ir
k eÄı
S voj
ĠvÃ½ slov
Ġme stÃ¡
Ġsta rÃ¡
i ness
le ran
Ġsva dob
Ġ3 4
Ġso cia
Ġpos ol
Å¡a jte
Ġprij me
ĠdneÅ¡ nej
Ġnaj kraj
Ġauto nÃ³
Ġs lo
Po li
Ġnaj rÃ½ch
ĠvÃŃ na
Ġvojak ov
Ġv raj
Ġst ovky
Ġdovo z
u bli
Ġcho rob
Ġne rov
ĠO ba
Ġdo slov
Ġod kiaÄ¾
Ġa poÅ¡
ma zon
jÃº ca
Ġna Å¡ou
ĠpoloÅ¾ ky
ĠÄıal Å¡ia
Ġstre tne
Ġfak torov
ĠÅ¡ kÃ¡
Ġsk rÃ½va
Ġpria teÄ¾om
Ġstret nÃºÅ¥
ĠprÃ¡v neho
Ġtop Ã¡n
n iach
ĠzÃŃsk anie
Ġci vil
Ġh Ã¡d
ĠpovaÅ¾ ovanÃ©
en tu
Ġsp ek
Ġport fÃ³
Ġrekla m
Pre ÄįÃŃtajte
alizÃ¡ cia
Ġinform ovaÅ¥
ĠZÃ¡ pad
ĠAndro id
ĠrozpoÄį et
Ġzdravot nÃŃc
ĠÅ¡pecia li
Ġfinan ÄįnÃ©ho
bo lov
z ovanÃ©
p an
po ch
ĠÅł vÃ©d
ĠvesmÃŃ ru
Ġcest ujÃºcich
ĠzÃ¡kaz nÃŃka
O M
ĠzÃ¡kon ov
ĠvÃŃÅ¥az stvo
len ÃŃm
Ġpracov nÃ©ho
ru ÄįiÅ¥
Ġsexu Ã¡lne
Ġd vanÃ¡
Ġsym p
ra Äįov
Ġe ta
ĠprÃŃÄį iny
u pe
Ġz im
Ġrela tÃŃvne
Ġved y
Ġa stro
Ġu kÃ¡zal
Ġpre Å¾iÅ¥
Å¡ pe
st ia
da lo
ÃŃ k
Ġkon anÃŃ
Ġod ha
Ġmie rne
ĠvoÄ¾ nÃ½
ĠzÃ¡ ver
ĠnÃŃz ky
Ġhovor ÃŃme
Ġpos Ãº
Ġproce sy
Ġvysvet Ä¾uje
Ġz lÃ½
ĠMo sk
Ġodvet vÃŃ
Ro zd
Ġdo zor
ĠCi ty
Ġvply vu
znÃ¡ mej
Ġna ÅĪ
Ġz lep
Ġdlh Ãº
ut in
Pre s
Z vyÅ¡
ĠnÃ¡j d
ĠpouÅ¾ÃŃ vanÃŃ
Ġsve tu
ĠpoÄįÃŃta Äįa
Ã¡l ni
hne Äı
ĠtÃŃ to
Ġk le
rie b
Ġpostav iÅ¥
Ġchoro ba
Ġo sa
Ġzaob chÃ¡dz
Ġto u
ĠSloven sko
ĠdÃ¡v ky
t t
ĠvyhlÃ¡s enia
c Ã©r
Ġnaj po
Ġpostav enie
Ġdlh Ã½
Ġsprac ovania
L i
Ġp ne
Ġnastav enia
ĠudrÅ¾ia vaÅ¥
ĠO ne
c aÅ¥
By Å¥
Ġvla j
M od
ujÃºci mi
Ġochor enÃŃ
Ġdr Å¾i
ĠÄįÃŃ t
Ġpr Ãº
Ġe uro
pa ÅĪ
ĠPe ter
sta mi
Ġrob ÃŃme
Ġpredsed a
Ġber ie
Ġs l
Ġtr end
Ġi mi
ĠzÃ¡ zra
ĠnÃ¡sil ia
Ġjedin Ã©
re e
Ġstar Ã½ch
Ġh es
chov Ã¡vaÅ¥
Ã¡r ne
Ġpr ovin
Ġobrov skÃ½
Ġoh rom
Ġbie le
ĠSever nej
V last
ĠKomis ii
Ġdia lÃ³g
hov ore
Ġkon Ã¡
Ġvyh rad
Ġprispie va
Ġsvetov Ã½ch
da teÄ¾
Ġu nav
Ġm odu
ĠS ha
Ġ Ã´
Ġtransak cie
ÄĮ lÃ¡nok
vÃ¡ ch
ĠplanÃ© ty
nej Å¡iu
Ġmul ti
ĠÅ¡pecifi ckÃ©
Ġpre chÃ¡dz
an Ã½m
Ġnarod en
Ġs ny
ĠC ol
Ġka pe
Ġrozpo re
Ġdizaj nu
Ġbie ly
Ġpar ku
Ã³ m
ĠkrÃ¡t ky
Ko ne
Ġmo tiv
ĠzahÅķ ÅĪaÅ¥
ĠvÃ½ro be
Ġrozsia h
Ġroz me
Ġroz vÃŃja
ĠreÅ¾i m
O P
Ġpriprav enÃ©
Ġpodoz ri
st ri
Ġodpoved al
Ġro py
ro ÄįnÃ¡
E A
tick om
Ġpomo hli
Ġudalo stÃŃ
z ÃŃn
Ġpria me
Ġosobit nÃ©
Ġve Äı
ova cÃŃ
Ġn Ãº
Ġpro fi
Ġvlast nÃŃctva
Ġfo tky
Ä¾ av
Ġvo li
Ġfinanc ovanie
vej Å¡ie
i on
9 0
ĠhistÃ³ri u
ĠWil lia
Ġte pl
toÄį nÃ½ch
Ġvys iel
Ġli b
Ġch rÃŃp
desia t
ĠvÃ½ bu
Å¡ tne
tov ala
Ġrepubli ke
ran s
Ġf ond
nÃ¡ hle
ĠParÃŃ Å¾i
ĠprÃŃklad om
Ġpoist enie
ĠnÃ¡rod nÃ©
Ġkro kov
Ġzb ie
Ġopu stiÅ¥
ĠA u
K ni
ĠnemÃ¡ me
ĠKomis iu
O na
Ġos obou
Ġpo ly
Ġre kord
ĠÄįo ko
be ra
Ġpredpis mi
ÃŃ taÅ¥
p ria
Ġpostup u
bud Ãº
Ã¤ t
Ġodi Å¡iel
er s
ĠsprÃ¡v nu
Ġn ene
Ġz vÃ¤z
k Ã©ho
Ġdosia hol
Ġsta raÅ¥
Ġpacien ta
201 3
rie s
Ġne prav
Ġho tov
R us
Ġ199 9
ĠnÃ¡v ra
Ġdod Ã¡
ĠA t
Ġhl b
zd vi
Ġpos u
Ġho rizon
Ã ¶
Ġal kohol
ĠÅ¡tvr Å¥
Ġa ku
Ġtu ku
Ġkom pati
Ġpra x
ĠmÅķtvy ch
Ġpara me
stvÃ¡ ch
ĠR ÃŃm
ĠchÃ½ b
Ġhodno te
ĠumoÅ¾ niÅ¥
Ġobe tÃŃ
ĠvzÃ¡ c
ĠS Ãºd
Ġ4 8
tÃ³ mov
pre s
Ġza Å¥aÅ¾
Ġk ve
ĠzloÅ¾ ky
Ġverej ne
ktor Ã©
Ġky se
ĠV ie
Åł pe
Ġvy na
Ġva Å¡im
Ġzodpoved ajÃº
ĠkrÃ¡ Ä¾a
Å¾e l
Ġpria teÄ¾a
b ia
Ġpravdepodob nosÅ¥
Ġpoplat ky
Ġvyjad riÅ¥
ĠÃºÄįin kov
li na
o bo
Ġstanov enÃ½ch
Ġsez Ã³ny
Ġpre trvÃ¡
Ġig no
ĠnÃ¡zor u
i v
ĠÄįer ven
? âĢĿ
da p
Ġver ÃŃ
ĠAn ge
ĠoÄįa mi
Ġra ke
Ã© ry
Ġpria zni
vied li
Ġex pozÃŃ
Ġdobr Ã½ch
D Ã´leÅ¾i
Ġist ej
F il
ĠV Å¡et
Ġrob ili
sti ckej
Ã¡ rom
Ġmi losÅ¥
ce st
ĠÄįlen mi
Neza bud
tÃŃv nym
Ġk e
kÃ¡ ciÃŃ
g ar
ĠÃº ni
ĠI rÃ¡
lÃ¡ cii
Ġch roni
ĠÅ¡tvr tok
ĠÅ¡ko la
Ġhran ÃŃc
Ġo znam
ĠPar k
ÄĮ a
ĠobjednÃ¡ vky
ne m
Å½ eny
Ġban kov
Ġu sad
ĠU N
zi j
Ġi dÃº
Ġidentifi kovaÅ¥
âĢ¦ ]
Ġfyzi ckÃ©
Ġiz by
Ġkon com
ĠvÃ¤ÄįÅ¡ ia
Mus ÃŃ
Ġnebude m
ĠaplikÃ¡ ciu
Ġob sad
Nee xistuje
Ġob id
vi ce
h Ã¡ch
Vy tvor
ĠtÃ© my
p lej
Ġpolovi cu
Ne s
ĠPre Äįo
Ġuply nu
Ġkontro lou
Ġindividu Ã¡lne
i ou
Ġpr Ãºd
ĠÄįe liÅ¥
Ġpot rieb
Ġ Ä¾a
Ġm ak
Ġpracov nÃ½
Ġna jÃº
nej Å¡ou
b iÅ¥
Ġry bolov
Ġu prostred
ĠobyvateÄ¾ stva
Ġtenden ciu
Ġpr vou
Ġcie Ä¾a
Va Å¡a
ĠSvÃ¤ tÃ©ho
Ġkama rÃ¡t
k ovania
Ġvlast nÃ½m
Ġkontak tovaÅ¥
Ġochor enie
Ġzdravot nej
Ġpre be
Jed nÃ¡
ĠvyhÄ¾ad Ã¡va
sp Ã¤Å¥
Ġu kÃ¡Å¾e
ĠM il
ĠÅ¾iad nom
Ġmlad Ã½
tu gal
Ġtvoj ho
Ä¾ ou
ĠplÃ¡ nov
Ġko zme
Ġtakej to
Ġskr ze
Ġpoz ostÃ¡va
Na u
rÅ¾ ia
pl ne
Ġhlav nÃ©ho
ĠbezpeÄį ne
Ġdobr Ã½m
Ġpre va
Ġste ro
p rom
ĠÄıal Å¡ej
7 0
Ġ3 3
chÃ¡dzajÃº ci
Ġobchod nej
Ġpovo lenÃ©
Ġuved enej
Ġi stÃŃ
poz ri
so na
Ġzdrav Ã½
ke l
Ġpe Äį
ĠneÃº spe
Ġpred o
Ġ Ã
Ġja zdy
an ce
Podob ne
ĠkresÅ¥ anov
ĠHospod in
ĠÃº z
Ġko Å¾e
ĠkÄ¾ÃºÄį ovÃ½ch
ĠnezÃ¡ kon
Ġsk lenÃŃ
Ġza stÃºp
ĠoznÃ¡ menie
Ġkry pto
Ġfar bu
st ali
Ġd cÃ©r
va jte
Ġho sÅ¥
ĠH er
Ġnasled ovaÅ¥
sti ckÃ½
i sk
Ġsamostat ne
ĠzÃ¡vÃ¤z ky
ĠarmÃ¡ dy
Ġspl niÅ¥
ĠoznÃ¡mi la
ĠÄįer st
Ġkvali fik
ĠprÃŃ pravu
Ġrovnak om
Z dÃ¡
ĠzaÄį nÃº
Ġnaj obÄ¾Ãºbenej
NÃ¡ sled
Ġobjav il
VÃ½ rob
Ġ Å¤
Ġre cen
Ġfar ma
Ġs an
Ġriad ne
ĠdÃ´vod om
ĠmanÅ¾el stva
g Ã©n
Ġmosli m
r mi
Ġstra chu
Ġcest Ã¡ch
Ġstret nutÃŃ
V od
Ġry by
ĠW al
di lo
ho tov
ĠprispÃ´sob iÅ¥
Ġni koho
Ġmaje tok
Ġvr cho
Ġzhor Å¡
rov Ã½ch
Ġpredstav iteÄ¾
Å¾i u
Ġv rav
tick Ã½mi
ĠvoÄ¾ ba
ĠvzÅ¥ah ujÃº
zi ÃŃ
Äį ina
is e
ro ÄįnÃ©ho
Ġcelkov ej
ĠI s
Ġpred Ã¡vaÅ¥
Ġmes tom
Ġbla ho
Ġnepo uÅ¾ÃŃva
Ġnastav iÅ¥
n iny
Ġdis ci
tion s
Ġne skoro
Ġpodnik anie
h an
Ġa soci
loÅ¾ enÃ©
Ġotvor enÃ½
Ġelekt rom
B i
Ļ Ĥ
no Å¾
via z
ĠTe ch
Ġinicia tÃŃvy
Nech ce
ĠF lo
Ġinvest ovaÅ¥
ne rg
Ġg ar
Ġspokoj nÃ½
ĠÃºra dy
vy Äįajne
ĠreÅ¾i mu
Ġstra tiÅ¥
Ġbat Ã©rie
Ġpa le
Ġna bÃŃ
ĠzÃ¡klad om
ĠprÃŃsluÅ¡ nÃ½mi
Ġmen u
Ġvyze rajÃº
Ġu viesÅ¥
Ġna to
Ġodst rÃ¡ni
Ġpri z
Ġhru b
ĠlieÄį be
en cov
Ġhud ba
ĠspoloÄį nÃ½
tivi tu
Ġdo predu
Vy berte
Ġzran iteÄ¾
Ġfil me
Ġpre vod
ĠvÃ½ber u
ĠvÅ¡eobec nÃ©
Ġobmedz enÃ©
ĠNemec ka
ĠÅ¡ aty
Ġdemon Å¡t
ili p
4 5
ĠP lay
NÃ¡ rod
ĠspoloÄį nej
Ġkomuni kÃ¡ciu
nov ej
Ġvy Äįer
t ovanÃ©
Ġna vi
Ġr oman
] .
vÃ¡dz aÅ¥
Ġpro ku
Ġmest Ã¡ch
Najv Ã¤Äį
ariad enie
w w
Ġkontrol ovaÅ¥
nd rÃ³
Len Å¾e
ĠÅ¡truk tÃºry
ĠpoÄįas ie
ĠVÃ¡Å¡ ho
Ġrod inou
Ġta b
Ġob ra
Ġkraj inou
Ġne ba
ĠprÃŃÄį inou
Ġ6 5
i me
Ġza pÃ¡
Ġvytvor enÃ©
Ġpracov al
Ġzni ÄįiÅ¥
Ġvid ie
K re
Ġve li
Ã¡va jte
ĠÅ¡tÃ½ lu
Ġautomobil ov
da je
Å¥ te
Ä¾a ch
s iel
Ġkamp ane
Ġobe te
Ġstro jov
Ġsam Ã©ho
ĠvÃŃ no
Ġstar Å¡ÃŃch
t nom
ne me
Ġne vin
Ġmie n
ĠJ ed
Ġpotrav in
Ġzmluv nÃ½ch
Ġri sk
Å¾ad uje
Ġ19 0
Ġa rab
R ada
Ver ÃŃm
ĠzvlÃ¡ Å¡Å¥
Ġspom ÃŃn
Ġmiest ne
ĠÄ¾ Ãºto
ne l
nÃ¡ h
Sy stÃ©
Ġz ve
Ġmodlit by
ĠvÃ½dav ky
Ġsva lov
P ria
Ġuto rok
Ġprak tiz
Ġzisti l
te ru
Ġzach ovaÅ¥
Ġpoza stav
Ġtvr do
Ġpred beÅ¾
H e
Ġpre Å¾ÃŃva
j anie
Ġob klop
Ġrob il
Ġosob Ã¡m
z ard
ĠC y
Ġmimor iad
Ġdob rej
Ġmo tivÃ¡
rÃ¡l nych
ĠG ra
Ġu Äįenie
ĠB ul
Ġstani ce
olÃ³ gie
li v
Pov edz
g on
ĠP red
Ġpok rÃ½va
Ã¡va m
Ġpotreb ujem
ĠvÃ½voj i
Ġpo le
ĠuloÅ¾ enÃ©
Ġfinan ciÃŃ
Ġobmedz iÅ¥
ni ckÃ©
Äį mi
Sta ÄįÃŃ
ran ÃŃ
P at
ĠvÃ½vo z
ĠrÃ¡di o
M at
ĠneÅ¾ iad
Ã³ noch
Ġzmlu va
Ġli tera
Ġle gi
Ġpra xi
Ġko la
Ġkom pe
Ġdost anÃº
P ar
Ġne kon
Ġpom al
Ġschop nÃ¡
Ktor Ã©
ĠdÃ´leÅ¾i tÃº
B ezpeÄį
ka r
Ġ3 8
ĠpouÅ¾ÃŃva teÄ¾om
kov al
Ġuprav iÅ¥
Ġvy lie
Ġcudz in
Ġsobo tu
Ġhla ve
ĠÄįÃŃ tanie
ĠzÃ¡leÅ¾ito sti
Ġmobil nÃ½ch
Ġabs or
Ġf as
Ġpok les
Ġpremi Ã©r
C ho
Ġdo hode
ĠT om
Ġspolu pracov
Po k
Oba ja
ĠbudÃº ce
pad ne
Ġcho le
Äį iny
Ġpoh Ã¡
Ġob haj
Ġre f
M omen
b it
ĠzÃ¡kaz nÃŃci
Ġglob Ã¡lne
Ġpripoj enie
Ġob lie
Ġpoliti ke
Ġpracov nej
T a
ĠVa Å¡ej
ĠT ak
ĠbÃ¡ b
E F
ĠTalian sku
Slov en
Ġbi cyk
ĠpoznÃ¡ m
si g
Ġop ra
n ing
O s
he ÅĪ
ĠnÃ¡ro ÄįnÃ©
igh t
Vie me
Ġplatfor my
ĠR ada
Ġkar tu
ĠpolÃŃ cia
Ġne op
at al
Ġprie mysle
Ġno si
Ġprih lÃ¡
Ġtvoje j
rÃ¡d za
Ġzameria va
KaÅ¾d Ã©
Ġkal Ã³riÃŃ
ĠzÃ¡ leÅ¾ÃŃ
Ġ[ âĢ¦]
hy nu
Ġak cep
ĠK alifor
y a
ĠB al
Ġnes mÃº
Ġnev z
L A
ĠspoluprÃ¡ ca
ĠEurÃ³p u
Ġd ala
Ġzamestnan ci
ĠD avid
ĠnaznaÄį uje
Ä¾ te
Ġdo hovor
la li
ĠBla ck
l s
Ġzla to
len ej
tu re
ĠÄĮ ÃŃna
ĠGe orge
Ġexist ujÃºcich
Ġre Äį
ĠvÃ½chod nej
Ġpie seÅĪ
Ġsub jekt
Ġmo re
Ġpo isÅ¥ov
Ġvid ÃŃ
ĠfÃ¡ ze
Ġtest y
Ġfilozo f
D u
sti la
Ġprisp ieÅ¥
ĠvyÅ¡ Å¡ia
Ġcelkov o
pi u
Ġviace r
S S
Ġt var
Ġdo ba
lÃŃ z
Ġvra cia
Ġvzdu ch
Ġdu Å¡u
h ali
ĠZmlu vy
Ġnech cem
nÃŃ ku
Ġh romad
Ġnavr hnutÃ©
ĠðŁ ĻĤ
ĠnezÃ¡vis losÅ¥
B A
Ġpomo hol
ĠprÃ¡v ny
ĠkaÅ¾d Ã½ch
ĠvÃ½ch ode
Ġpoby tu
Ġposil niÅ¥
Ġp lu
Ġmaj strov
k ovanÃ¡
ĠnÃ¡ me
Ġfesti va
Ġfak tor
Ġmig rantov
Ġlo p
ĠdÅĪ om
klad anie
ĠprÃŃj mu
Ġnemoc nice
Ġte sto
C est
ĠA m
ĠkaÅ¾d Ã½m
Ġkul tÃºra
Ġzh ruba
ĠnÃ¡boÅ¾en stvo
R od
mov ia
ti lo
Ġneob medz
Ġdo ktor
st rÃ¡
ĠmnoÅ¾ stvom
ĠvÃ½Å¡ ky
Ġlokali ty
Ġ9 5
vlÃ¡ d
Ġvie ra
pred nost
Ġfalo Å¡
Ġza plat
VÃ½sled ky
Ġnov o
Ġjednotliv cov
Ġti cho
onal d
Ġbe Å¾ne
PoznÃ¡ mka
Å¾ nÃ©
NemÃ´Å¾e m
Ġzna losti
Mnoh Ã©
de x
Ġchla pec
Ġz rej
Äįi k
Ġvysok Ã½m
Ġvyh lÃ¡si
kraj in
jÃºci mi
Ġ4 4
Ġurob ÃŃ
ch Ã©
Ġprofe sor
Ġfunk cia
Ġver ia
ĠSy na
EurÃ³p sky
Ġexperi men
Ġhe re
ĠdÃ¡tu mu
ĠveÄ¾ vy
t nosÅ¥
Ġky ber
ĠzabezpeÄį ia
ĠprÃŃ sne
lÃ³ gie
ĠrÃ½ch losti
ov u
K Ä¾Ãº
S prÃ¡va
ĠveÄ¾ kom
Ġza drÅ¾
teÄ¾ nÃº
V ita
Ġdu cha
Ġdovolen ku
Momen tÃ¡lne
Ġper spek
ĠD is
Ġodvet via
Ġtak Ãºto
Ġpl nej
ĠoznÃ¡ menia
ĠuskutoÄį niÅ¥
ujÃº cu
Ġre Ã¡lnom
Ġdia be
ĠnÃ¡ hrad
Ġho tel
Ġznamen aÅ¥
se ku
ĠnÃ¡ stup
Ġan g
ĠsÃºkrom nÃ©
Ġtal ent
ĠpouÅ¾ÃŃva me
Ġvid ÃŃme
ĠtisÃŃ ce
Ġdo ty
ĠÅ¡pe ciÃ¡lny
Ġnie komu
Ġosob nÃ½
ĠA b
ali ty
Ġsmerni ci
t le
Po Äıme
ÄįnÃ© mu
nov Ã½ch
h anie
Ġnepo znÃ¡
Ġiden ti
re la
Ġob Äįas
Ġtak z
ĠkresÅ¥ ania
ĠkÅĪa z
ĠvÃŃk end
Ġter mÃŃ
le z
ĠD Ã¡
9 9
Ġne leg
Ġprija la
Ġkon ÄįÃŃ
ĠD P
Ġu l
l anÃŃ
Ġad res
Ġv stÃºpiÅ¥
ĠpoÄį uli
Ġnariad enÃŃm
Ġuvedom iÅ¥
Ġi zo
ĠR oz
ĠÅ¡ko lu
Äİal Å¡ÃŃ
Ġne zi
Ġod poÄį
art mÃ¡
Ġspo d
Â ·
Ġprie skum
Naj prv
Ġpred Äįas
i dy
Naj mÃ¤
Ġrovnak Ã½m
ÃŃ ny
Ġzvu k
Ġna spÃ¤Å¥
ĠS Ãº
Ġpod aÅ¥
Ġza tvor
za ch
ĠViano ce
Ġpravdepodob nÃ©
ĠFrancÃºz sko
Ġs ank
Ġos lov
Ġregi Ã³nu
Ġchy bu
ga re
Ġprie mere
Å¾ enie
Ġkor up
Ġpoli tÃŃk
ĠkrÃ¡tko dob
Ġz Ãºf
ĠextrÃ© mne
l b
Ġzd o
Ġvyd al
Ġvy stup
Ġpal u
ĠÅ¡por t
ĠEuro pe
Ġo hÄ¾ad
ĠMo j
ĠM or
Ġt m
Kon iec
k vali
ĠdÃ´very hod
ĠmetÃ³ d
Ġvl h
ĠodliÅ¡ nÃ©
4 8
p ier
ĠsprÃ¡v nej
Ġbrat ia
Ġp alÃ¡
LÃ¡ ska
Ġpohod l
ĠvnÃºtroÅ¡tÃ¡t nych
M uÅ¾
Ġuplat ÅĪuje
Ġ1 000
Ġst y
ĠA fgan
Ġvzdialen osti
Ġlie ku
ak ujeme
Na Å¡Å¥astie
ĠzÃºÄįa stn
ĠvÃ½men u
ĠzÃ¡ hrad
om u
Ġre sp
Ġpoz rite
ĠaplikÃ¡ cia
Ġfinan ÄįnÃº
Ġpoli tickej
Ġdostup nÃ½ch
Ġvid ÃŃm
Ġobvyk le
Ġpo Å¡ko
Ġteplo ty
Spoj enÃ©
ĠzvÃ½ Å¡i
ĠC en
Ġi stom
tÃº rou
as s
Ġkomuni kovaÅ¥
ĠzruÅ¡ iÅ¥
Ġtvo ri
Ġrezer v
c uje
I nak
Ġelekt rÃ¡
Ġto n
ĠzaÄį len
D r
Ġsoli da
Ġenerge tickej
Ġrela x
Ġst Ã¡vajÃº
Ġmo le
Ġo Äįiach
ĠÃļ nii
ĠÅ¥aÅ¾ko sti
Ġsi lou
Ġdu Å¡a
Ġjanu Ã¡ri
Ġnav Å¡tev
ĠzabezpeÄį ÃŃ
ĠlekÃ¡ ri
ÅĪ ujem
Ġodh al
ĠS ln
i j
ĠzÃ¡vÃ¤z ok
Ġkonferen cie
Ġda ÅĪov
ĠnÃŃz ke
Ġpok raÄįov
ĠÅ¡tÃºdi u
Ġuvied li
Ġzran enia
len e
ĠSloven ska
ĠdÃ´ jde
Ġkontex te
Ġpozi tÃŃvny
ar ov
logi ckÃ©
Ġnemo hli
Ġd Ã¡vajÃº
Ġp Ä¾Ãº
Potreb ujete
Ġna s
be re
ĠvyÅ¾ad ovaÅ¥
Å¡ pi
ce lo
ĠP ale
ÃŃ d
ĠmÃ¤ sa
Ġterori zmu
z Ã³
ĠÅ¾ivo tu
Ġmlie ko
Ġjedno tiek
Ġlietad la
Ġdesia tich
4 6
Ġmo no
Ġpod ieÄ¾a
Ġmi losti
ĠzabezpeÄį uje
spo n
jÃº c
ĠnÃ¡d or
Ġpropa g
vo ch
tom a
Ġpoz rie
ĠK ar
ĠÅ¡tud enti
rÃ¡l na
Ġfung ujÃº
ĠBi b
Ġc u
ĠobrÃ¡z ok
ĠâĢ ļ
Ġle t
ĠpredchÃ¡dzajÃº cich
sto l
Ġdobr Ã©ho
p lÃ¡
ve ru
Ġnepria zni
ĠurÄį enÃ¡
Ġostrov e
Ġci s
Ġinvestor ov
ĠB lu
tov Ãº
I L
hor vÃ¡t
Ġz ber
ĠkaÅ¾doro Äįne
ie laÅ¥
ĠS R
ĠkÃ¡ vy
Pri prav
Ġsamov raÅ¾
Ġmal Ãº
Ġsp as
rÃ¡l nej
ĠvÃ½rob ca
1 00
Ġza uj
lÃ³ gia
Ġcie st
ĠzvlÃ¡ Å¡tne
ĠkultÃº ru
ĠkategÃ³ri i
ka Å¾d
ĠuskutoÄį nÃŃ
Ġdo kÃ¡zali
ov ho
po rov
? !
ĠT ur
ĠG ar
Ġpoz ad
Ġnevie te
pu l
Ġzbra ÅĪ
Ġsla bo
ĠÃºto ky
Ġzu by
sle dy
Ġs Ã½r
mati ky
Ġo tvÃ¡ra
Äį et
ĠR ich
ĠspoloÄį nÃ½ch
Ġov e
ÄįÃŃ te
Ġvys iela
Ġprirodz enÃ©
ÄĮ ÃŃm
Ġn ud
ĠvoÄ¾ bÃ¡ch
ĠvÃ¤ÄįÅ¡ iny
Ġcelkov Ã©ho
Ġved enie
Ġkvali tnÃ©
ĠkrÃ¡s ny
ĠfanÃºÅ¡i kov
Ã© ru
il la
Ġpri nesie
Ġhy per
ĠÅ¾ia r
Ġod chÃ¡dza
ĠvyuÅ¾ÃŃ vania
Ġod chod
for ma
ĠpoÄį ul
Ġpovin nÃ½
Ġnapo kon
t he
ene c
Ġfung ovanie
Ġemi sie
ĠobÄ¾Ãºb enÃ©
ĠdodÃ¡va teÄ¾
me rom
sta ve
Ġs mÃº
ku l
en tom
Ġp Ã³
Ġpred Ã¡vajÃº
ĠprÃ¡ cou
lÃº v
stÃ¡ v
B er
Ġsy ndrÃ³
Ġpre feren
ĠvitamÃŃ nu
Ġnechce l
Ġmus ela
Ġmysle l
rg en
R ie
u e
ĠK ana
Ġba to
ĠprevÃ¡dz ku
li kt
ĠnÃ¡ vy
Ġpar k
Ġnema lo
ĠF er
ud ob
Ġpoze rÃ¡
Ġd Ãºfam
Ġpla vid
Ġi hneÄı
ĠsluÅ¾ bÃ¡ch
Ġspom ÃŃna
Ġkam paÅĪ
mi te
ĠT h
ĠÄį iny
Ġefek t
Ġpres nÃ©
In ter
Pro gram
Ġgene rÃ¡cia
Ġneved ia
Ġsest ry
Po zor
ĠvÃ½rob cu
Ġjed nÃ¡
ĠW eb
Ġhovo rili
V Å¡eobec
Ġlietad lo
Ġpodob nÃ½
âĢľ )
ĠG ene
a meri
Ġru ke
toÄį nÃº
Ġsna he
Ġby t
ĠnÃ¡sled ok
klada jÃº
ĠzÃ¡ve ru
re z
Ġ5 5
kre s
Ġod vod
ĠtechnolÃ³ giu
ĠpouÅ¾ÃŃva telia
Ġd anÃ½
ĠzÃ¡ z
Ġzahrani Äįia
re b
Ġlep Å¡iu
Tak Ã½
Ġzost ali
O L
ĠÅ¡tÃ¡t nych
ĠH en
