{"<|endoftext|>":0,"!":1,"\"":2,"#":3,"$":4,"%":5,"&":6,"'":7,"(":8,")":9,"*":10,"+":11,",":12,"-":13,".":14,"/":15,"0":16,"1":17,"2":18,"3":19,"4":20,"5":21,"6":22,"7":23,"8":24,"9":25,":":26,";":27,"<":28,"=":29,">":30,"?":31,"@":32,"A":33,"B":34,"C":35,"D":36,"E":37,"F":38,"G":39,"H":40,"I":41,"J":42,"K":43,"L":44,"M":45,"N":46,"O":47,"P":48,"Q":49,"R":50,"S":51,"T":52,"U":53,"V":54,"W":55,"X":56,"Y":57,"Z":58,"[":59,"\\":60,"]":61,"^":62,"_":63,"`":64,"a":65,"b":66,"c":67,"d":68,"e":69,"f":70,"g":71,"h":72,"i":73,"j":74,"k":75,"l":76,"m":77,"n":78,"o":79,"p":80,"q":81,"r":82,"s":83,"t":84,"u":85,"v":86,"w":87,"x":88,"y":89,"z":90,"{":91,"|":92,"}":93,"~":94,"¡":95,"¢":96,"£":97,"¤":98,"¥":99,"¦":100,"§":101,"¨":102,"©":103,"ª":104,"«":105,"¬":106,"®":107,"¯":108,"°":109,"±":110,"²":111,"³":112,"´":113,"µ":114,"¶":115,"·":116,"¸":117,"¹":118,"º":119,"»":120,"¼":121,"½":122,"¾":123,"¿":124,"À":125,"Á":126,"Â":127,"Ã":128,"Ä":129,"Å":130,"Æ":131,"Ç":132,"È":133,"É":134,"Ê":135,"Ë":136,"Ì":137,"Í":138,"Î":139,"Ï":140,"Ð":141,"Ñ":142,"Ò":143,"Ó":144,"Ô":145,"Õ":146,"Ö":147,"×":148,"Ø":149,"Ù":150,"Ú":151,"Û":152,"Ü":153,"Ý":154,"Þ":155,"ß":156,"à":157,"á":158,"â":159,"ã":160,"ä":161,"å":162,"æ":163,"ç":164,"è":165,"é":166,"ê":167,"ë":168,"ì":169,"í":170,"î":171,"ï":172,"ð":173,"ñ":174,"ò":175,"ó":176,"ô":177,"õ":178,"ö":179,"÷":180,"ø":181,"ù":182,"ú":183,"û":184,"ü":185,"ý":186,"þ":187,"ÿ":188,"Ā":189,"ā":190,"Ă":191,"ă":192,"Ą":193,"ą":194,"Ć":195,"ć":196,"Ĉ":197,"ĉ":198,"Ċ":199,"ċ":200,"Č":201,"č":202,"Ď":203,"ď":204,"Đ":205,"đ":206,"Ē":207,"ē":208,"Ĕ":209,"ĕ":210,"Ė":211,"ė":212,"Ę":213,"ę":214,"Ě":215,"ě":216,"Ĝ":217,"ĝ":218,"Ğ":219,"ğ":220,"Ġ":221,"ġ":222,"Ģ":223,"ģ":224,"Ĥ":225,"ĥ":226,"Ħ":227,"ħ":228,"Ĩ":229,"ĩ":230,"Ī":231,"ī":232,"Ĭ":233,"ĭ":234,"Į":235,"į":236,"İ":237,"ı":238,"Ĳ":239,"ĳ":240,"Ĵ":241,"ĵ":242,"Ķ":243,"ķ":244,"ĸ":245,"Ĺ":246,"ĺ":247,"Ļ":248,"ļ":249,"Ľ":250,"ľ":251,"Ŀ":252,"ŀ":253,"Ł":254,"ł":255,"Ń":256,"Ã¡":257,"Ġs":258,"Ġp":259,"Ġv":260,"Ġn":261,"ov":262,"Ġa":263,"ÃŃ":264,"ie":265,"Å¾":266,"Ã½":267,"Äį":268,"to":269,"ch":270,"en":271,"Ãº":272,"Ã©":273,"Å¥":274,"Ġpr":275,"Å¡":276,"Ġz":277,"st":278,"Ġm":279,"Ġk":280,"ia":281,"Ġo":282,"je":283,"an":284,"Ġd":285,"te":286,"Ġpo":287,"Ġna":288,"om":289,"ra":290,"ro":291,"ho":292,"ne":293,"la":294,"ko":295,"le":296,"Ä¾":297,"Ġb":298,"li":299,"Ġt":300,"in":301,"Ġje":302,"re":303,"Ġsa":304,"no":305,"ed":306,"lo":307,"vo":308,"Ã½ch":309,"Å¾e":310,"sk":311,"rÃ¡":312,"Ã´":313,"Ġne":314,"me":315,"ci":316,"va":317,"Ġu":318,"nÃ©":319,"Ġdo":320,"ĠÄį":321,"po":322,"mi":323,"de":324,"Ġpre":325,"tor":326,"Ġza":327,"Ġto":328,"ri":329,"aÅ¥":330,"ak":331,"Ġvy":332,"âĢ":333,"ce":334,"jÃº":335,"Ġro":336,"ti":337,"ku":338,"ni":339,"bo":340,"al":341,"sÅ¥":342,"ve":343,"Ġktor":344,"ky":345,"sti":346,"ka":347,"Ġst":348,"Å¾i":349,"na":350,"ĠÅ¾e":351,"ob":352,"ĠsÃº":353,"Ġh":354,"or":355,"nÃ½":356,"Å¡e":357,"uje":358,"Ġako":359,"lÃ¡":360,"Ġod":361,"ÅĪ":362,"Ġob":363,"Ġale":364,"ovan":365,"ĠÃº":366,"ud":367,"ck":368,"Äı":369,"er":370,"Ã³":371,"ĠÅ¡":372,"ĠnÃ¡":373,"on":374,"ru":375,"ad":376,"av":377,"ej":378,"ar":379,"Ġbo":380,"Ġin":381,"Ġi":382,"Ġby":383,"by":384,"Ġsi":385,"Ġf":386,"nÃ¡":387,"Ġpri":388,"Ġve":389,"od":390,"as":391,"Ġte":392,"ny":393,"ĠprÃŃ":394,"cie":395,"ou":396,"nej":397,"Ġsp":398,"Ġnie":399,"lu":400,"kov":401,"tÃ¡":402,"Ġpod":403,"ta":404,"ĠvÃ½":405,"ÃŃm":406,"iÅ¥":407,"pe":408,"nu":409,"ĠzÃ¡":410,"len":411,"mu":412,"Ġmo":413,"Ġalebo":414,"Ã½m":415,"Ġe":416,"rov":417,"il":418,"Ġ1":419,"nÃŃ":420,"tu":421,"Ã©ho":422,"ĠS":423,"enie":424,"Ã¤":425,"da":426,"ran":427,"ĠmÃ´":428,"teÄ¾":429,"Ġma":430,"nÃ½ch":431,"Ã¡l":432,"Ġch":433,"Ġpred":434,"Ġpro":435,"ĠâĢ":436,"Å¡et":437,"Ġ2":438,"Ġ(":439,"men":440,"mo":441,"Ġspo":442,"Ġvo":443,"is":444,"tov":445,"hod":446,"at":447,"Ġsvo":448,"Å¡ie":449,"Ġroz":450,"ĠktorÃ©":451,"ty":452,"nÃº":453,"Ġjed":454,"zi":455,"iad":456,"Ġsom":457,"aÅ¾":458,"za":459,"kÃ¡":460,"nosÅ¥":461,"Ä¾a":462,"lad":463,"ujÃº":464,"Ġtak":465,"Ġre":466,"enia":467,"ĠB":468,"nosti":469,"Ġaj":470,"Ġak":471,"ĠÄįo":472,"ovaÅ¥":473,"ĠA":474,"Ġde":475,"Ġnaj":476,"ĠP":477,"tÃŃ":478,"dy":479,"ez":480,"ĠM":481,"ali":482,"âĢľ":483,"sob":484,"Ġkon":485,"ĠE":486,"ba":487,"ude":488,"ĠvÅ¡et":489,"Ġaby":490,"lov":491,"Ġce":492,"vy":493,"eÄı":494,"us":495,"rie":496,"ĠÄ¾":497,"vÃ¡":498,"Å¾ÃŃ":499,"ĠmÃ´Å¾e":500,"nÃ©ho":501,"ca":502,"enÃ©":503,"cia":504,"ja":505,"du":506,"van":507,"ist":508,"..":509,"Ġsvoj":510,"Å¡ÃŃ":511,"ĠmÃ¡":512,"kon":513,"tom":514,"rav":515,"00":516,"ĠprÃ¡":517,"Ġpov":518,"Na":519,"up":520,"di":521,"Ġho":522,"ĠveÄ¾":523,"my":524,"klad":525,"sky":526,"iac":527,"ly":528,"ĠÅ¾i":529,"ur":530,"ĠC":531,"tre":532,"loÄį":533,"Å¥a":534,"ma":535,"Ġsme":536,"raz":537,"be":538,"ĠÅ¾":539,"ĠvÃ¡":540,"mÃ¡":541,"ĠÄ¾ud":542,"Po":543,"rÃŃ":544,"Ne":545,"ĠbyÅ¥":546,"Ġbude":547,"ĠT":548,"vi":549,"sle":550,"Ġr":551,"ĠV":552,"Ġvz":553,"Ġkto":554,"Ġc":555,"Ġmi":556,"Ġpou":557,"ĠK":558,"Äįi":559,"ĠktorÃ½":560,"rob":561,"cov":562,"Ġle":563,"Ã¡va":564,"mie":565,"Je":566,"Ġich":567,"lie":568,"red":569,"Ġzo":570,"ÄĮ":571,"ry":572,"ĠdÃ´":573,"sta":574,"Å¡i":575,"sa":576,"Ġni":577,"Ġtie":578,"Äįa":579,"ol":580,"hu":581,"Ġme":582,"ĠspoloÄį":583,"ĠR":584,"nov":585,"Ġse":586,"Ġso":587,"ĠD":588,"Ġbez":589,"ĠkeÄı":590,"enÃŃ":591,"toÄį":592,"Ġzd":593,"rod":594,"aÅ¾d":595,"Ġra":596,"stav":597,"nom":598,"Ġop":599,"gi":600,"am":601,"sled":602,"tÃº":603,"ĠâĢŀ":604,"nut":605,"enÃ½":606,"Ã¡d":607,"sku":608,"stup":609,"Ġsve":610,"Ġste":611,"for":612,"Ä¾ad":613,"kom":614,"ved":615,"treb":616,"nÃ½m":617,"Ġmed":618,"Äįo":619,"ÅĪa":620,"se":621,"ĠpoÄį":622,"Ġnov":623,"inÃ¡":624,"ke":625,"rej":626,"ovanie":627,"ze":628,"ĠÅ¾ivo":629,"anie":630,"Å¾ÃŃva":631,"Ak":632,"Ã´sob":633,"Ġmie":634,"zna":635,"lÃŃ":636,"Ġko":637,"ĠÄįas":638,"ĠI":639,"Ġ20":640,"Å¡ak":641,"iny":642,"Ġ-":643,"Ġviac":644,"raj":645,"tÃŃv":646,"Ġlen":647,"zÃ¡":648,"ok":649,"Pre":650,"urÃ³":651,"nych":652,"ĠâĢĵ":653,"ĠÅ¡tÃ¡":654,"Ġsk":655,"enÃ¡":656,"ĠH":657,"pa":658,"ani":659,"si":660,"chÃ¡d":661,"ha":662,"Ġroku":663,"ciu":664,"ĠuÅ¾":665,"vie":666,"Ġjeho":667,"Ġkom":668,"koÄ¾":669,"Ġmus":670,"fi":671,"ĠL":672,"Ġj":673,"Ġtr":674,"peÄį":675,"cho":676,"ent":677,"rÃ¡t":678,"ane":679,"Ã¡lne":680,"Ġbol":681,"Ġva":682,"ĠG":683,"ĠF":684,"rg":685,"tvo":686,"Ġbud":687,"ĠmoÅ¾":688,"Ġsy":689,"vr":690,"id":691,"To":692,"rom":693,"Ã¤Äį":694,"ĠÄı":695,"last":696,"Ġsku":697,"Ġ3":698,"skej":699,"Ġdob":700,"hy":701,"Ġg":702,"tick":703,"Ãļ":704,"Ã½mi":705,"pi":706,"ĠvÅ¡ak":707,"Ġved":708,"sto":709,"pov":710,"ĠkaÅ¾d":711,"Ġjedno":712,"Ġtom":713,"pl":714,"ÃŃn":715,"ter":716,"un":717,"ova":718,"ska":719,"ÄįÃŃ":720,"chÃ¡dza":721,"vÃ½":722,"Ġpoz":723,"âĢŀ":724,"urÃ³p":725,"ĠktorÃ¡":726,"sia":727,"ek":728,"ĠO":729,"kaz":730,"lat":731,"vod":732,"pad":733,"rÃ¡v":734,"Å¾u":735,"Ġsvoje":736,"Ġpotreb":737,"Äįia":738,"Ġ\"":739,"lÃ©":740,"ento":741,"ĠveÄ¾mi":742,"ĠÃºÄį":743,"Ġosob":744,"Ġpra":745,"hÄ¾ad":746,"ĠspÃ´sob":747,"riad":748,"ina":749,"tÃ©":750,"Ġka":751,"stÃŃ":752,"stvo":753,"ĠJ":754,"kou":755,"bu":756,"Ã¡r":757,"rad":758,"lep":759,"jte":760,"ĠbudÃº":761,"Ġinfor":762,"el":763,"Ġmu":764,"Ã´Å¾e":765,"leÅ¾i":766,"stÃ©":767,"Å¡te":768,"Ġprav":769,"Ġhod":770,"ieÅ¥":771,"Ġdom":772,"Ġkraj":773,"kt":774,"chod":775,"spo":776,"ÃŃs":777,"Ġniek":778,"Ako":779,"ciÃŃ":780,"vom":781,"Ġpreto":782,"ĠBo":783,"pu":784,"cii":785,"...":786,"Ġ201":787,"Ġchce":788,"inu":789,"lej":790,"spe":791,"rÃ¡n":792,"gra":793,"ĠvÅ¡etk":794,"Ġorg":795,"hov":796,"Ġprie":797,"ania":798,"Ġpoved":799,"Ġex":800,"Ġcel":801,"Ġnap":802,"Ġmno":803,"Ġmedzi":804,"anov":805,"ĠÄįi":806,"luÅ¾":807,"prav":808,"Ġsta":809,"Ġau":810,"Ġvlast":811,"Ġja":812,"Ġzab":813,"ĠtieÅ¾":814,"ĠN":815,"ria":816,"Ġ19":817,"Ġboli":818,"Ġmy":819,"Ġmen":820,"Ã¡m":821,"lÃ¡n":822,"Ġprost":823,"skÃ©":824,"ĠÅ¡t":825,"ĠÄ¾udÃŃ":826,"enÃ½ch":827,"Ġdru":828,"ĠktorÃŃ":829,"Ġbola":830,"Ġjej":831,"Ġtu":832,"Ġbolo":833,"iaÄ¾":834,"tne":835,"ÄįnÃ©":836,"Ġpok":837,"Ġdi":838,"ĠW":839,").":840,"ckÃ©":841,"por":842,"ĠÅ¾iad":843,"mov":844,"Ġhla":845,"Ġmal":846,"lia":847,"ste":848,"ovanÃ©":849,"ĠsluÅ¾":850,"ĠU":851,"voj":852,"ovania":853,"Äįas":854,"Ġtoho":855,"ĠÄıal":856,"Ġposky":857,"Nie":858,"dob":859,"Ġvys":860,"ĠÄįlen":861,"nou":862,"cu":863,"ing":864,"Å¡a":865,"Å¡ÃŃch":866,"vis":867,"Ġnep":868,"Ġtej":869,"et":870,"vÃŃ":871,"ĠtÃ½":872,"Ġhov":873,"rÅ¾":874,"Ġ5":875,"ĠpodÄ¾a":876,"rÃ©":877,"ili":878,"ĠpouÅ¾ÃŃva":879,"Ġ4":880,"vek":881,"Ġrokov":882,"Ġur":883,"ĠmÃ´Å¾u":884,"koÄ¾vek":885,"ĠsystÃ©":886,"ver":887,"nes":888,"tie":889,"ĠaÅ¾":890,"Ġcie":891,"ĠrÃ¡":892,"tro":893,".âĢľ":894,"odu":895,"jov":896,"loÅ¾":897,"ĠinformÃ¡":898,"edy":899,"ĠtÃ½ch":900,"ĠnÃ¡s":901,"anÃ©":902,"Ġvie":903,"iel":904,"niÅ¥":905,"Ġzna":906,"Ġrozhod":907,"ĠÃºda":908,"Å¡ej":909,"poved":910,"Ġpos":911,"he":912,"Ġned":913,"Ġrov":914,"raÅ¥":915,"Å¾iÅ¥":916,"kla":917,"sah":918,"cich":919,"Ġzmen":920,"hla":921,"vÃ©":922,"ene":923,"ske":924,"Ã¡ch":925,"ul":926,"ĠtÃ½m":927,"aj":928,"Åł":929,"Ġtre":930,"zÃŃ":931,"ĠvÅ¡etky":932,"ĠmusÃŃ":933,"ĠÅ¾ivot":934,"sko":935,"Å¥aÅ¾":936,"Ġno":937,"ÄĮo":938,"Ã½va":939,"Ã¤Å¥":940,"nie":941,"mer":942,"znÃ¡":943,"ĠZ":944,"pra":945,"lÃº":946,"Ġpot":947,"Ġlie":948,"teÄ¾ov":949,"Ġov":950,"ĠmajÃº":951,"stva":952,"Ġoch":953,"Ġdl":954,"Ġpria":955,"nÃ½mi":956,"och":957,"im":958,"Ġtejto":959,"ĠvÃ¡m":960,"riÅ¥":961,"Ġrob":962,"cÃŃ":963,"ĠveÄ¾k":964,"Ale":965,"ich":966,"ĠskutoÄį":967,"Ġuved":968,"stat":969,"ĠmaÅ¥":970,"Vy":971,"Ġstra":972,"Ã¡n":973,"ĠEurÃ³p":974,"vanie":975,"poj":976,"ezpeÄį":977,"skÃ½ch":978,"nÃºÅ¥":979,"den":980,"bli":981,"ovÃ©":982,".\"":983,"tok":984,"it":985,"Tak":986,"iu":987,"Ġos":988,"chop":989,"Ã¤ÄįÅ¡":990,"ĠmÃ´Å¾ete":991,"sp":992,"ĠÄįa":993,"zy":994,"Ġju":995,"âĢĿ":996,"ĠvÅ¡etkÃ½ch":997,"nÃŃc":998,"ĠeÅ¡te":999,"Ġnad":1000,"Ġmali":1001,"Å¾dy":1002,"Å¡t":1003,"Ġpar":1004,"Ġdruh":1005,"Ġmin":1006,"Ġprodu":1007,"Ġan":1008,"Ġtento":1009,"vÃ¤":1010,"hli":1011,"ckÃ½ch":1012,"Ġ200":1013,"ir":1014,"pade":1015,"),":1016,"Ġprob":1017,"lne":1018,"inan":1019,"Ġspolu":1020,"Ġkde":1021,"ĠkrÃ¡":1022,"Ġneb":1023,"meri":1024,"Ġprostred":1025,"vaÅ¥":1026,"rd":1027,"drÅ¾":1028,"jÃºce":1029,"Ġstran":1030,"vali":1031,"ĠbezpeÄį":1032,"ĠvÃ¡s":1033,"Ġpomo":1034,"ujem":1035,"vÃ¡d":1036,"ĠvÅ¡etko":1037,"Ġpoli":1038,"Ġnem":1039,"Ġobla":1040,"Ġfun":1041,"ĠprÃŃpade":1042,"ĠdÃ¡":1043,"Ġtech":1044,"ĠpoÄįas":1045,"ide":1046,"hto":1047,"nak":1048,"Ġzame":1049,"ĠspoloÄįnosti":1050,"uj":1051,"sy":1052,"Ġdie":1053,"ber":1054,"Ġpe":1055,"zd":1056,"tvor":1057,"ĠproblÃ©":1058,"ĠzÃŃ":1059,"ĠnieÄįo":1060,"ĠstrÃ¡n":1061,"ĠpoÅ¾":1062,"Ġproti":1063,"Å¡ia":1064,"Ġhovor":1065,"ĠzaÄį":1066,"Ġli":1067,"Ġtohto":1068,"ĠÄįlÃ¡n":1069,"Ġani":1070,"ĠlÃ¡":1071,"Ġvyh":1072,"ĠtÃº":1073,"Ġnej":1074,"Ġen":1075,"ĠsprÃ¡v":1076,"chu":1077,"anÃŃ":1078,"ÄįiÅ¥":1079,"Ġru":1080,"moÅ¾":1081,"tra":1082,"Ġstre":1083,"Ġpa":1084,"nÃŃkov":1085,"zu":1086,"ĠcieÄ¾":1087,"Ġurob":1088,"KeÄı":1089,"ĠvÃ½rob":1090,"Ã¡to":1091,"eb":1092,"vu":1093,"Ãºp":1094,"ckej":1095,"skÃ½":1096,"ala":1097,"ovÃ¡":1098,"edz":1099,"Ġpres":1100,"losti":1101,"ovanÃ½":1102,"Ġrok":1103,"Ã´r":1104,"Za":1105,"Ġ6":1106,"com":1107,"do":1108,"Ġobchod":1109,"Ġsvete":1110,"ÄįnÃ½ch":1111,"ĠdeÅĪ":1112,"ĠpretoÅ¾e":1113,"slu":1114,"ĠnÃ¡m":1115,"Ġiba":1116,"Ġpodpo":1117,"Ġdost":1118,"enÃŃm":1119,"Ġfor":1120,"Ġfinan":1121,"lÃ³":1122,"jav":1123,"nok":1124,"Ã´z":1125,"Ġvyu":1126,"ĠNe":1127,"cky":1128,"Ġorgani":1129,"pis":1130,"Å½":1131,"Ġnajv":1132,"Ġslov":1133,"ĠdÃ´leÅ¾i":1134,"ovÃ½ch":1135,"Ġtomu":1136,"gu":1137,"ĠprÃ¡v":1138,"ovanÃŃ":1139,"ĠÄ¾udia":1140,"Ġpredstav":1141,"ÄįnÃ½":1142,"rÃŃklad":1143,"Ġtieto":1144,"Ġposkyt":1145,"ujeme":1146,"Ġprij":1147,"Ġzah":1148,"skÃ©ho":1149,"Pod":1150,"Ã¡lny":1151,"ĠstÃ¡":1152,"ĠÄįlov":1153,"Ġcest":1154,"Ġvod":1155,"Ġty":1156,"zaj":1157,"Ġpracov":1158,"ĠskÃº":1159,"Ġnepo":1160,"ply":1161,"rieÅ¡":1162,"Ġpom":1163,"Ġniektor":1164,"ĠrÃ½ch":1165,"plat":1166,"and":1167,"ut":1168,"Ġnik":1169,"tiÅ¥":1170,"Ġrod":1171,"ĠvzÅ¥a":1172,"Ġhodno":1173,"prÃ¡":1174,"Bo":1175,"sÅ¥ou":1176,"Od":1177,"cÃº":1178,"ĠpÃ´":1179,"su":1180,"Ġsto":1181,"ckÃ½":1182,"Ġoblasti":1183,"Ġochran":1184,"stn":1185,"hol":1186,"ĠpouÅ¾i":1187,"eno":1188,"jek":1189,"Ġw":1190,"ĠrÃ´z":1191,"hnut":1192,"ge":1193,"ĠtÃ½chto":1194,"Pri":1195,"vania":1196,"Ġtele":1197,"chy":1198,"pre":1199,"tÃŃvne":1200,"kami":1201,"ĠÅ¾en":1202,"roj":1203,"Ġlo":1204,"Ä¾Ãº":1205,"ĠsprÃ¡":1206,"ÅĪuje":1207,"ĠneÅ¾":1208,"Ġzm":1209,"Ġriad":1210,"Naj":1211,"Ch":1212,"Ġpotom":1213,"Ġci":1214,"zor":1215,"ĠÃºÄįin":1216,"Ġvoj":1217,"tÃ¡z":1218,"Ġproduk":1219,"lom":1220,"Ġide":1221,"nÃŃct":1222,"ĠÅ¡ko":1223,"Ġim":1224,"menÃ¡":1225,"Äįov":1226,"koch":1227,"ami":1228,"Åķ":1229,"Ġprogra":1230,"Ġnech":1231,"ĠEÃļ":1232,"Mo":1233,"Do":1234,"Ġnajlep":1235,"Ġsvoju":1236,"znam":1237,"em":1238,"Äº":1239,"Ġmili":1240,"ine":1241,"VÅ¡et":1242,"Ġ7":1243,"ovo":1244,"vyÅ¡":1245,"inÃ¡rod":1246,"ĠniekoÄ¾":1247,"um":1248,"Ġpl":1249,"ĠvÅ¾dy":1250,"Ġtam":1251,"ĠveÄ¾a":1252,"Ġhlav":1253,"Ġcen":1254,"Ġlep":1255,"ujÃºce":1256,"bra":1257,"tli":1258,"pli":1259,"iteÄ¾":1260,"Ġver":1261,"odpoved":1262,"ĠvlÃ¡":1263,"spod":1264,"Ġexist":1265,"kre":1266,"Ġtomto":1267,"zid":1268,"roz":1269,"ub":1270,"cou":1271,"Ġ10":1272,"atr":1273,"Ġpovedal":1274,"obe":1275,"Ġener":1276,"ĠvÃ¡Å¡":1277,"gie":1278,"ĠinformÃ¡cie":1279,"mien":1280,"Å¡ich":1281,"ĠÃºpl":1282,"bor":1283,"Ġobsah":1284,"ĠktorÃº":1285,"nostÃŃ":1286,"ĠspoloÄįnosÅ¥":1287,"Ġpodni":1288,"Ġtvo":1289,"skÃº":1290,"ĠktorÃ½ch":1291,"Å¡ÃŃm":1292,"Ġvid":1293,"ĠkaÅ¾dÃ½":1294,"Ġteraz":1295,"Ġman":1296,"Ãºd":1297,"Ġ8":1298,"rat":1299,"nejÅ¡ie":1300,"alej":1301,"Ġplat":1302,"Ġsvet":1303,"ale":1304,"Ġpla":1305,"ĠnÃ¡j":1306,"ĠvÃŃ":1307,"ier":1308,"Jed":1309,"Ġsamo":1310,"uni":1311,"Äįne":1312,"20":1313,"ovej":1314,"dia":1315,"ĠzÃŃsk":1316,"ĠprÃŃpad":1317,"sluÅ¡":1318,"Ġskup":1319,"Ġjednodu":1320,"so":1321,"ĠÄįin":1322,"ktor":1323,"MÃ´Å¾e":1324,"ĠsÃºÄįas":1325,"ĠvrÃ¡t":1326,"Ġspra":1327,"fek":1328,"ovali":1329,"Ġvyko":1330,"teri":1331,"oval":1332,"Ġele":1333,"Ġdu":1334,"eÅĪ":1335,"Ġverej":1336,"nÃŃk":1337,"Ġdosia":1338,"Ġnevy":1339,"ÃŃme":1340,"ĠotÃ¡z":1341,"ĠzÃ¡klad":1342,"Ġrast":1343,"Ġjeden":1344,"Ġten":1345,"Ġ9":1346,"ÃŃte":1347,"ĠJe":1348,"rani":1349,"ĠÃºrov":1350,"Ġnebo":1351,"skom":1352,"mus":1353,"ĠznÃ¡":1354,"ĠmÃ´j":1355,"ĠpotrebnÃ©":1356,"Å¾ne":1357,"ĠtÃ½Å¾":1358,"livo":1359,"Tie":1360,"ĠumoÅ¾":1361,"Ġschop":1362,"gen":1363,"Ġkvali":1364,"ĠÄįlÃ¡nku":1365,"Ġzodpoved":1366,"tky":1367,"uÄı":1368,"ĠvnÃº":1369,"Ġsvojho":1370,"skÃ¡":1371,"Ġnich":1372,"Ġopatr":1373,"Ġri":1374,"Ã³n":1375,"Ġper":1376,"ĠÅ¡pe":1377,"Ġzariad":1378,"Ġinter":1379,"ĠmuÅ¾":1380,"bou":1381,"ajÃº":1382,"Ġoko":1383,"tej":1384,"sad":1385,"Ä¾ah":1386,"Äįenie":1387,"ĠzabezpeÄį":1388,"Ġmode":1389,"mr":1390,"ĠmoÅ¾nÃ©":1391,"Ġsvojich":1392,"ĠrieÅ¡":1393,"tnÃ©":1394,"medz":1395,"ĠpÃ¡":1396,"rok":1397,"ĠIn":1398,"ĠprÃŃstup":1399,"ĠtÃ½ka":1400,"Ġprv":1401,"SA":1402,"ieb":1403,"Ġmil":1404,"mÃ¤":1405,"ĠprÃŃsluÅ¡":1406,"Ġtoto":1407,"ĠinÃ©":1408,"ĠrÃ¡m":1409,"Ġstanov":1410,"ard":1411,"ĠhÄ¾ad":1412,"Ġzdrav":1413,"ciÃ¡l":1414,"Ġnedo":1415,"tia":1416,"ĠÅ¥aÅ¾":1417,"nost":1418,"Ġneu":1419,"ruÅ¡":1420,"tku":1421,"nutie":1422,"ĠurÄįi":1423,"Ġdokon":1424,"py":1425,"liÅ¡":1426,"spodÃ¡r":1427,"Ġon":1428,"vÃ¡dz":1429,"Å¡iu":1430,"cen":1431,"lÃ¡s":1432,"Ġmiest":1433,"Ġelekt":1434,"ple":1435,"ĠvaÅ¡e":1436,"ĠâĢľ":1437,"iek":1438,"oz":1439,"Ġtri":1440,"ateÄ¾":1441,"isti":1442,"ĠvrÃ¡tane":1443,"Ġmedz":1444,"Ġkre":1445,"iach":1446,"tÃ½":1447,"ĠpoÅ¾iad":1448,"ovÃ½":1449,"Ġkni":1450,"ciou":1451,"ĠÄĮ":1452,"ĠstÃ¡le":1453,"Tento":1454,"hnu":1455,"Ġkontro":1456,"Ġnes":1457,"iace":1458,"Ġsvojej":1459,"Ġdeti":1460,"ĠponÃº":1461,"Ġbi":1462,"skeho":1463,"eÄ¾":1464,"plyv":1465,"Ġku":1466,"jed":1467,"koj":1468,"ven":1469,"nÃŃctvom":1470,"Ġnikdy":1471,"raÄį":1472,"roch":1473,"rost":1474,"PreÄįo":1475,"ĠvykonÃ¡":1476,"Ġkr":1477,"Ġmnoh":1478,"ĠÃºdajov":1479,"Ġproce":1480,"Te":1481,"Ġdva":1482,"Ġstar":1483,"ĠorganizÃ¡":1484,"ÃŃv":1485,"Ġal":1486,"Ġposled":1487,"nym":1488,"telia":1489,"Ġmys":1490,"Ġostat":1491,"Ġti":1492,"Ġzmlu":1493,"vied":1494,"ruk":1495,"omis":1496,"ĠMa":1497,"000":1498,"ĠÅ¾ivota":1499,"ujete":1500,"vrd":1501,"lobo":1502,"ik":1503,"jem":1504,"Ġfo":1505,"ten":1506,"ĠniÄį":1507,"lade":1508,"stÃ¡":1509,"Toto":1510,"vet":1511,"Ġkedy":1512,"lan":1513,"ĠzÃ¡kaz":1514,"vajÃº":1515,"krÃ¡t":1516,"ĠznamenÃ¡":1517,"bav":1518,"ovanÃ¡":1519,"fe":1520,"ĠvÃ¤ÄįÅ¡":1521,"krem":1522,"ĠpreÄįo":1523,"ĠÃºlo":1524,"ĠnaprÃŃklad":1525,"VÃ½":1526,"ĠvÃ½sled":1527,"Ġfunk":1528,"ĠmedzinÃ¡rod":1529,"KaÅ¾d":1530,"bud":1531,"ÃºÄįa":1532,"ckÃ¡":1533,"Ġkomuni":1534,"Ġnejak":1535,"kÃ©":1536,"Äįnej":1537,"xist":1538,"tovaÅ¥":1539,"led":1540,"ĠzvÃ½":1541,"Äıak":1542,"Ġveci":1543,"rÃ¡l":1544,"Å¡iel":1545,"klade":1546,"Ġ,":1547,"Ã³nov":1548,"Ġpostup":1549,"ĠinÅ¡":1550,"chÃ¡dzajÃº":1551,"Ä¾ko":1552,"sel":1553,"Ġfil":1554,"Ġdnes":1555,"Ġ.":1556,"Ġtechno":1557,"Ġinve":1558,"ila":1559,"NÃ¡":1560,"ried":1561,"tuÃ¡":1562,"Ġdod":1563,"lepÅ¡":1564,"ĠÅ¡tÃ¡t":1565,"Ġmes":1566,"Ġrovnak":1567,"ciÃ¡lne":1568,"ĠmnoÅ¾":1569,"ĠinÃ½ch":1570,"Ġspoj":1571,"ĠprvÃ½":1572,"tvÃ¡":1573,"ĠtÃºto":1574,"âĢľ.":1575,"ĠvÃ´":1576,"stro":1577,"ĠrÃ¡mci":1578,"Ġnao":1579,"ĠsluÅ¾by":1580,"tr":1581,"Ġdve":1582,"mÃŃ":1583,"logi":1584,"Äįky":1585,"Ġsna":1586,"ĠPo":1587,"Äįom":1588,"ĠhovorÃŃ":1589,"Ġcez":1590,"ĠÄıalÅ¡ie":1591,"Ġnez":1592,"ĠcieÄ¾om":1593,"ĠsÃºvis":1594,"konom":1595,"rne":1596,"cÅ¥":1597,"liÅ¥":1598,"ĠvoÄ¾":1599,"Ġvide":1600,"ckÃ©ho":1601,"kÃ¡z":1602,"ĠnemÃ´Å¾e":1603,"ĠprostrednÃŃctvom":1604,"enej":1605,"ĠnÃ¡rod":1606,"Å¥ast":1607,"Ġweb":1608,"vot":1609,"ovanÃ½ch":1610,"ĠÃºplne":1611,"SÃº":1612,"Chce":1613,"ĠnajmÃ¤":1614,"ĠsÃºlade":1615,"Ġteda":1616,"lien":1617,"Ġbudete":1618,"Ġsrd":1619,"Ġnariad":1620,"ĠniekoÄ¾ko":1621,"ien":1622,"rch":1623,"ĠnÃ¡Å¡":1624,"Preto":1625,"Ġnasled":1626,"ĠudrÅ¾":1627,"skÃ´r":1628,"ĠprÃ¡va":1629,"ĠnemÃ¡":1630,"Å¡u":1631,"Ġinte":1632,"leÅ¾ito":1633,"Ã¡vajÃº":1634,"ĠÅ¥a":1635,"og":1636,"Ġpozor":1637,"ĠmoÅ¾no":1638,"ĠÃºspe":1639,"Pred":1640,"ĠpÃŃs":1641,"ĠzÃ¡klade":1642,"Ġzost":1643,"ĠpouÅ¾ÃŃ":1644,"Å¡om":1645,"ĠÅ¡tÃº":1646,"Äįe":1647,"ĠsituÃ¡":1648,"ÃŃta":1649,"tou":1650,"ujÃºci":1651,"Ãºt":1652,"Ġobdob":1653,"Ġktorej":1654,"anÃ½":1655,"Ġprac":1656,"Ġmala":1657,"Ġpriprav":1658,"Ġnebude":1659,"Spo":1660,"nenie":1661,"fer":1662,"mom":1663,"Ġmohli":1664,"ĠnovÃ©":1665,"ĠmÃ¡te":1666,"ĠvyÅ¡":1667,"ĠmÅĪa":1668,"poÄį":1669,"Ġ%":1670,"Ġdlh":1671,"Ġpodob":1672,"tÃ½m":1673,"tickÃ©":1674,"ĠÄįasto":1675,"ĠÅł":1676,"plikÃ¡":1677,"rak":1678,"ĠlepÅ¡ie":1679,"Ja":1680,"ĠÃºdaje":1681,"Ġdis":1682,"taÅ¥":1683,"Ä¾ov":1684,"Ġseba":1685,"sla":1686,"Ġmesiac":1687,"sov":1688,"ĠeurÃ³p":1689,"Ġpat":1690,"Ġpodmien":1691,"Ġvytvo":1692,"losÅ¥":1693,"Äİ":1694,"tifi":1695,"ril":1696,"eniu":1697,"Ġameri":1698,"Ob":1699,"Ġbe":1700,"alo":1701,"Ġzdra":1702,"Äįak":1703,"ĠplÃ¡":1704,"ĠAn":1705,"âĢ¦":1706,"Ġpoliti":1707,"vlÃ¡":1708,"skych":1709,"xi":1710,"ment":1711,"ĠprÃ¡ve":1712,"stor":1713,"rni":1714,"bi":1715,"ĠorgÃ¡":1716,"Ġkul":1717,"Ġzamestn":1718,"ĠrobiÅ¥":1719,"tion":1720,"Ġmlad":1721,"Ġods":1722,"Ġze":1723,"ĠnaÅ¡ich":1724,"inou":1725,"Ġuz":1726,"ovala":1727,"nÃŃci":1728,"Ã¡vaÅ¥":1729,"ĠÅĪ":1730,"Ġ15":1731,"Ġrizi":1732,"teÄ¾om":1733,"rÃ¡niÅ¥":1734,"ĠspÃ´sobom":1735,"ĠpovaÅ¾":1736,"chov":1737,"Ġpovin":1738,"ĠurobiÅ¥":1739,"Äįka":1740,"sil":1741,"ĠmanÅ¾e":1742,"Ġsveta":1743,"rejme":1744,"zov":1745,"Ġtla":1746,"ĠvÃ½sku":1747,"Ġvla":1748,"Å¾ia":1749,"ĠnaÅ¡e":1750,"ÄįnÃ©ho":1751,"ĠpomÃ´":1752,"rÃ¡cie":1753,"lÃ½":1754,"Ġdobre":1755,"ĠCh":1756,"ĠUSA":1757,"podob":1758,"cent":1759,"hovor":1760,"pom":1761,"ĠtechnolÃ³":1762,"nutia":1763,"Ġjazy":1764,"ĠhrÃ¡":1765,"Ġdvo":1766,"Ġnaozaj":1767,"ĠsluÅ¾ieb":1768,"Ġtran":1769,"ĠÃļ":1770,"Ã³ri":1771,"ÄįnÃ¡":1772,"line":1773,"ZÃ¡":1774,"rou":1775,"vid":1776,"PodÄ¾a":1777,"PrÃŃ":1778,"Äıaka":1779,"cha":1780,"Ġnav":1781,"kÃº":1782,"nosÅ¥ou":1783,"Ġobmedz":1784,"nako":1785,"Ġpravid":1786,"enÃ©ho":1787,"pozÃŃ":1788,"Ġhor":1789,"Ġautom":1790,"ĠurÄį":1791,"ĠskÃºs":1792,"TÃ¡to":1793,"kÃ¡Å¾e":1794,"Ġmoj":1795,"ĠvÃ¤Äį":1796,"Ġmoje":1797,"tak":1798,",\"":1799,"ĠÅ¡tÃ¡ty":1800,"ĠdÃ´vod":1801,"Ãģ":1802,"Ġ18":1803,"lenie":1804,"tedy":1805,"die":1806,"Ġvozid":1807,"Ġsmr":1808,"Ġpartne":1809,"ĠpoÅ¾iadav":1810,"Å¾ad":1811,"MÃ¡":1812,"Ġmiesto":1813,"Ġkri":1814,"obec":1815,"In":1816,"toch":1817,"znaÄį":1818,"ĠsÃºÄįa":1819,"ĠlekÃ¡":1820,"ilo":1821,"Ġad":1822,"Ġ...":1823,"cien":1824,"Ġdobr":1825,"Aj":1826,"Ġban":1827,"ĠKomis":1828,"inÃ¡ch":1829,"ft":1830,"Ġobjav":1831,"ga":1832,"Ġprojek":1833,"Ġboj":1834,"Å¡eobec":1835,"pla":1836,"tivi":1837,"Ġfak":1838,"Ġrodi":1839,"Ġodst":1840,"konomi":1841,"ĠÄįlove":1842,"ĠzvÃ½Å¡":1843,"rancÃº":1844,"Ġobe":1845,"stanov":1846,"obil":1847,"No":1848,"ĠÄ¾ah":1849,"Å¡ou":1850,"hlas":1851,"Ġsie":1852,"ĠzaÄįia":1853,"tÃ³":1854,"Ġinterne":1855,"ĠnÃ¡klad":1856,"liz":1857,"Ġta":1858,"vÃ¤z":1859,"ĠsystÃ©m":1860,"depodob":1861,"neho":1862,"Ġost":1863,"Ġsil":1864,"ĠdÃ´leÅ¾itÃ©":1865,"ĠBoh":1866,"Ġsch":1867,"Ġjednoduch":1868,"ĠbudÃºc":1869,"Ġuplat":1870,"Ġstav":1871,"ÃŃsÅ¥":1872,"Ġfar":1873,"ĠzlepÅ¡":1874,"res":1875,"eli":1876,"ĠSpoj":1877,"Ġvyd":1878,"dej":1879,"ĠdieÅ¥a":1880,"Ġchcete":1881,"Ġkrajiny":1882,"oh":1883,"hody":1884,"ĠhospodÃ¡r":1885,"My":1886,"Ġgene":1887,"Ġvi":1888,"Ġvysok":1889,"Ġminu":1890,"tÃ¡l":1891,"Pr":1892,"man":1893,"Tieto":1894,"ĠtakÃ©":1895,"es":1896,"ĠznÃŃ":1897,"ĠcÃŃ":1898,"Ġsu":1899,"amÃ¤":1900,"tori":1901,"ĠvÅ¡etci":1902,"Äįaj":1903,"Nap":1904,"ĠÄįlovek":1905,"co":1906,"rancÃºz":1907,"Ġprin":1908,"vej":1909,"Ġoh":1910,"ovi":1911,"Ġtra":1912,"mysel":1913,"Ġdosta":1914,"ujÃºcich":1915,"Ġtechni":1916,"Ġzdro":1917,"Ġdia":1918,"eÄ¾a":1919,"Ġ12":1920,"Ġmenej":1921,"Ġla":1922,"Ġmusia":1923,"osÅ¥":1924,"teÄ¾a":1925,"Ġchy":1926,"vou":1927,"Ġcent":1928,"osti":1929,"Ġuvied":1930,"nia":1931,"\".":1932,"via":1933,"Ġkan":1934,"Ġnor":1935,"Ġslobo":1936,"skutoÄį":1937,"ĠprevÃ¡dz":1938,"ĠaplikÃ¡":1939,"Ġoby":1940,"ĠvrÃ¡":1941,"ĠÅ¾iadne":1942,"ĠÄ¾uÄı":1943,"ĠÅ¾ia":1944,"Ġfung":1945,"os":1946,"ĠkrÃ¡t":1947,"Ġstrany":1948,"ĠSlov":1949,"Ġzat":1950,"ĠY":1951,"ĠakÃ©":1952,"min":1953,"ren":1954,"Pro":1955,"tÃºry":1956,"ujÃŃm":1957,"vrh":1958,"riek":1959,"Ä½":1960,"Ġmod":1961,"Ġnaz":1962,"zie":1963,"Ġvyj":1964,"ĠinformÃ¡ciÃŃ":1965,"Vo":1966,"ĠvÃ½ro":1967,"Ġneza":1968,"Ġpostav":1969,"Ġtrhu":1970,"Ġzob":1971,"art":1972,"per":1973,"ĠmoÅ¾nosÅ¥":1974,"Ġjas":1975,"rovaÅ¥":1976,"ĠJa":1977,"Å¡li":1978,"nymi":1979,"ĠlieÄį":1980,"Ġodpor":1981,"Ġustanov":1982,"Ġtakmer":1983,"Ġefek":1984,"hÄ¾adom":1985,"ĠpovedaÅ¥":1986,"tnÃ½":1987,"saÅ¥":1988,"ian":1989,"Ġpotrav":1990,"Ġkar":1991,"aliz":1992,"Ġopatrenia":1993,"pred":1994,"ĠvzÅ¥ah":1995,"lÃŃm":1996,"ĠvÃ½znam":1997,"Ġcho":1998,"zrejme":1999,"zni":2000,"Ġzach":2001,"ĠplÃ¡n":2002,"yzi":2003,"ĠsÃºd":2004,"iec":2005,"ÅĪujÃº":2006,"Ġpoci":2007,"Ġzne":2008,"Ã©mu":2009,"ĠÄįasti":2010,"bec":2011,"10":2012,"pon":2013,"ĠrÃ´znych":2014,"Ġauto":2015,"ĠnÃ¡v":2016,"Ġvhod":2017,"rajÃº":2018,"Ġekonomi":2019,"ĠprÃŃliÅ¡":2020,"ĠÅ¡ty":2021,"naÅ¥":2022,"ĠoznÃ¡":2023,"ĠÄįase":2024,"Ġrokoch":2025,"Å¾en":2026,"Ġvzni":2027,"xu":2028,"Ġda":2029,"ĠponÃºka":2030,"Å¡ko":2031,"zra":2032,"ĠvyhlÃ¡s":2033,"val":2034,"nÃŃka":2035,"Ġktorom":2036,"zo":2037,"ĠlÃŃ":2038,"cep":2039,"Ġvyze":2040,"Ġregi":2041,"lob":2042,"ag":2043,"Ġnah":2044,"ĠÄįasÅ¥":2045,"Ġdokonca":2046,"ĠtÃ½Å¾d":2047,"Ġ30":2048,"feren":2049,"ĠrÃ½chlo":2050,"nÃ©mu":2051,"anÃº":2052,"rÃ¡ni":2053,"19":2054,"Ġzb":2055,"son":2056,"ĠskÃºseno":2057,"verej":2058,"vodu":2059,"ĠpomÃ¡":2060,"ĠprÃ¡ce":2061,"Ġzdravot":2062,"Ġmateri":2063,"anÃ¡":2064,"ĠktorÃ©ho":2065,"Ã¡v":2066,"Ġdvoch":2067,"Ġotvor":2068,"vÃ¡dza":2069,"ĠÅ¡Å¥ast":2070,"ĠtÃ¡to":2071,"ĠEurÃ³":2072,"ĠmÃ¡m":2073,"les":2074,"ĠzaloÅ¾":2075,"til":2076,"ĠprÃ¡vo":2077,"Ġsmerni":2078,"ĠRe":2079,"ĠzvyÅ¡":2080,"Ġvzde":2081,"ĠÅ¡tÃ¡tov":2082,"Ġzni":2083,"eby":2084,"ĠkrÃ¡Ä¾ov":2085,"Ä¾Ãºb":2086,"ĠpokiaÄ¾":2087,"Ġzvie":2088,"Ġfoto":2089,"Ġpreh":2090,"nite":2091,"ĠÅ¾eny":2092,"ĠjÃº":2093,"pri":2094,"ES":2095,"ĠkrÃŃ":2096,"ĠMo":2097,"ĠnaÅ¡ej":2098,"stÃºp":2099,"roveÅĪ":2100,"Ġ199":2101,"ĠvidieÅ¥":2102,"ĠkÃº":2103,"ĠnajvÃ¤Äį":2104,"ena":2105,"loÅ¾i":2106,"Ġzh":2107,"Ġniekto":2108,"Ġpomoc":2109,"Ġprostried":2110,"Ġpodporu":2111,"ĠJeÅ¾i":2112,"dov":2113,"ÃŃna":2114,"ĠAmeri":2115,"Ġspotreb":2116,"Mus":2117,"kam":2118,"ĠnachÃ¡dza":2119,"ĠsystÃ©mu":2120,"titÃº":2121,"ĠblÃŃ":2122,"KaÅ¾dÃ½":2123,"Bude":2124,"gist":2125,"Ã¡lnej":2126,"Ġpenia":2127,"ĠspoluprÃ¡":2128,"ic":2129,"Ġdovo":2130,"ĠmanÅ¾el":2131,"Ġhovo":2132,"Ġprek":2133,"Ġmar":2134,"ĠVa":2135,"noho":2136,"Ã³ny":2137,",âĢľ":2138,"chÃ¡dz":2139,"Ġasi":2140,"ĠstrÃ¡":2141,"Ġjednotli":2142,"Ġope":2143,"hor":2144,"hÄ¾adu":2145,"rili":2146,"Ġlebo":2147,"ĠvyÅ¾ad":2148,"ĠnajlepÅ¡ie":2149,"teÄ¾nÃ©":2150,"ĠÅ¡tud":2151,"th":2152,"Å¡truk":2153,"Ġsvetov":2154,"ĠvÅ¡eobec":2155,"Ġspom":2156,"ĠdÃ´sled":2157,"ĠpoÄįÃŃta":2158,"yk":2159,"kona":2160,"Ġaktu":2161,".âĢĿ":2162,"Ġpravdepodob":2163,"bs":2164,"krom":2165,"Ġzamestnan":2166,"atÃŃv":2167,"ĠnÃ¡jsÅ¥":2168,"Ġuni":2169,"ĠuÅ¾ÃŃva":2170,"ÅĪov":2171,"ckÃº":2172,"Ġraz":2173,"Ġskon":2174,"ĠdnÃŃ":2175,"ĠprÃŃbe":2176,"Ġhud":2177,"jom":2178,"Ġdoku":2179,"ĠÄįÃŃs":2180,"pÃ¡":2181,"Ġokolo":2182,"rist":2183,"ĠtÃŃm":2184,"Ġfyzi":2185,"roni":2186,"ĠÄıalej":2187,"ĠvytvÃ¡":2188,"Ġznov":2189,"ĠzÃ¡vis":2190,"ĠdomÃ¡":2191,"Ġpriestor":2192,"diel":2193,"lÃ¡r":2194,"ĠjednÃ©ho":2195,"Ġsed":2196,"lenÃ©":2197,"Ġpacien":2198,"Ġvyjad":2199,"Ġzvy":2200,"ĠnezÃ¡":2201,"ĠdÅĪa":2202,"kach":2203,"Ġneho":2204,"ĠmnoÅ¾stvo":2205,"Ġ?":2206,"Ġden":2207,"ĠktorÃ½m":2208,"hat":2209,"ĠkÃ½m":2210,"Ġtreba":2211,"ĠVÃ¡":2212,"ĠmÃ´Å¾eme":2213,"Ġpomocou":2214,"jÃºci":2215,"ĠniektorÃ©":2216,"Ġrovnako":2217,"vanÃŃ":2218,"Ġpotre":2219,"ĠoÄįak":2220,"rum":2221,"tÃ¡lne":2222,"xistuje":2223,"ĠEurÃ³pskej":2224,"ĠÄįasu":2225,"ig":2226,"ady":2227,"ÄįnÃº":2228,"krÃ©":2229,"ral":2230,"Ġprisp":2231,"ĠÃºÄįe":2232,"enÃº":2233,"der":2234,"ĠskutoÄįne":2235,"koho":2236,"ĠuskutoÄį":2237,"Roz":2238,"ĠprÃŃleÅ¾ito":2239,"op":2240,"Ġmiesta":2241,"Ġmalo":2242,"kovÃ©":2243,"Re":2244,"Ġpu":2245,"Ġvyso":2246,"ĠuvedenÃ©":2247,"Ġviace":2248,"lÃ¡nok":2249,"Ġjedin":2250,"pozÃŃcii":2251,"Ġpovo":2252,"ĠveÄ¾kÃ©":2253,"zem":2254,"Tu":2255,"Ã¡lnych":2256,"pr":2257,"Ġof":2258,"ĠÅ¡tÃ¡tu":2259,"Ġpredpis":2260,"SpoloÄį":2261,"Ġstred":2262,"Ġdomov":2263,"alizÃ¡":2264,"kÃ¡za":2265,"ay":2266,"Ġdostup":2267,"prÃŃ":2268,"hnuÅ¥":2269,"Niektor":2270,"ĠmÃ¡me":2271,"ĠkresÅ¥":2272,"ari":2273,"ĠpÃ´sob":2274,"iem":2275,"Ġkli":2276,"Ġzom":2277,"ĠmiliÃ³nov":2278,"ĠnovÃ½":2279,"nenÃ©":2280,"ĠzahÅķ":2281,"Ġparla":2282,"Ġ/":2283,"ĠcelÃ½":2284,"Ġdlho":2285,"ĠzÃ¡kon":2286,"ĠzÃ¡uj":2287,"Ġsled":2288,"zko":2289,"spoÅĪ":2290,"Ġmohol":2291,"Ġvytvor":2292,"Kto":2293,"stve":2294,"Ġcelom":2295,"ovanÃŃm":2296,"zia":2297,"ĠinÅ¡titÃº":2298,"Ġodbor":2299,"ĠvÃ´bec":2300,"Ġpohy":2301,"Ġtvoj":2302,"ĠzatiaÄ¾":2303,"Ġ000":2304,"ĠpokraÄį":2305,"kovaÅ¥":2306,"ieÄ¾":2307,"tÃºra":2308,"Ġkontak":2309,"nd":2310,"ĠÃŃsÅ¥":2311,"ĠÄıalÅ¡ÃŃch":2312,"vÅ¡ak":2313,"sahu":2314,"ruÄį":2315,"Ġtest":2316,"anu":2317,"ĠdispozÃŃcii":2318,"Ġtaj":2319,"ĠspoloÄįen":2320,"ies":2321,"Ġnema":2322,"Ġniekedy":2323,"zer":2324,"Ã©r":2325,"ĠÃºÄįa":2326,"ĠpouÅ¾ÃŃvaÅ¥":2327,"Sa":2328,"ĠsÃºÄįasÅ¥ou":2329,"Ġblo":2330,"ron":2331,"ĠdetÃŃ":2332,"mentu":2333,"Ġtelef":2334,"Le":2335,"fin":2336,"Ġpeniaze":2337,"Ġfir":2338,"VeÄ¾":2339,"ĠpomÃ´cÅ¥":2340,"nejÅ¡ÃŃ":2341,"Ġagen":2342,"Ã¡ra":2343,"vÃ´":2344,"ĠtakÅ¾e":2345,"ĠsÃºkrom":2346,"ust":2347,"Ġzisti":2348,"Ã½Å¡":2349,"Ġstarost":2350,"Ko":2351,"ĠdobrÃ©":2352,"Ġdar":2353,"vin":2354,"ĠskÃ´r":2355,"ĠproblÃ©m":2356,"Ġiden":2357,"TakÅ¾e":2358,"prac":2359,"ĠzÃŃskaÅ¥":2360,"est":2361,"Nik":2362,"VÅ¡etky":2363,"mec":2364,"Ġhy":2365,"Ġnemo":2366,"ord":2367,"Ġ13":2368,"Ġ100":2369,"Ġsvojom":2370,"tal":2371,"skou":2372,"Som":2373,"ĠÅ¡por":2374,"Ġvon":2375,"ĠvyuÅ¾ÃŃva":2376,"cem":2377,"Ġmnoho":2378,"Ġ11":2379,"ĠkrajÃŃn":2380,"Okrem":2381,"teg":2382,"ĠÄįloveka":2383,"nÃŃkom":2384,"Ġanal":2385,"ĠpoÄįet":2386,"Ġbole":2387,"vÃ´li":2388,"ĠvedieÅ¥":2389,"rÃ¡Å¾":2390,"ĠpouÅ¾iÅ¥":2391,"Ġkla":2392,"ĠMar":2393,"rodz":2394,"ĠdolÃ¡":2395,"ĠsprÃ¡vne":2396,"rit":2397,"ĠpÃ´vod":2398,"rÃ½ch":2399,"ticky":2400,"bie":2401,"tri":2402,"ost":2403,"Ġstoro":2404,"rÃ¡cia":2405,"Ġzariadenia":2406,"tickÃ½ch":2407,"Ġtelo":2408,"skÃ½m":2409,"Ġzahrani":2410,"pÃŃs":2411,"vÃ½ch":2412,"neÅ¡":2413,"Ġsebe":2414,"Ġstret":2415,"Ġskupiny":2416,"ĠSe":2417,"ĠsÃºÄįasnosti":2418,"ovÃ©ho":2419,"ĠpriateÄ¾":2420,"MÃ´Å¾ete":2421,"ĠprÃ¡cu":2422,"ĠveÄ¾ko":2423,"ÄįÃŃna":2424,"Ġry":2425,"ĠSloven":2426,"ĠkÄ¾Ãº":2427,"nÃŃm":2428,"ĠtÃ¡":2429,"Ġpoh":2430,"ana":2431,"Äİal":2432,"anÃ½ch":2433,"Å¥az":2434,"Äıalej":2435,"ĠstrÃ¡nky":2436,"ĠoveÄ¾a":2437,"ĠdosÅ¥":2438,"Ġprofe":2439,"jÃºcich":2440,"Ġhlad":2441,"Ġtvrd":2442,"Ġobnov":2443,"ĠÂ":2444,"Å¡Å¥":2445,"Ġtro":2446,"Ġ[":2447,"Ġtrans":2448,"ĠAl":2449,"Ġsprav":2450,"âĢľ,":2451,"âĢĵ":2452,"Ġ14":2453,"tÃ½ch":2454,"ĠGo":2455,"Ġrozdiel":2456,"Ġprid":2457,"ĠnovÃ½ch":2458,"ĠvoÄįi":2459,"Ġvody":2460,"ĠmnohÃ½ch":2461,"ĠnÃ¡ro":2462,"kÃ½m":2463,"ĠEurÃ³pe":2464,"ĠÃºÄįely":2465,"ĠzaujÃŃm":2466,"ĠÃºrovni":2467,"gy":2468,"ÄįenÃŃ":2469,"ĠÄįer":2470,"lÃ½ch":2471,"kup":2472,"mysle":2473,"Ġkone":2474,"Äįenia":2475,"gia":2476,"ÃºÄį":2477,"Ä½ud":2478,"Ġ25":2479,"ĠkonkrÃ©":2480,"ĠLe":2481,"ĠvÃ½ch":2482,"Ġkapi":2483,"bliÅ¾ne":2484,"Ġ16":2485,"Ġist":2486,"ĠÄįak":2487,"ĠsÃŃ":2488,"Ġstarostlivo":2489,"lav":2490,"tec":2491,"ĠsociÃ¡l":2492,"Ġcelkov":2493,"Ġnepria":2494,"Ġrozvoj":2495,"ĠÅ¾ivote":2496,"gli":2497,"ÃŃc":2498,"Ġroka":2499,"bri":2500,"Ġochranu":2501,"ĠpomÃ¡ha":2502,"ĠnÃ¡bo":2503,"ĠpredtÃ½m":2504,"kvi":2505,"lovi":2506,"Ġenergie":2507,"rieÅ¥":2508,"Ġnariadenia":2509,"Ġdopl":2510,"Ġroky":2511,"Ãºf":2512,"Ġobraz":2513,"Ġnevie":2514,"Ã´b":2515,"Ġ:":2516,"ĠneskÃ´r":2517,"cifi":2518,"Ġzmeny":2519,"Ã¡lna":2520,"Ġzi":2521,"ĠproblÃ©my":2522,"Ġproces":2523,"Ġmimo":2524,"anÃŃm":2525,"ĠvÃ¡Å¡ho":2526,"Ġ50":2527,"hra":2528,"Ġdiev":2529,"Jeho":2530,"ĠvÃ½skum":2531,"Ġobyva":2532,"Ġvykon":2533,"ĠvÃ½kon":2534,"ĠmyÅ¡":2535,"Ġodpoved":2536,"ĠaspoÅĪ":2537,"ĠspÃ¤Å¥":2538,"pro":2539,"Ġpriamo":2540,"kÃ½ch":2541,"Ã½ta":2542,"ĠnÃ¡zor":2543,"mok":2544,"Ġabs":2545,"Ġ17":2546,"Ġjednej":2547,"Ġven":2548,"pravy":2549,"ĠvÃ½voj":2550,"emi":2551,"Ġsub":2552,"enÃ½m":2553,"Ġpodmienky":2554,"sne":2555,"Potom":2556,"Ã´vod":2557,"ĠsÃ¡m":2558,"Ġovplyv":2559,"Ġodse":2560,"Ġporiad":2561,"ĠjednÃ½m":2562,"ĠopÃ¤Å¥":2563,"Ġpopu":2564,"uÅ¾":2565,"cami":2566,"tka":2567,"Äįer":2568,"ĠkaÅ¾dÃ©ho":2569,"ĠspÃ¡":2570,"ĠÄįÃŃ":2571,"Ġporov":2572,"Ġba":2573,"kraj":2574,"Teraz":2575,"Ġhlas":2576,"Ã©n":2577,"ĠnapÃŃs":2578,"kiaÄ¾":2579,"ĠTe":2580,"ĠskutoÄįnosti":2581,"Äįil":2582,"Ġzad":2583,"ĠvzdelÃ¡":2584,"ĠdolÃ¡rov":2585,"nil":2586,"Ġcha":2587,"ĠBoha":2588,"Ġzobraz":2589,"MoÅ¾":2590,"renie":2591,"Ġtrest":2592,"ĠvÃ½raz":2593,"bili":2594,"Ġzas":2595,"ĠniektorÃ½ch":2596,"ĠpriÄįom":2597,"plo":2598,"Ġumie":2599,"ĠmetÃ³":2600,"ĠvÃ½ni":2601,"ĠvecÃŃ":2602,"tickej":2603,"Äįajne":2604,"Ġminim":2605,"Ġsva":2606,"ĠreÅ¡":2607,"Ġvec":2608,"Ġpriebe":2609,"lenia":2610,"Ġtrh":2611,"Å¡tÃ¡":2612,"publi":2613,"ĠvÄıaka":2614,"ĠnÃ¡vÅ¡te":2615,"iÄį":2616,"jekt":2617,"Ġodh":2618,"Ġstrane":2619,"ĠminÃºt":2620,"zident":2621,"ĠHo":2622,"ĠbÃ½va":2623,"ela":2624,"Ġosoby":2625,"Ġjednoducho":2626,"ĠvaÅ¡ej":2627,"ĠÅ¡i":2628,"vaÅ¾":2629,"Ġar":2630,"ĠkvÃ´li":2631,"Ġvedom":2632,"UÅ¾":2633,"Ġvplyv":2634,"ĠNa":2635,"ckÃ½m":2636,"ĠtÃ½mto":2637,"tim":2638,"ĠpoÄ¾":2639,"Ġnevyhnut":2640,"Kon":2641,"Å¾ite":2642,"hlo":2643,"deÅĪ":2644,"hi":2645,"tnÃ¡":2646,"Ġnarod":2647,"Å¡lo":2648,"200":2649,"lin":2650,"Ġonline":2651,"Ġskve":2652,"nutÃŃ":2653,"vanÃ©":2654,"Ġvyb":2655,"ĠmateriÃ¡l":2656,"sion":2657,"Ġnielen":2658,"Å¡im":2659,"Ġprijat":2660,"ĠÃºspeÅ¡":2661,"ĠzvlÃ¡":2662,"ĠrÃ´zne":2663,"De":2664,"Å¾Å¡ie":2665,"jde":2666,"ĠsprÃ¡vy":2667,"ĠtvÃ¡":2668,"Ġkro":2669,"Len":2670,"ÄįÃŃta":2671,"poveÄı":2672,"Ġfotogra":2673,"Ġbudeme":2674,"ĠbeÅ¾":2675,"Ġpi":2676,"ĠveÄ¾kÃ½":2677,"omen":2678,"ĠSa":2679,"ĠtakÃ½":2680,"St":2681,"Ġhne":2682,"ĠzaÄįÃŃna":2683,"ciÃ¡ch":2684,"Nech":2685,"ond":2686,"ĠÄįist":2687,"ĠpÃ¡r":2688,"ĠÅ¡tÃ½":2689,"avy":2690,"ĠakÃ½":2691,"ĠRu":2692,"sed":2693,"Ġuda":2694,"hne":2695,"ĠpÃ¤Å¥":2696,"Ġhry":2697,"ĠkultÃº":2698,"mÃ½Å¡":2699,"?\"":2700,"ĠThe":2701,"ĠzÃŃska":2702,"tnej":2703,"ĠkÃºp":2704,"ĠBoÅ¾":2705,"ĠzÃ¡p":2706,"ĠkÃ³":2707,"rel":2708,"ĠdÃ¡v":2709,"kej":2710,"ĠnezÃ¡vis":2711,"Ġokrem":2712,"ĠnÃ¡sled":2713,"Ġveku":2714,"giu":2715,"ĠmusÃŃte":2716,"ĠzahÅķÅĪa":2717,"ĠvÃ¤":2718,"Ġvtedy":2719,"Ġaktivi":2720,"Ġume":2721,"ĠnebezpeÄį":2722,"vetov":2723,"ĠvÃ½Å¡":2724,"mys":2725,"ĠobrÃ¡":2726,"Ġpredaj":2727,"201":2728,"ĠdostaÅ¥":2729,"ĠhodÃŃn":2730,"verzi":2731,"ĠsÃºbo":2732,"ĠnÃ¡boÅ¾en":2733,"Ġvyz":2734,"Poz":2735,"ace":2736,"ĠzÃ¡roveÅĪ":2737,"ovanej":2738,"Ġply":2739,"ÅĪovaÅ¥":2740,"ĠchvÃŃ":2741,"ln":2742,"ĠprijÃŃm":2743,"tili":2744,"ĠoznaÄį":2745,"isto":2746,"Ġmesta":2747,"Ġnau":2748,"Ġnepre":2749,"Å¡kod":2750,"kto":2751,"rali":2752,"ĠkrajinÃ¡ch":2753,"Ġglob":2754,"go":2755,"Bol":2756,"tk":2757,"Äįili":2758,"poklad":2759,"tiz":2760,"Ġhist":2761,"ogle":2762,"ĠPre":2763,"stom":2764,"Ġjednu":2765,"lÃ¡v":2766,"ĠÄįlenskÃ½ch":2767,"ĠÅ¾ien":2768,"Ġkomis":2769,"Ġpia":2770,"tujÃº":2771,"stvÃ¡":2772,"Ġnajviac":2773,"ĠÅ¡tvr":2774,"Ã¡lneho":2775,"toÄįnÃ©":2776,"ĠkeÄıÅ¾e":2777,"ĠumoÅ¾ÅĪuje":2778,"Ġtroch":2779,"Ġjedna":2780,"ĠDe":2781,"ĠprÃŃtom":2782,"stie":2783,"ting":2784,"kovÃ½ch":2785,"ĠÅ¡tÃºdi":2786,"ovÃº":2787,"Ġkeby":2788,"SpoloÄįnosÅ¥":2789,"Ġrad":2790,"Ġprirodz":2791,"ĠbudÃºcnosti":2792,"nutÃ©":2793,"toÄįne":2794,"Ġpoten":2795,"vap":2796,"ckom":2797,"ĠpribliÅ¾ne":2798,"Ä¾u":2799,"ĠvnÃºtor":2800,"AkÃ©":2801,"Ġpodnik":2802,"ister":2803,"ĠslÃº":2804,"Ġmieste":2805,"tÃŃm":2806,"Ġmesiacov":2807,"ĠtÃŃ":2808,"Ma":2809,"pie":2810,"ĠPar":2811,"laÅ¥":2812,"Ã©ri":2813,"ĠnÃŃ":2814,"ĠsÃºvislosti":2815,"ĠnÃ¡Å¡ho":2816,"ĠvytvoriÅ¥":2817,"Ġtex":2818,"ĠdieÅ¥":2819,"Ġobo":2820,"ĠÃļnie":2821,"ĠÃºrad":2822,"bÃ¡":2823,"Ġdisk":2824,"ĠinÃ½":2825,"Ġexistuje":2826,"ĠX":2827,"Ġot":2828,"Ġodmie":2829,"Ġrepubli":2830,"Ġprak":2831,"Ġbun":2832,"Ġprogram":2833,"ĠÅ¡tand":2834,"vok":2835,"ĠosobnÃ½ch":2836,"ĠvÅ¡etkÃ½m":2837,"tieÅ¾":2838,"Ġkrajine":2839,"Ġpodpor":2840,"ĠÄįlÃ¡nok":2841,"ĠnÃ¡stro":2842,"Ġmeno":2843,"tiÅ¾":2844,"cÃ©":2845,"ĠzmeniÅ¥":2846,"ĠzÃ¡sad":2847,"Ġspravod":2848,"terna":2849,"Ġoblast":2850,"ĠNew":2851,"ĠrozÅ¡ÃŃ":2852,"ĠnÃ¡z":2853,"ĠsvÃ¤":2854,"Ġmaj":2855,"Ġposil":2856,"Ġplo":2857,"Ġcir":2858,"ĠÅ¾iÅ¥":2859,"Ġkomple":2860,"pÃŃ":2861,"Samo":2862,"Ġanti":2863,"stre":2864,"Ġhmo":2865,"ĠÅ¥aÅ¾kÃ©":2866,"nenia":2867,"alÃŃ":2868,"ĠstaÅ¥":2869,"Ġdizaj":2870,"Ġdokumen":2871,"Ã³nu":2872,"leg":2873,"znamen":2874,"Ã´leÅ¾i":2875,"end":2876,"Ġpor":2877,"ĠmyÅ¡lien":2878,"Ġchod":2879,"ĠdesaÅ¥":2880,"Ġpercent":2881,"ĠÄįinnosti":2882,"Ġnastav":2883,"hrad":2884,"Ġat":2885,"sÃŃm":2886,"Ġmoc":2887,"kÃ¡ch":2888,"Ġzdrojov":2889,"Ġdigi":2890,"nii":2891,"stroj":2892,"ĠÄıalÅ¡ÃŃ":2893,"ĠÄįia":2894,"bil":2895,"ĠrobÃŃ":2896,"lit":2897,"rec":2898,"ĠtÃ½kajÃºce":2899,"Ġdra":2900,"uro":2901,"Ä¾uje":2902,"ĠprÃŃpadoch":2903,"ĠpoznÃ¡":2904,"Ġtis":2905,"VÅ¡etko":2906,"los":2907,"Ġmesto":2908,"ĠÅ¡pecifi":2909,"ĠtotiÅ¾":2910,"Ġukaz":2911,"Ġobsahuje":2912,"Ġchla":2913,"ster":2914,"Ġzhrom":2915,"torov":2916,"Ġpocit":2917,"Ġrakov":2918,"Ġdospe":2919,"Ġradi":2920,"meran":2921,"Ġpotreby":2922,"covia":2923,"tÃŃvny":2924,"Ġochor":2925,"ĠprvÃ©":2926,"ĠÅĪom":2927,"voja":2928,"Ġporad":2929,"ĠSt":2930,"Ġkateg":2931,"ĠzaÄįaÅ¥":2932,"ĠÄįlenov":2933,"Ġregist":2934,"ĠnÃ¡jde":2935,"Ġkor":2936,"Ġkomb":2937,"tickÃ½":2938,"Ġhrani":2939,"Ġinf":2940,"Äįku":2941,"ÄįnÃ½m":2942,"Ġpek":2943,"alian":2944,"udÃº":2945,"ĠpravidlÃ¡":2946,"Ġindi":2947,"ĠdÃ´ve":2948,"VÃ¤ÄįÅ¡":2949,"ĠobÄį":2950,"ĠzloÅ¾":2951,"Ho":2952,"ĠdokÃ¡Å¾e":2953,"ĠvlÃ¡d":2954,"ĠtÃ½Å¾deÅĪ":2955,"ĠzaÄįiatku":2956,"ĠnÃŃm":2957,"ĠnajvyÅ¡":2958,"Ġdruhej":2959,"Ġpripoj":2960,"alÃ¡":2961,"stra":2962,"hou":2963,"Pov":2964,"ciami":2965,"ĠBri":2966,"ĠvnÃºtro":2967,"ĠbezpeÄįnost":2968,"Vie":2969,"ĠprÃŃjem":2970,"ĠnaÄıalej":2971,"her":2972,"Ġpresved":2973,"ĠrieÅ¡enie":2974,"kaÅ¥":2975,"Å¾il":2976,"Ġbudem":2977,"Ġkam":2978,"ĠpamÃ¤":2979,"Ġdefin":2980,"Ġpriebehu":2981,"stu":2982,"are":2983,"entov":2984,"ĠdÃ¡va":2985,"lou":2986,"Ġautoma":2987,"Ġsprac":2988,"ĠinÃ©ho":2989,"ĠvÃ½sledky":2990,"Äįin":2991,"jednÃ¡":2992,"Ġnimi":2993,"ĠSpojenÃ½ch":2994,"ĠprÃŃrod":2995,"ĠpracovaÅ¥":2996,"Ġvra":2997,"rostred":2998,"MoÅ¾no":2999,"Ved":3000,"ĠÅ½":3001,"Ġklien":3002,"Ã©di":3003,"imi":3004,"ss":3005,"stiÅ¥":3006,"Ġstane":3007,"Ġostrov":3008,"Ġzre":3009,"Ġreak":3010,"Ġrodiny":3011,"ĠzaÄįa":3012,"ĠÅ¡e":3013,"Ġok":3014,"11":3015,"Ġproduktov":3016,"rite":3017,"Ġidentifi":3018,"ÄºÅ¾":3019,"Ġuviedol":3020,"ĠdieÅ¥aÅ¥":3021,"mor":3022,"ĠosobnÃ©":3023,"Ġochrany":3024,"Ġzvo":3025,"edzi":3026,"Ġbie":3027,"ĠvÃ¤z":3028,"menie":3029,"Ġzverej":3030,"ĠpoÅ¾iadavky":3031,"Ġcvi":3032,"Ġrado":3033,"Pou":3034,"Ġrekla":3035,"ĠÅ¡tyri":3036,"kÃ¡cie":3037,"ĠJeÅ¾iÅ¡":3038,"ĠbÃ¡":3039,"ĠdÃ´kaz":3040,"tad":3041,"stvom":3042,"Ġobrov":3043,"zÃ¡cie":3044,"Ã´Å¾u":3045,"Ġzameran":3046,"ciach":3047,"ĠdosiahnuÅ¥":3048,"Ġpolovi":3049,"Ġded":3050,"udz":3051,"Ä½udia":3052,"Ġpochop":3053,"ĠkresÅ¥an":3054,"ovanÃ©ho":3055,"fri":3056,"zmus":3057,"Ġchud":3058,"Ġnorm":3059,"ĠzÃ¡vÃ¤z":3060,"ĠchcÃº":3061,"mokra":3062,"nili":3063,"olÃ³":3064,"drÅ¾ia":3065,"Ġchoro":3066,"ĠDu":3067,"Ġbohat":3068,"Ãģno":3069,"klada":3070,"Ġmeste":3071,"enÃ½mi":3072,"tich":3073,"ĠvlastnÃ©":3074,"Ġpravide":3075,"xim":3076,"ĠchÃ½":3077,"nika":3078,"Ã¡ri":3079,"Ġposkytuje":3080,"Ġponu":3081,"Ġ24":3082,"ĠdaÅ¥":3083,"Ġpozi":3084,"ĠdÃ´vodu":3085,"enom":3086,"Ġprogramu":3087,"Ġtajom":3088,"Ġsami":3089,"ĠCir":3090,"Ġsved":3091,"PoÄįas":3092,"ovÅ¡et":3093,"Ġnechce":3094,"ĠDo":3095,"ĠÃ¡":3096,"Ġpresne":3097,"Ġhl":3098,"Ġdoma":3099,"mail":3100,"ĠÃºnie":3101,"Ġdohod":3102,"ĠosÃ´b":3103,"ĠRady":3104,"Ġtela":3105,"dÃ¡":3106,"Ġvysoko":3107,"Ġprejav":3108,"Ġstalo":3109,"AvÅ¡ak":3110,"risti":3111,"Ġdvoj":3112,"Ġzviera":3113,"tnÃ½ch":3114,"ĠpatrÃŃ":3115,"ruÅ¾":3116,"Ġnev":3117,"Ġcharak":3118,"panie":3119,"nuÅ¥":3120,"zÃŃv":3121,"dli":3122,"ĠzÃºÄįa":3123,"ĠPro":3124,"Ġsmernice":3125,"Dnes":3126,"pust":3127,"Ġzdravie":3128,"Ġvede":3129,"Å¡ieho":3130,"ĠpouÅ¾itie":3131,"Ġpartner":3132,"Ġpsy":3133,"ct":3134,"ĠrozpoÄį":3135,"ĠvÃ¤ÄįÅ¡ina":3136,"12":3137,"Ġnesp":3138,"Ġrozde":3139,"ĠmuÅ¾ov":3140,"Å¾ili":3141,"bal":3142,"ĠbezpeÄįnosti":3143,"Ġpotvrd":3144,"gan":3145,"EÃļ":3146,"Ġprez":3147,"kol":3148,"ĠVÃ¡m":3149,"Mys":3150,"Ġmoder":3151,"ĠlekÃ¡r":3152,"ĠMe":3153,"Å¡etr":3154,"tovÃ©":3155,"ĠorgÃ¡n":3156,"zmu":3157,"ziden":3158,"ÃºÅ¡":3159,"Ġsko":3160,"miesto":3161,"koniec":3162,"Ġukon":3163,"Ġelektroni":3164,"nodu":3165,"ĠmÃ´Å¾em":3166,"Ġpredme":3167,"Ġvyrob":3168,"ĠbezpeÄįnosÅ¥":3169,"ĠPÃ¡":3170,"cion":3171,"Ġvr":3172,"ĠnÃŃz":3173,"PrÃ¡":3174,"ĠhraÅ¥":3175,"pte":3176,"tol":3177,"Ġdlhod":3178,"ĠmalÃ©":3179,"skyt":3180,"bÃŃ":3181,"ĠpoÅ¾ad":3182,"ovÅ¡etkÃ½m":3183,"Äįnom":3184,"Ġpoko":3185,"ĠdneÅ¡":3186,"Ġsexu":3187,"ĠmÃ´jho":3188,"ĠorganizÃ¡cie":3189,"Ġvypl":3190,"Ã¡lnu":3191,"Ġzdroj":3192,"Ġtvor":3193,"rÃ¡lne":3194,"\",":3195,"hodno":3196,"Åķt":3197,"tÃ¡cie":3198,"Ġpredstavuje":3199,"ĠmusieÅ¥":3200,"ton":3201,"ĠotÃ¡zky":3202,"ĠÅ¡truk":3203,"Ġstal":3204,"slov":3205,"Ġmoz":3206,"Ide":3207,"lÃ¡d":3208,"ĠÄįe":3209,"som":3210,"Ġpriemysel":3211,"ĠprÃŃbeh":3212,"Ġinform":3213,"Å¡la":3214,"Ġsym":3215,"Ġzmluv":3216,"ĠvzÃ¡":3217,"Ġvstup":3218,"?âĢľ":3219,"ftvÃ©":3220,"ovaniu":3221,"rÃ¡ciu":3222,"kÃ½":3223,"ĠstratÃ©":3224,"Ġpredpoklad":3225,"ĠÄĮÃŃ":3226,"Ġzastav":3227,"sie":3228,"Ġpripom":3229,"Ġteplo":3230,"lenÃ½":3231,"ĠschvÃ¡":3232,"Ġpev":3233,"Ġelektri":3234,"Ġkonku":3235,"daj":3236,"Ġ40":3237,"ĠurÄįite":3238,"Ġcelej":3239,"ĠnÃ¡zov":3240,"ĠkaÅ¾":3241,"Ġvar":3242,"Pom":3243,"Å¾a":3244,"Ġprodukty":3245,"ĠdÃ´sledku":3246,"Ġnajmen":3247,"ĠrÃ¡d":3248,"Ġokam":3249,"ĠuvÃ¡dza":3250,"ĠpozÃŃ":3251,"Ġnajd":3252,"Ã³rie":3253,"ĠPa":3254,"ĠEurÃ³pskeho":3255,"Ġhroz":3256,"ĠslovÃ¡":3257,"ĠvnÃºtroÅ¡tÃ¡":3258,"ĠEurÃ³py":3259,"Ġenerge":3260,"Ġtrva":3261,"Sp":3262,"Ġtrochu":3263,"Ġ2015":3264,"ĠGoogle":3265,"formÃ¡":3266,"Nem":3267,"ĠnazÃ½va":3268,"alebo":3269,"Ġodkaz":3270,"Ġmobil":3271,"lÃ¡cie":3272,"ĠÃºlohu":3273,"Ġser":3274,"Ã³ne":3275,"Ġnee":3276,"ĠnÃ¡vr":3277,"iet":3278,"ĠkaÅ¾dej":3279,"ĠhovoriÅ¥":3280,"vky":3281,"mienok":3282,"ĠÄįÃŃm":3283,"Ġâ":3284,"ĠII":3285,"ĠIzra":3286,"tel":3287,"kev":3288,"ĠÅ¾iada":3289,"Ġotvo":3290,"Ġky":3291,"fa":3292,"Ġemi":3293,"Å¥ah":3294,"ĠvÃ½z":3295,"ĠvaÅ¡ich":3296,"ĠCo":3297,"loÅ¾iÅ¥":3298,"tory":3299,"ĠprinÃ¡":3300,"ĠÃºÄįel":3301,"nice":3302,"ĠNemec":3303,"ĠÄ¾uÄıom":3304,"Ġrozhodnutia":3305,"Ġrozhodnutie":3306,"Ġopak":3307,"ĠtelevÃŃ":3308,"ĠdodÃ¡va":3309,"ĠinvestÃŃ":3310,"Ġinteg":3311,"ĠLi":3312,"uk":3313,"ĠRo":3314,"ĠdobrÃ½":3315,"ĠvÃ½ber":3316,"lik":3317,"ĠvyhÄ¾ad":3318,"ĠudrÅ¾ateÄ¾":3319,"jÃŃ":3320,"Ġude":3321,"Ġspl":3322,"ciÃ¡lny":3323,"Ġpohyb":3324,"Ġzmluvy":3325,"ĠprÃŃde":3326,"Ġprezident":3327,"Ġ198":3328,"chyb":3329,"ĠvyÅ¡Å¡ie":3330,"Ġsklad":3331,"ologi":3332,"Ġvybav":3333,"ĠreÅ¾i":3334,"ĠzvyÄįajne":3335,"Ġhodnoty":3336,"kro":3337,"Ġlietad":3338,"ĠskÃºÅ¡":3339,"vanÃ½":3340,"Ġinak":3341,"Äįila":3342,"Ġvojen":3343,"SN":3344,"ĠoznÃ¡mi":3345,"ĠnajvÃ¤ÄįÅ¡":3346,"rila":3347,"Ġ0":3348,"Ġuvedom":3349,"ada":3350,"ĠkaÅ¾dom":3351,"Ġdy":3352,"nejÅ¡ÃŃch":3353,"nal":3354,"Ġsamozrejme":3355,"Ġpotrebuje":3356,"ĠÄ¾ahko":3357,"Ġzmie":3358,"ĠcelÃ©ho":3359,"ĠprÃŃklad":3360,"Ġzran":3361,"Ġiz":3362,"ĠTo":3363,"ĠstoroÄįia":3364,"ĠtÃ©":3365,"50":3366,"Ã´d":3367,"Ġnapriek":3368,"kcie":3369,"trov":3370,"Ġchcem":3371,"Ġposkytov":3372,"ĠÅ¡k":3373,"Ã¡Å¡":3374,"ĠrozprÃ¡":3375,"ziu":3376,"uper":3377,"ruh":3378,"ĠpohÄ¾ad":3379,"ĠÃºroveÅĪ":3380,"meÅĪ":3381,"ĠostatnÃ½ch":3382,"ovalo":3383,"Bolo":3384,"Ġdostane":3385,"ĠposlednÃ½ch":3386,"ĠporuÅ¡":3387,"mÃº":3388,"Ġco":3389,"ĠkoÄ¾ko":3390,"voÄ¾":3391,"ĠVeÄ¾":3392,"ĠsÃºhlas":3393,"Ġmedi":3394,"ede":3395,"Ġjedine":3396,"tila":3397,"Äįian":3398,"ĠprÃ¡vom":3399,"kali":3400,"uÅ¥":3401,"Ġriziko":3402,"Ġhrd":3403,"Ġpravdepodobne":3404,"ktÃ³":3405,"Ġcestu":3406,"Ġdotk":3407,"Ġofi":3408,"ĠVÃ¡s":3409,"Ġkrv":3410,"ĠznÃ¡me":3411,"ĠzabezpeÄįiÅ¥":3412,"Ġsmrti":3413,"Ġkontrol":3414,"Ġsebou":3415,"Ġfinanc":3416,"chani":3417,"Ġjanu":3418,"mon":3419,"Ġodseku":3420,"ĠznÃ¡my":3421,"Ġpubli":3422,"Ġvl":3423,"Ġprofesion":3424,"Ġosobit":3425,"ĠSpo":3426,"Ġrada":3427,"Ġhra":3428,"tiv":3429,"ĠtretÃŃ":3430,"ĠdeÅ¥":3431,"del":3432,"Dob":3433,"pod":3434,"ĠnÃ¡klady":3435,"VÅ¾dy":3436,"ĠÄįÃŃslo":3437,"Ġhvie":3438,"Ġceny":3439,"Ġdni":3440,"NaprÃŃklad":3441,"ĠnavÅ¡":3442,"ĠzaÄįal":3443,"ĠzariadenÃŃ":3444,"Ġfi":3445,"oÄ¾":3446,"Ġpodmienok":3447,"Ġmohla":3448,"Å¾as":3449,"ĠÄįom":3450,"âĢ¢":3451,"Ãºpi":3452,"VÅ¡etci":3453,"Ġchcel":3454,"armo":3455,"Ġmoja":3456,"ĠvyÅ¾aduje":3457,"rÃº":3458,"Ġdobu":3459,"Viac":3460,"ite":3461,"skÃ½mi":3462,"Ġabsol":3463,"mou":3464,"ĠFrancÃºz":3465,"ĠpoÄ¾noho":3466,"haÅ¥":3467,"ĠznÃŃÅ¾":3468,"ĠnÃ¡d":3469,"Ġkrajina":3470,"ĠzÃ¡kaznÃŃkov":3471,"ĠmoÅ¾nosti":3472,"ĠvlÃ¡dy":3473,"stÃ¡le":3474,"30":3475,"kedy":3476,"ĠdÃ´vodov":3477,"Ġmesia":3478,"stej":3479,"EurÃ³p":3480,"bÃº":3481,"acebo":3482,"ĠsoftvÃ©":3483,"tenie":3484,"Ġnemus":3485,"ĠvzÅ¥ahu":3486,"Ġvzdu":3487,"Ġarch":3488,"ĠohÄ¾adu":3489,"ĠpouÅ¾ÃŃvajÃº":3490,"ĠKa":3491,"ĠÄįlenskÃ©":3492,"VÃ¤ÄįÅ¡ina":3493,"tÃ©ho":3494,"ĠÅ¡ÃŃ":3495,"rozu":3496,"ĠnemajÃº":3497,"Nikdy":3498,"Ġdecem":3499,"asled":3500,"ĠmÃ©di":3501,"ĠsmrÅ¥":3502,"tami":3503,"Ġnemu":3504,"Ġpodrob":3505,"Ã³na":3506,"nÃ¡va":3507,"lÃ©ho":3508,"sli":3509,"tovÃ½ch":3510,"mati":3511,"istori":3512,"kuje":3513,"ĠtechnolÃ³gi":3514,"Ġvzdia":3515,"Ġnebol":3516,"Ġ21":3517,"edzinÃ¡rod":3518,"ÅĪazÃŃ":3519,"ĠrieÅ¡enia":3520,"mami":3521,"ĠvyuÅ¾i":3522,"lenÃŃ":3523,"Va":3524,"Ġdemokra":3525,"ĠÃºto":3526,"ĠoprÃ¡v":3527,"Ġlete":3528,"Ġtakto":3529,"ler":3530,"ĠvyrÃ¡":3531,"Sta":3532,"anom":3533,"Ġprimeran":3534,"ĠriaditeÄ¾":3535,"iteÄ¾ov":3536,"Ġsvojim":3537,"ĠÄįier":3538,"ĠpredovÅ¡etkÃ½m":3539,"ĠblÃŃzko":3540,"NiektorÃ©":3541,"ĠpeÅĪazÃŃ":3542,"Ġkonf":3543,"ĠsystÃ©mov":3544,"Ġ2016":3545,"ĠÃºze":3546,"mes":3547,"ĠuvedenÃ½ch":3548,"Ġprostredie":3549,"Hlav":3550,"ÂŃ":3551,"Ġoce":3552,"Ã´leÅ¾itej":3553,"vinu":3554,"ĠkÃ¡":3555,"Ġdoprav":3556,"ĠoÄįi":3557,"Ġnikto":3558,"Ġ2014":3559,"Ġparlamentu":3560,"iam":3561,"Ġmaxim":3562,"Ġnavr":3563,"Ġzist":3564,"Ġnepri":3565,"ĠÅ¡tÃ¡toch":3566,"pak":3567,"ĠBoÅ¾ie":3568,"Samozrejme":3569,"Ġdobe":3570,"Ġves":3571,"ĠprÃŃj":3572,"Ġstave":3573,"iska":3574,"15":3575,"nanie":3576,"Ġznovu":3577,"ore":3578,"ĠKrist":3579,"sty":3580,"Ġporiadku":3581,"ĠzÃ¡pas":3582,"ĠÅ¾ena":3583,"ĠodpoveÄı":3584,"ĠnovÃ©ho":3585,"Ġfunkcie":3586,"lek":3587,"ĠnÃ¡stroj":3588,"pozor":3589,"Ġnami":3590,"kÃ¡zal":3591,"Ġodpad":3592,"ĠprÃŃspe":3593,"ÄºÅĪa":3594,"Äįen":3595,"Ġnesmie":3596,"ĠskÃºsenosti":3597,"ble":3598,"Vz":3599,"tÃ¡r":3600,"ĠpoÄįÃº":3601,"ĠnaÅ¡u":3602,"Ã´raz":3603,"kovÃ½":3604,"ckou":3605,"ĠnovÃº":3606,"ĠponÃºk":3607,"Ġneod":3608,"oc":3609,"cÃŃch":3610,"Sme":3611,"liad":3612,"tÃ©ri":3613,"ĠtakÃ½ch":3614,"ĠmyslÃŃ":3615,"Ġhe":3616,"Ġvojny":3617,"ĠvesmÃŃ":3618,"anej":3619,"ĠnenÃ¡":3620,"ĠvedÃº":3621,"Ġosoba":3622,"Ġvzor":3623,"ĠprÃŃlo":3624,"ĠprichÃ¡dza":3625,"vosÅ¥":3626,"Ãºto":3627,"Bez":3628,"aleko":3629,"dlo":3630,"ĠduÅ¡e":3631,"Ġneob":3632,"ant":3633,"ĠVy":3634,"Ġformu":3635,"Ġtov":3636,"uto":3637,"fÃ©":3638,"Ġrokmi":3639,"ĠorgÃ¡ny":3640,"Äıte":3641,"iar":3642,"Ġodde":3643,"qu":3644,"Ġslovo":3645,"kÃ¡Å¾":3646,"Ġchemi":3647,"Ġprvom":3648,"Ġduchov":3649,"Ġpacientov":3650,"ĠpoloÅ¾":3651,"Ġminister":3652,"tickÃ¡":3653,"ĠvybraÅ¥":3654,"ĠmÃ¤":3655,"ĠpoÅ¡kod":3656,"Ġ2017":3657,"Ġprostredia":3658,"ĠuÅ¾i":3659,"ĠpozornosÅ¥":3660,"TO":3661,"ciÃ¡m":3662,"MÃ¡m":3663,"stoj":3664,"Ġpoze":3665,"aly":3666,"ĠobÄ¾Ãºb":3667,"Ġpreu":3668,"zuje":3669,"tla":3670,"Ġdlhodob":3671,"ĠÄ¾uÄımi":3672,"rig":3673,"nitor":3674,"Ġbod":3675,"ĠSy":3676,"Ġpoku":3677,"ĠÅ¾ije":3678,"tÃŃvnych":3679,"ÃŃÅ¡":3680,"ii":3681,"Ġzbran":3682,"Ġsyn":3683,"ĠistÃ©":3684,"ĠdievÄįa":3685,"ptem":3686,"tnÃ©ho":3687,"ĠkrÃ¡s":3688,"Ġter":3689,"aniu":3690,"livosÅ¥":3691,"udi":3692,"Ġprest":3693,"ĠzniÅ¾":3694,"Ġtero":3695,"ĠZÃ¡":3696,"Ġbudov":3697,"ĠanalÃ½":3698,"Ġmne":3699,"Ġmas":3700,"Aby":3701,"ĠLa":3702,"spek":3703,"Ġmechani":3704,"VÄıaka":3705,"zÃ¡cia":3706,"PokiaÄ¾":3707,"paniel":3708,"ĠodporÃºÄįa":3709,"Ġdenne":3710,"Ġvysvet":3711,"ĠpomÃ´Å¾e":3712,"Ã´j":3713,"Ġzozna":3714,"Ġ60":3715,"Alebo":3716,"Ġcelkom":3717,"Ġdohody":3718,"18":3719,"ĠsÅ¥aÅ¾":3720,"skoro":3721,"Ġobdobie":3722,"ĠsprÃ¡va":3723,"ĠlÃ¡sky":3724,"ĠnÃ¡vrh":3725,"ĠmÅķt":3726,"ĠtÃ½mi":3727,"ĠvÃ½robkov":3728,"ĠmusÃŃme":3729,"Ġhoci":3730,"xistujÃº":3731,"ĠvÃ½men":3732,"ĠzÃºÄįast":3733,"Ġsez":3734,"ĠoktÃ³":3735,"ĠÅ¡tandard":3736,"Ġpolitiky":3737,"ĠtakÃ©to":3738,"Ġpredsed":3739,"znak":3740,"ĠodporÃºÄį":3741,"ĠdodrÅ¾ia":3742,"Ġinteli":3743,"trÃ©":3744,"ĠvaÅ¡u":3745,"ĠdÅĪ":3746,"stov":3747,"ĠÃºÅ¾as":3748,"Ġpotrebujete":3749,"Ġregu":3750,"Ġautomobil":3751,"nila":3752,"ĠinÃ½m":3753,"Ġsiete":3754,"ĠprispÃ´sob":3755,"Ġcenu":3756,"nenÃŃ":3757,"ĠvyuÅ¾ÃŃ":3758,"Kde":3759,"ĠdÃ¡tu":3760,"ĠÅ¡esÅ¥":3761,"ĠOSN":3762,"ona":3763,"Ġpreziden":3764,"Ġzamestnancov":3765,"ĠschopnosÅ¥":3766,"Ġhmot":3767,"ĠsociÃ¡lne":3768,"Ġkonkuren":3769,"ĠmanaÅ¾":3770,"lejÅ¡ie":3771,"Ġuprav":3772,"menia":3773,"zon":3774,"gatÃŃv":3775,"Ġneved":3776,"keting":3777,"ĠdrÅ¾":3778,"ĠobÄįian":3779,"Ġdomu":3780,"vÃ¡Å¾":3781,"ĠproblÃ©mov":3782,"ĠvlÃ¡da":3783,"Ġniekoho":3784,"nami":3785,"ĠÃºÄįast":3786,"ĠÅ¾iadny":3787,"ĠvÃ½chod":3788,"ĠBa":3789,"Ġnena":3790,"ĠlÃ¡ska":3791,"ĠtechnolÃ³gie":3792,"Å¡enie":3793,"ckÃ½mi":3794,"Ġ2018":3795,"ĠEU":3796,"ĠniekoÄ¾kÃ½ch":3797,"Ġdoda":3798,"iano":3799,"Ġspokoj":3800,"ĠvhodnÃ©":3801,"Ġdr":3802,"eni":3803,"ĠvÃŃÅ¥az":3804,"Ġjad":3805,"vili":3806,"Ġkvality":3807,"Ġadre":3808,"ĠjesÅ¥":3809,"ĠzaÄįne":3810,"rÃ¡va":3811,"ĠprÃ¡ci":3812,"vanÃ¡":3813,"byt":3814,"ĠvaÅ¡a":3815,"Existuje":3816,"Ġknihy":3817,"ÄĮlen":3818,"Ġpredsa":3819,"avÃ©":3820,"Ġsla":3821,"ĠprinÃ¡Å¡a":3822,"kÃ¡zaÅ¥":3823,"tÃ¡cia":3824,"tosÅ¥":3825,"Ġohroz":3826,"ĠBritÃ¡":3827,"Ġdoz":3828,"VeÄı":3829,"ĠaprÃŃ":3830,"nanÃŃ":3831,"Ġleg":3832,"Ġznova":3833,"ovateÄ¾":3834,"kaj":3835,"ĠzdieÄ¾":3836,"Ġklasi":3837,"Ġobdobia":3838,"ĠpriÅ¡iel":3839,"Ġnemali":3840,"Ġnovej":3841,"ĠhneÄı":3842,"ĠbuÄı":3843,"rek":3844,"Ġseptem":3845,"Ġpokoj":3846,"ĠpreskÃº":3847,"vaj":3848,"cej":3849,"ĠÅ¥aÅ¾ko":3850,"Ġtyp":3851,"Ġreali":3852,"zii":3853,"Ġzoznam":3854,"Ġkur":3855,"ĠstrÃ¡nke":3856,"ĠostatnÃ©":3857,"jsÅ¥":3858,"Napriek":3859,"ĠvykonÃ¡va":3860,"ĠtoÄ¾ko":3861,"ĠuÄįi":3862,"ĠviesÅ¥":3863,"Å¡iÅ¥":3864,"ĠplanÃ©":3865,"Mno":3866,"Ġmojej":3867,"ĠinÃ½mi":3868,"ĠnÃ¡sil":3869,"Ġmaje":3870,"Ġkonci":3871,"nenÃ½":3872,"tiu":3873,"ĠvÃ¡Å¾ne":3874,"Ġteba":3875,"mia":3876,"ĠmÃ¡lo":3877,"Ġpravdu":3878,"ĠktorÃ½mi":3879,"Ġzem":3880,"ĠBohu":3881,"ĠposkytnÃºÅ¥":3882,"lok":3883,"rovoÄ¾":3884,"iacich":3885,"Ä¾ahli":3886,"ĠfrancÃºz":3887,"Ġangli":3888,"Potreb":3889,"Ġtvoje":3890,"Ġtrie":3891,"ĠneustÃ¡le":3892,"ĠvyzerÃ¡":3893,"cke":3894,"Ġdet":3895,"ranie":3896,"nÃ³":3897,"ĠsieÅ¥":3898,"stred":3899,"ĠakÃ½m":3900,"14":3901,"ĠKomisie":3902,"Ġvyvo":3903,"istri":3904,"Ġrie":3905,"ĠmÃ´cÅ¥":3906,"ĠÅ¡ta":3907,"On":3908,"ĠinÅ¡pi":3909,"ĠprvÃ½krÃ¡t":3910,"Ġodvet":3911,"Ġprospe":3912,"ong":3913,"prava":3914,"tosti":3915,"ĠmÃº":3916,"Ro":3917,"rÃ½va":3918,"mne":3919,"Ġuspo":3920,"Ġceste":3921,"ĠÅ¡an":3922,"Ġstrom":3923,"ĠzodpovednosÅ¥":3924,"Ġnebolo":3925,"ĠcelÃ©":3926,"Ġgra":3927,"Ġpomoci":3928,"Ġprekvap":3929,"ori":3930,"Ġute":3931,"lanie":3932,"Ġuzav":3933,"Ġneme":3934,"Ġposti":3935,"nik":3936,"iadne":3937,"Ġteho":3938,"zdy":3939,"Ġ2013":3940,"Ġmohlo":3941,"ĠÄ¾udskÃ©":3942,"Ten":3943,"ork":3944,"Ġ197":3945,"Ġkal":3946,"Ġpovedala":3947,"Ġzabud":3948,"ĠobrÃ¡z":3949,"Ġus":3950,"ĠhistÃ³ri":3951,"cyk":3952,"ĠzÃ¡ujem":3953,"kÃ¡zali":3954,"âĢĻ":3955,"ĠpoÄ¾nohospodÃ¡r":3956,"ĠaplikÃ¡cie":3957,"13":3958,"hnutie":3959,"ĠvedÄ¾a":3960,"Cel":3961,"Äįiek":3962,"ĠprÃŃÄį":3963,"Ã¡te":3964,"ĠkÄ¾ÃºÄį":3965,"ĠnemoÅ¾":3966,"land":3967,"Ġprodukt":3968,"ĠopatrenÃŃ":3969,"Ġkontrolu":3970,"ĠsprÃ¡vu":3971,"Ġzla":3972,"Ġnavrh":3973,"novÃ¡":3974,"ĠzruÅ¡":3975,"Ġchor":3976,"ws":3977,"ĠÅ¡koly":3978,"akujem":3979,"ĠAp":3980,"ovom":3981,"tora":3982,"ĠvÃ½hod":3983,"ĠodliÅ¡":3984,"ĠpÃŃ":3985,"ĠcelÃº":3986,"dili":3987,"ĠinÅ¡t":3988,"ĠkÃºpiÅ¥":3989,"Ġhru":3990,"tali":3991,"ĠdruhÃ½":3992,"stÃºpi":3993,"Ġfotograf":3994,"ĠjednoduchÃ©":3995,"ĠvÃ½robky":3996,"vor":3997,"ĠnÃ¡zvom":3998,"jaÅ¥":3999,"ĠzÃ¡pad":4000,"Ġsamostat":4001,"iaci":4002,"ĠinovÃ¡":4003,"eny":4004,"ĠzaÄįala":4005,"ĠbudÃºcnosÅ¥":4006,"Ġzelen":4007,"ER":4008,"Ġpas":4009,"Ġumiestn":4010,"Ġcyk":4011,"Ġtvr":4012,"Ned":4013,"vidu":4014,"Ġmonitor":4015,"ĠJoh":4016,"tis":4017,"Ġustanovenia":4018,"ĠexistujÃº":4019,"Ġjednotliv":4020,"ĠWin":4021,"Ãį":4022,"Ġkonferen":4023,"ĠzÃ¡stup":4024,"ĠÄįias":4025,"Ġmomen":4026,"hoda":4027,"Ġkup":4028,"ĠvyplÃ½va":4029,"ĠfÃ¡":4030,"zovaÅ¥":4031,"Ġpohod":4032,"Ġhistori":4033,"teÄ¾nÃ½":4034,"VeÄ¾mi":4035,"Ġsrdce":4036,"Ġsily":4037,"16":4038,"ĠBe":4039,"ĠÃºsil":4040,"ĠzdÃ´raz":4041,"Ġslobod":4042,"ĠprijaÅ¥":4043,"!\"":4044,"Ġhlbo":4045,"Ġplatfor":4046,"Ã³ria":4047,"ĠpouÅ¾ÃŃvanie":4048,"ĠkaÅ¾dÃº":4049,"Ġjednom":4050,"ang":4051,"Ġ22":4052,"ĠAr":4053,"ĠcÃŃtiÅ¥":4054,"Ġvedie":4055,"ovor":4056,"hle":4057,"Ġran":4058,"ĠvzÃ¡jom":4059,"Ġdoby":4060,"Ġkry":4061,"ld":4062,"Ġobran":4063,"ĠprÃ¡ca":4064,"Ġprote":4065,"ĠtaktieÅ¾":4066,"Ġpara":4067,"ĠakÃº":4068,"tÃ¡ch":4069,"Ġhodnotu":4070,"minÃ¡":4071,"lil":4072,"ĠzaÄįali":4073,"Najlep":4074,"Jej":4075,"Ver":4076,"Ġskupina":4077,"Ġcesty":4078,"tau":4079,"ĠnegatÃŃv":4080,"ĠvnÃŃm":4081,"Ġneo":4082,"torom":4083,"Ã¡lu":4084,"IS":4085,"Ġrodin":4086,"ĠdieÅ¥aÅ¥a":4087,"Ġobjek":4088,"Prav":4089,"kovej":4090,"ebru":4091,"ĠKomisia":4092,"Ġini":4093,"Ġkrok":4094,"ujte":4095,"Ġobsahu":4096,"Ġpreno":4097,"ĠKri":4098,"Ġnovem":4099,"chÃ¡dzaÅ¥":4100,"Ġakej":4101,"ĠvÃ½nim":4102,"ĠFran":4103,"Ġprepoj":4104,"Medzi":4105,"ĠkombinÃ¡":4106,"Ġtradi":4107,"ĠodstrÃ¡n":4108,"jÃºceho":4109,"Ġoblastiach":4110,"fik":4111,"ÄĮi":4112,"Ġnajmenej":4113,"ĠzÃ¡kona":4114,"ĠpokÃº":4115,"ĠAk":4116,"gent":4117,"Ġvlastne":4118,"Ġchlad":4119,"ĠzvÃ½Å¡iÅ¥":4120,"Ġpoist":4121,"ĠsnaÅ¾ÃŃ":4122,"Ġdal":4123,"ĠzÃ¡ko":4124,"ĠTi":4125,"ĠnejakÃ©":4126,"ÅĪaÅ¥":4127,"Ġpol":4128,"radÃŃ":4129,"Ġmysle":4130,"ĠnÃ¡pad":4131,"Ġnapl":4132,"ĠJo":4133,"ĠDa":4134,"tickÃ©ho":4135,"Ġznamen":4136,"ĠÄįinnosÅ¥":4137,"Ġbrat":4138,"ĠprÃŃro":4139,"Ġand":4140,"Ġoni":4141,"rka":4142,"Ġuniverzi":4143,"ĠprÃŃznak":4144,"ĠSpoloÄį":4145,"Ġkrvi":4146,"lieha":4147,"Op":4148,"Ġzmysle":4149,"aÅ¾Äı":4150,"17":4151,"ĠplatÃŃ":4152,"zda":4153,"dav":4154,"bÃ¡ch":4155,"ĠzÃ¡bav":4156,"ung":4157,"teraz":4158,"lÃŃn":4159,"Ġchudob":4160,"Ġpodnika":4161,"Ġalterna":4162,"Ġalbu":4163,"our":4164,"Ġnoci":4165,"ĠÃºÄįinky":4166,"ĠzÃ¡leÅ¾ito":4167,"Ġmig":4168,"istra":4169,"ÄįaÅ¥":4170,"kÃ¡cia":4171,"Ġzvu":4172,"TieÅ¾":4173,"Bola":4174,"Komis":4175,"ĠslÃ¡v":4176,"Ġhlavne":4177,"hom":4178,"rb":4179,"ĠstÃ¡va":4180,"klo":4181,"ĠsvojÃŃm":4182,"ĠpolÃŃ":4183,"vanÃŃm":4184,"Ġhote":4185,"Mal":4186,"Ġokol":4187,"Å¾d":4188,"ĠpokraÄįovaÅ¥":4189,"viesÅ¥":4190,"ĠdigitÃ¡l":4191,"ÅĪovanie":4192,"stal":4193,"ĠnajdÃ´leÅ¾itej":4194,"Ġsubjek":4195,"Ġminulosti":4196,"Ġmarketing":4197,"PoÄį":4198,"ĠCa":4199,"ĠreÅ¡pe":4200,"ĠakÃ©koÄ¾vek":4201,"ĠfinanÄįnÃ½ch":4202,"Ġchlap":4203,".)":4204,"stiach":4205,"ĠveÄįer":4206,"Ġvyda":4207,"hÃ¡":4208,"Ġ90":4209,"Ġzapoj":4210,"ĠspoloÄįnostÃŃ":4211,"ĠSo":4212,"ĠNÃ¡":4213,"Ġ196":4214,"Ġmodlit":4215,"Äįiar":4216,"cy":4217,"ĠRa":4218,"ĠÅ¡tÃ¡te":4219,"ĠhÄ¾adiska":4220,"Hovor":4221,"Ġfirmy":4222,"ÄĮas":4223,"ĠnÃ¡jdete":4224,"Ġnut":4225,"Kedy":4226,"tÃŃvnej":4227,"nÃŃkmi":4228,"Ġprih":4229,"Ġmodel":4230,"Ġple":4231,"skym":4232,"Ġkance":4233,"skup":4234,"zme":4235,"nica":4236,"Å¡Å¥ast":4237,"baÅ¥":4238,"ĠÅ¡tÃºdie":4239,"Ka":4240,"ĠÅ¾ivotnÃ©ho":4241,"ĠÄ¾udskÃ½ch":4242,"veri":4243,"oma":4244,"ĠarmÃ¡":4245,"ĠÃ¡no":4246,"Ã¡lnym":4247,"Ġoble":4248,"AN":4249,"Ġtovar":4250,"prv":4251,"uÅ¾ÃŃva":4252,"Ġbojov":4253,"Ġ&":4254,"ĠzÃ¡ve":4255,"Ġfilm":4256,"ĠrodiÄįov":4257,"ĠmÃºd":4258,"Ġklu":4259,"Ġneboli":4260,"Ġsvojimi":4261,"Ġfebru":4262,"ĠPe":4263,"ĠpotrebujÃº":4264,"ĠotÃ¡zku":4265,"Ġstro":4266,"ĠÃºdaj":4267,"Ġmis":4268,"Å¡aÅ¥":4269,"mÃ½Å¡Ä¾a":4270,"Ġkomplex":4271,"var":4272,"ĠAfri":4273,"Ġotec":4274,"naj":4275,"Ġmest":4276,"lym":4277,"tera":4278,"Ġzdroje":4279,"ĠSvÃ¤":4280,"Ġstup":4281,"Ä¾ub":4282,"Ġmimor":4283,"Ġpolo":4284,"Ġbrit":4285,"Ġmor":4286,"ĠvaÅ¡om":4287,"ĠpochÃ¡dza":4288,"ĠÅ¾ele":4289,"Ġ2010":4290,"Ġrady":4291,"Ġ80":4292,"duk":4293,"Ġdvom":4294,"ĠÄįÃŃn":4295,"tkom":4296,"kÃ¡ciu":4297,"ĠformÃ¡":4298,"Ġopu":4299,"Ġnos":4300,"ĠdcÃ©":4301,"Ġ2012":4302,"ĠsÃºÅ¥a":4303,"Ġprojektu":4304,"NemÃ´Å¾e":4305,"rÃ½":4306,"oden":4307,"ĠrovnakÃ©":4308,"Ġdesia":4309,"Ġprojekt":4310,"Ġvyp":4311,"ĠGa":4312,"ĠFacebo":4313,"liny":4314,"Ġhodiny":4315,"nÃŃctva":4316,"ĠfinanÄįnÃ©":4317,"ĠviacerÃ½ch":4318,"ĠvzÅ¥ahy":4319,"bus":4320,"ĠvrÃ¡tiÅ¥":4321,"Ġvideo":4322,"Ġrobia":4323,"ĠnedÃ¡v":4324,"isko":4325,"bami":4326,"icro":4327,"Ġdopln":4328,"Ġvlasy":4329,"vÃŃja":4330,"Ġindividu":4331,"Ġvonkaj":4332,"ĠnejakÃ½":4333,"Ġrozpo":4334,"ĠtisÃŃc":4335,"lami":4336,"ĠpodobnÃ©":4337,"ĠudrÅ¾ia":4338,"tÃ¡ciu":4339,"Mnoh":4340,"Chcem":4341,"Ġ2020":4342,"ĠminÃº":4343,"ĠokamÅ¾ite":4344,"stejÅ¡ie":4345,"Ġvzdialen":4346,"tisti":4347,"rtifi":4348,"Zat":4349,"ĠnaÅ¡i":4350,"hoch":4351,"tolÃŃ":4352,"moch":4353,"ĠneprÃŃ":4354,"Ġthe":4355,"ĠEx":4356,"Ġrozhodne":4357,"tin":4358,"ff":4359,"TÃ½m":4360,"vody":4361,"ĠUni":4362,"ĠprosÃŃm":4363,"ĠtelefÃ³n":4364,"ĠspoÄ¾ahli":4365,"ruje":4366,"ĠKo":4367,"Ġpriemer":4368,"Ġrezer":4369,"ovaru":4370,"ĠpozrieÅ¥":4371,"ĠpracovnÃ½ch":4372,"Ġmlie":4373,"pravu":4374,"tÃŃva":4375,"MÃ¡te":4376,"tovej":4377,"Ã©rie":4378,"Ġnemoc":4379,"rujÃº":4380,"Ġsad":4381,"Ġrela":4382,"ĠstrÃ¡nok":4383,"Ã¡vania":4384,"Ġzvierat":4385,"Ġvami":4386,"NiektorÃŃ":4387,"Ġdostal":4388,"prÃ¡v":4389,"sÃº":4390,"ĠzlÃ©":4391,"Äįist":4392,"ĠAko":4393,"Ġciele":4394,"ĠkedykoÄ¾vek":4395,"ĠprÃŃleÅ¾itosÅ¥":4396,"ĠspoloÄįne":4397,"Ġkari":4398,"Ġnakoniec":4399,"ĠdobrovoÄ¾":4400,"Ġbolesti":4401,"Zo":4402,"Ġjednou":4403,"Ġcook":4404,"PretoÅ¾e":4405,"aja":4406,"ĠznÃŃÅ¾iÅ¥":4407,"Ã¡lnom":4408,"ĠobdobÃŃ":4409,"tÃŃvy":4410,"Ġ2011":4411,"ĠHe":4412,"ome":4413,"bezpeÄį":4414,"25":4415,"Rov":4416,"ĠkonkrÃ©t":4417,"ĠpotravÃŃn":4418,",âĢĿ":4419,"Ġvystav":4420,"Ġdeje":4421,"ove":4422,"Ã¡cie":4423,"Ġstala":4424,"ĠUS":4425,"Ġaktivity":4426,"noch":4427,"Ġurobil":4428,"Ġsymbo":4429,"lal":4430,"Ġpravda":4431,"ĠsystÃ©my":4432,"MyslÃŃm":4433,"Ġkapa":4434,"Ġsam":4435,"edi":4436,"Ġcertifi":4437,"Ġbra":4438,"Ġzjed":4439,"Ġvita":4440,"ĠÅ¾iadosÅ¥":4441,"Ġ28":4442,"hnutÃ©":4443,"ĠoblasÅ¥":4444,"ĠnajlepÅ¡ÃŃ":4445,"Ġspoluprac":4446,"dsaÅ¥":4447,"enstva":4448,"ĠÃºspech":4449,"Ġam":4450,"Ġolej":4451,"star":4452,"Ġchceli":4453,"ĠÄıaleko":4454,"ĠpouÅ¾ÃŃvateÄ¾ov":4455,"ĠobjednÃ¡":4456,"ĠrÃ¡no":4457,"ĠnebudÃº":4458,"Tre":4459,"gram":4460,"enstvo":4461,"AkÃ½":4462,"So":4463,"Ġzaznamen":4464,"Ġpodsta":4465,"!!":4466,"Ġcesta":4467,"ĠkniÅ¾":4468,"ĠzostÃ¡va":4469,"Ġ23":4470,"Ġnamiesto":4471,"Ã¡ly":4472,"kovateÄ¾":4473,"Ġinvest":4474,"Ġfunguje":4475,"ovÃ½m":4476,"Ġsilu":4477,"Ġforme":4478,"Ġprostriedky":4479,"MÃ´j":4480,"stran":4481,"sem":4482,"ĠnaÅ¡om":4483,"ĠÄįlÃ¡nkom":4484,"ĠpÃŃsm":4485,"KoÄ¾ko":4486,"vyk":4487,"cka":4488,"ĠspoloÄįnosÅ¥ou":4489,"skum":4490,"ts":4491,"lnÃ©":4492,"ner":4493,"ĠnÃ¡vÅ¡tev":4494,"cko":4495,"ajte":4496,"lÃ¡da":4497,"uÅ¾i":4498,"Ġtovaru":4499,"Ġdro":4500,"nutÃŃm":4501,"Ġge":4502,"Ġrozsahu":4503,"ĠprÃ¡vnych":4504,"Ġhovoria":4505,"ĠnavÅ¡tÃŃv":4506,"Ġruky":4507,"Ġtransak":4508,"Ġnedosta":4509,"Ġpren":4510,"Ġtypu":4511,"stiev":4512,"ovia":4513,"ĠprincÃŃ":4514,"Ġvozidiel":4515,"Ġhudob":4516,"ji":4517,"PrÃ¡ve":4518,"lobod":4519,"rÃ¡cii":4520,"zne":4521,"hovoru":4522,"ank":4523,"Ġeko":4524,"Ġsrdca":4525,"Äįilo":4526,"chran":4527,"Ġkonania":4528,"Ġprvej":4529,"arilo":4530,"Ġviem":4531,"ash":4532,"Ġlokali":4533,"oku":4534,"sme":4535,"ÄįenÃ½":4536,"ĠvyÅ¡etr":4537,"Nevie":4538,"EN":4539,"ĠkonkrÃ©tne":4540,"au":4541,"tickÃº":4542,"ĠpotenciÃ¡l":4543,"pen":4544,"tovÃ½":4545,"ÄįenÃ©":4546,"ĠmladÃ½ch":4547,"kovÃ¡":4548,"Ġdre":4549,"ĠÃºÄįtov":4550,"Ġviete":4551,"Komisia":4552,"ĠdaÅĪ":4553,"Ġprebie":4554,"ĠkÅĪa":4555,"anÃ©ho":4556,"ĠrÃº":4557,"ris":4558,"ĠveÄ¾kÃ¡":4559,"ĠvyuÅ¾iÅ¥":4560,"Ġreag":4561,"ĠlÃ¡sku":4562,"ah":4563,"ĠkaÅ¾doden":4564,"tÃºru":4565,"ĠveÄ¾kÃº":4566,"ÄįnÃ½mi":4567,"ÄİalÅ¡ie":4568,"Ġem":4569,"ĠsociÃ¡lnych":4570,"ĠuvoÄ¾":4571,"Ġkonca":4572,"ĠuznÃ¡":4573,"ĠStre":4574,"ĠnaÅ¡a":4575,"pia":4576,"Ġprija":4577,"bur":4578,"stvu":4579,"ĠhlavnÃ©":4580,"Äıa":4581,"Ste":4582,"ovacie":4583,"ĠjasnÃ©":4584,"ĠpriateÄ¾ov":4585,"Ġdistri":4586,"ĠspotrebiteÄ¾":4587,"OS":4588,"ĠbalÃŃ":4589,"Ġchceme":4590,"Ġvynika":4591,"ĠÃºra":4592,"ĠminimÃ¡lne":4593,"tÃŃvna":4594,"Ġkonzu":4595,"Ġzaj":4596,"bliÅ¾":4597,"Ġzdravia":4598,"tnÃº":4599,"SkÃº":4600,"ĠchÃ½ba":4601,"Å¡ade":4602,"Ġinforma":4603,"Ġlicen":4604,"rv":4605,"ĠâĢĶ":4606,"Ġautor":4607,"Ġ2008":4608,"ĠÅ¡pecia":4609,"ĠTu":4610,"ĠRus":4611,"rast":4612,"ovanÃ½m":4613,"Ġsvojou":4614,"grafi":4615,"rgani":4616,"tÃ¡m":4617,"dila":4618,"vetli":4619,"ĠistÃ½":4620,"ĠporovnanÃŃ":4621,"Ġnebola":4622,"ĠbolesÅ¥":4623,"ovanÃº":4624,"lus":4625,"ĠorgÃ¡nov":4626,"Kom":4627,"Ġnadob":4628,"Ġzeme":4629,"Ġpremen":4630,"maÅ¥":4631,"Ġzaved":4632,"Hoci":4633,"Ġupozor":4634,"Ġeur":4635,"icroso":4636,"Ġprocesu":4637,"Ġzapla":4638,"ĠvlastnÃº":4639,"sen":4640,"ĠnevyhnutnÃ©":4641,"Ġzamest":4642,"ĠlÃ¡tky":4643,"Å½i":4644,"ĠLond":4645,"mlu":4646,"IA":4647,"cer":4648,"ĠÅ¡peciÃ¡lne":4649,"kmi":4650,"lili":4651,"ĠobyvateÄ¾ov":4652,"Ġnoc":4653,"ino":4654,"lieÅ¥":4655,"nenÃ¡":4656,"raÅ¡truk":4657,"Ġzv":4658,"ĠnapÃŃsal":4659,"ĠeurÃ³pskych":4660,"Ġsus":4661,"anÃºÅ¡i":4662,"ĠCirkvi":4663,"Ġuh":4664,"Ġzmysel":4665,"we":4666,"Ġstani":4667,"bre":4668,"uli":4669,"ĠvnÃºtri":4670,"ĠÅ¾iadosti":4671,"sili":4672,"IN":4673,"ĠreÅ¡tau":4674,"Å¾iÅ¡":4675,"ĠspoloÄįnÃ©":4676,"nutÃ½":4677,"chode":4678,"Ġsti":4679,"Ġdov":4680,"ĠÅĪou":4681,"Ġ27":4682,"Ġporu":4683,"Ġ2009":4684,"ĠÅ¡irok":4685,"Ġstarostlivosti":4686,"ĠCon":4687,"Ãºfam":4688,"Ġocho":4689,"verov":4690,"ĠMi":4691,"nejÅ¡ia":4692,"zul":4693,"Ġvieme":4694,"Ġjedlo":4695,"pokoj":4696,"Ġpatria":4697,"ĠprÃŃpadov":4698,"ĠprvÃ½ch":4699,"iela":4700,"ĠVÃ¡Å¡":4701,"Ġ2019":4702,"volÃº":4703,"ĠpoÅ¾ia":4704,"EÅ¡te":4705,"Ġuli":4706,"ĠwebovÃ½ch":4707,"ĠHar":4708,"livosti":4709,"fil":4710,"Ve":4711,"ĠzÃ¡vislosti":4712,"lenÃ¡":4713,"PrvÃ½":4714,"ĠBi":4715,"vil":4716,"ĠvÃ½skumu":4717,"ĠchÃ¡":4718,"kÃºp":4719,"Ġfut":4720,"Ġsig":4721,"Ġodov":4722,"trak":4723,"ĠoÄįakÃ¡va":4724,"âĢĿ.":4725,"jÃºcej":4726,"arÃŃ":4727,"Ġdiskus":4728,"vahy":4729,"Ġinicia":4730,"Ġisla":4731,"ĠvÃ½bor":4732,"ĠkategÃ³ri":4733,"Ġpovie":4734,"rus":4735,"ĠzohÄ¾ad":4736,"Ġkuchy":4737,"Ġfon":4738,"dla":4739,"Ġadmin":4740,"Ġtitu":4741,"Ġsvetlo":4742,"ĠHa":4743,"Äįie":4744,"alizovaÅ¥":4745,"Ty":4746,"ĠHol":4747,"Mali":4748,"Ġzly":4749,"ĠÃºzemÃŃ":4750,"Ġpam":4751,"inÃ¡r":4752,"mÃŃn":4753,"Ġ194":4754,"isÅ¥":4755,"ieÄ¾a":4756,"nici":4757,"Ġsedem":4758,"Ġtera":4759,"ĠPÃ¡n":4760,"ZatiaÄ¾":4761,"ako":4762,"Niekedy":4763,"ĠjÃºna":4764,"ĠpovaÅ¾uje":4765,"Ġpoho":4766,"zÃ¡ciu":4767,"ĠnemÃ´Å¾u":4768,"ĠinfraÅ¡truk":4769,"Ġregion":4770,"Ġjadrov":4771,"....":4772,"Ġzbav":4773,"Ġzjav":4774,"ĠprÃ¡vne":4775,"Ġoprav":4776,"lÃ¡cia":4777,"sud":4778,"ĠBar":4779,"Ġdostali":4780,"dro":4781,"Ġ70":4782,"Ġfa":4783,"rigin":4784,"peri":4785,"renia":4786,"Ġ26":4787,"Ġinej":4788,"Ġoz":4789,"ĠÅ¡tÃºdia":4790,"ĠzÃ¡Å¾i":4791,"Ġnemal":4792,"Ġstrach":4793,"Ã¡rov":4794,"ley":4795,"ini":4796,"ĠAle":4797,"Ġdecembra":4798,"Ã¡vanie":4799,"Ġlu":4800,"ĠtÃºÅ¾":4801,"Ġsuper":4802,"Ġsmerom":4803,"ill":4804,"Ġzariadenie":4805,"ĠovlÃ¡d":4806,"ĠzlepÅ¡iÅ¥":4807,"ĠvÃ½roby":4808,"cim":4809,"Ã³re":4810,"eda":4811,"Najv":4812,"Ġsvojmu":4813,"ĠvÃ½hody":4814,"Ġstrate":4815,"ĠLu":4816,"ĠQ":4817,"ĠstojÃŃ":4818,"seÄ¾":4819,"sahuje":4820,"ĠnesprÃ¡v":4821,"myslu":4822,"Ġvyvinu":4823,"che":4824,"dows":4825,"Ġinfek":4826,"EC":4827,"ĠzÃ¡kladnÃ©":4828,"stane":4829,"kova":4830,"ĠvÅ¡etkÃ½mi":4831,"Ġsln":4832,"boru":4833,"Pozrite":4834,"ingu":4835,"Ġkvalitu":4836,"Ġtem":4837,"ĠEUR":4838,"odi":4839,"Ġpoplat":4840,"AR":4841,"tail":4842,"Ġdovolen":4843,"ĠstrÃ¡nku":4844,"Ġpal":4845,"ĠzloÄį":4846,"ĠtechnolÃ³giÃŃ":4847,"Ġkontroly":4848,"Ġdiag":4849,"ÅĪou":4850,"caj":4851,"ĠEuro":4852,"Ġutr":4853,"ĠvlastnÃ½":4854,"covi":4855,"Ġmiliar":4856,"ĠtakÃ½chto":4857,"Å¡ili":4858,"ĠvÃ¡Å¾":4859,"Ġrodina":4860,"Ġodo":4861,"Ġcuk":4862,"Ġpreven":4863,"ĠÃºzem":4864,"ÃºÅ¡Å¥a":4865,"Ġtrhov":4866,"Ġprispie":4867,"ĠuloÅ¾":4868,"Ġzmien":4869,"AS":4870,"Chcete":4871,"Ġmene":4872,"ĠÅ¾ivotnÃ©":4873,"tes":4874,"ĠznaÄįky":4875,"ÅĪu":4876,"lovaÅ¥":4877,"Rozhod":4878,"Ġhrie":4879,"Ġoboch":4880,"Ġpokro":4881,"ĠtvrdÃŃ":4882,"ĠÅ¾iadna":4883,"ĠTalian":4884,"ĠniÅ¾Å¡ie":4885,"Ġplne":4886,"Ġpodporuje":4887,"Nebo":4888,"Ġinvesti":4889,"ĠdomÃ¡c":4890,"ĠsÃºÅ¥aÅ¾":4891,"ced":4892,"Äįania":4893,"ĠkritÃ©ri":4894,"Ġleti":4895,"ĠÃºlohy":4896,"TÃŃ":4897,"Ġskla":4898,"dra":4899,"atie":4900,"ĠtrÃ©n":4901,"ĠmÃ¡Å¡":4902,"Ġzmenu":4903,"ĠmuÅ¾i":4904,"ĠchrÃ¡n":4905,"oni":4906,"Boh":4907,"kÃ¡Å¾u":4908,"Ġdruhov":4909,"ĠnachÃ¡dzajÃº":4910,"Ġlieky":4911,"Ġprev":4912,"ĠjanuÃ¡ra":4913,"!âĢľ":4914,"Ġznak":4915,"ĠextrÃ©":4916,"Ġpomer":4917,"ĠnajlepÅ¡ÃŃch":4918,"ovky":4919,"rÃ¡lny":4920,"ÄĮlenskÃ©":4921,"cept":4922,"ĠzostaÅ¥":4923,"ĠspojenÃ©":4924,"rilo":4925,"ĠvÃ½Å¡ke":4926,"viron":4927,"ĠvykonÃ¡vaÅ¥":4928,"ĠprvÃ¡":4929,"ĠzreteÄ¾om":4930,"Ġrade":4931,"Ġpredpisov":4932,"Ġvznik":4933,"Ġpozna":4934,"Ġkapaci":4935,"desia":4936,"ĠpochopiÅ¥":4937,"losvetov":4938,"ĠdlhÅ¡ie":4939,"Ġoptim":4940,"ĠSÃ½":4941,"ĠzÃ¡vaÅ¾":4942,"ĠradosÅ¥":4943,"formÃ¡cie":4944,"ĠzhromaÅ¾d":4945,"Ġnajnov":4946,"Ġvply":4947,"Se":4948,"ĠpoÅ¡":4949,"icrosoft":4950,"Ġocen":4951,"ĠuÄ¾ah":4952,"ĠcieÄ¾ov":4953,"ĠzloÅ¾i":4954,"ĠSan":4955,"Ġorganiz":4956,"ĠprvÃ©ho":4957,"Ġprete":4958,"ĠzistiÅ¥":4959,"Ġ500":4960,"mÃ½Å¡Ä¾":4961,"ĠvÃ½razne":4962,"Ġenergiu":4963,"Ġber":4964,"Ġinten":4965,"ĠfanÃºÅ¡i":4966,"Ameri":4967,"zdu":4968,"ĠkaÅ¾dÃ©":4969,"Ġodhad":4970,"isla":4971,"ĠstarostlivosÅ¥":4972,"prostred":4973,"ĠsituÃ¡cie":4974,"ĠrastÃº":4975,"Ġkoord":4976,"lÃ¡ch":4977,"Si":4978,"ĠâĢ¦":4979,"ĠzabezpeÄįenie":4980,"ĠveÄ¾kÃ½ch":4981,"Ġpravidiel":4982,"Ġsen":4983,"Ġrobo":4984,"igh":4985,"ĠsÃºhla":4986,"Ġpodstat":4987,"ĠrodiÄįia":4988,"24":4989,"loch":4990,"Å¤":4991,"ĠpracovnÃŃkov":4992,"ĠjÃºla":4993,"ĠobÄįanov":4994,"omet":4995,"gres":4996,"Ã¡me":4997,"ĠodstrÃ¡niÅ¥":4998,"Dokon":4999,"rÃ¡ciÃŃ":5000,"ceho":5001,"peÅ¾":5002,"Ġeu":5003,"Pra":5004,"Ġcitli":5005,"ĠSlovensku":5006,"Ġwebovej":5007,"ĠMan":5008,"ĠschopnÃ½":5009,"Ġuviedla":5010,"ĠefektÃŃv":5011,"Ġuzavre":5012,"ĠApple":5013,"Pa":5014,"sh":5015,"CieÄ¾":5016,"Ġ36":5017,"Ġ2007":5018,"ĠvÃ½nimo":5019,"ĠakÃ©ho":5020,"ÅĪaj":5021,"Ġjazyk":5022,"ĠnÃ¡dej":5023,"ĠurÄįenÃ©":5024,"Ġpovinnosti":5025,"Ġprostriedkov":5026,"StÃ¡":5027,"ĠUkraj":5028,"aty":5029,"kÃ¡m":5030,"ĠspÃ´sobiÅ¥":5031,"Ġodpo":5032,"Ġpodarilo":5033,"Å¡ÃŃmi":5034,"Ġhodnot":5035,"ĠMedzinÃ¡rod":5036,"Ġrastu":5037,"Ġcharakteri":5038,"ĠpÃ½ta":5039,"Ġbanky":5040,"ĠurÄįitÃ©":5041,"ĠCar":5042,"Ġmosli":5043,"Ġzaobe":5044,"kovÃ©ho":5045,"ĠjedinÃ½":5046,"ĠpredchÃ¡dzajÃº":5047,"Ġuk":5048,"Äįek":5049,"NaÅ¡e":5050,"ĠspoluprÃ¡ce":5051,"Ġpritom":5052,"ĠÄįlenskÃ©ho":5053,"Ġvymen":5054,"rala":5055,"Ġrozvoja":5056,"ĠkancelÃ¡":5057,"Ġexisten":5058,"ĠprÃŃsÅ¥":5059,"mos":5060,"Å¾ila":5061,"ĠvyzÃ½va":5062,"ĠtÃ½Å¾dÅĪov":5063,"all":5064,"Di":5065,"Me":5066,"Ġmoci":5067,"Ġzahr":5068,"tanie":5069,"nos":5070,"Ġanaly":5071,"ober":5072,"ĠnauÄįiÅ¥":5073,"Ġrozu":5074,"Ġkonzul":5075,"Ġobvin":5076,"gyp":5077,"Ġom":5078,"ĠposÃºd":5079,"ĠbudeÅ¡":5080,"Ġposta":5081,"ĠÄįÃŃta":5082,"Ġbat":5083,"ĠvyrieÅ¡":5084,"Ġschopnosti":5085,"ĠJohn":5086,"ĠohÄ¾adom":5087,"Sy":5088,"ger":5089,"ĠdostupnÃ©":5090,"ĠprÃŃstupu":5091,"ĠÅ¡tyroch":5092,"vame":5093,"ĠmalÃ½":5094,"ED":5095,"ĠvzhÄ¾adom":5096,"ĠdÄºÅ¾":5097,"Ġona":5098,"Ġpravidelne":5099,"xe":5100,"ĠÅĪu":5101,"kazuje":5102,"stÃºpiÅ¥":5103,"ĠvnÃºtroÅ¡tÃ¡t":5104,"ĠprÃŃleÅ¾itosti":5105,"ĠÃģ":5106,"ĠkapitÃ¡":5107,"ĠsledovaÅ¥":5108,"ĠGe":5109,"Ġfaj":5110,"ðŁ":5111,"ĠchrÃ¡niÅ¥":5112,"Ġpropa":5113,"Ġstali":5114,"ĠVÃ½":5115,"Ġneviem":5116,"nÃ¡sob":5117,"Mil":5118,"ĠLondÃ½":5119,"seÅĪ":5120,"Ġha":5121,"ĠvÅ¡ade":5122,"muni":5123,"ĠvytvÃ¡ra":5124,"ĠzruÄį":5125,"nech":5126,"ĠNA":5127,"ĠprÃŃsluÅ¡nÃ©":5128,"An":5129,"ĠniektorÃŃ":5130,"Ġkonflik":5131,"Ġover":5132,"22":5133,"Ġtomuto":5134,"Ġtabu":5135,"ĠdÃ´chod":5136,"Ġstabili":5137,"ĠvÃ¤ÄįÅ¡ie":5138,"ĠprÃ¡zd":5139,"cku":5140,"ĠDi":5141,"itelia":5142,"zv":5143,"Ġpsych":5144,"ĠamerickÃ½ch":5145,"kovanie":5146,"ĠjednotlivÃ½ch":5147,"ĠkariÃ©":5148,"tional":5149,",,":5150,"ÄįÃŃtaÅ¥":5151,"Ġpresad":5152,"tob":5153,"Ġ!":5154,"ĠParÃŃ":5155,"strov":5156,"Ġodovzd":5157,"ĠWil":5158,"Ġzaob":5159,"Sk":5160,"ĠtakÃ¡":5161,"ĠBer":5162,"Ur":5163,"rÃ³":5164,"ĠzdÃ¡":5165,"Ġnahrad":5166,"ĠPri":5167,"Ġrodinu":5168,"ĠÅ¡tÃ¡tom":5169,"Ġstia":5170,"ĠvÃ½robu":5171,"Ra":5172,"Ġfilmov":5173,"ĠtrÃ¡":5174,"Ġvyber":5175,"vÃ½m":5176,"menÃŃ":5177,"ĠnasledujÃºcich":5178,"ĠnÃ¡stroje":5179,"ĠSever":5180,"ĠvÃ½ko":5181,"Ġdruhy":5182,"spar":5183,"ĠdostatoÄįne":5184,"ĠmÃ¡ja":5185,"ĠzlepÅ¡enie":5186,"Ġsama":5187,"ujÃºceho":5188,"levan":5189,"PoznÃ¡":5190,"ĠMich":5191,"zÃ¡jom":5192,"Ġprojektov":5193,"lujÃº":5194,"dajÃº":5195,"Ġodvo":5196,"Ġneexistuje":5197,"Lebo":5198,"Ġmer":5199,"ĠkultÃºr":5200,"Äıar":5201,"Ġgu":5202,"ĠhrÃ¡Äįov":5203,"Druh":5204,"ĠpredchÃ¡dza":5205,"Jeden":5206,"ĠJeÅ¾iÅ¡a":5207,"Ġpali":5208,"vironmen":5209,"Ġbal":5210,"Ġpad":5211,"ĠCom":5212,"jak":5213,"Ġzemi":5214,"Ġcena":5215,"ĠposkytujÃº":5216,"Ġmnou":5217,"kovanÃ©":5218,"Ġher":5219,"ĠÂ»":5220,"ĠatÄı":5221,"Ġkoniec":5222,"ĠJapon":5223,"ĠvÃ½stav":5224,"haj":5225,"atia":5226,"ĠÃºÄįet":5227,"ĠSte":5228,"enou":5229,"Ġsvetovej":5230,"Ġnevi":5231,"Ġdej":5232,"Ġvlasov":5233,"ake":5234,"MÃ¡me":5235,"ĠpouÅ¾ÃŃvania":5236,"ĠÅ¡ie":5237,"ĠÅ¡tÃ½l":5238,"ĠotÃ¡zka":5239,"tex":5240,"ĠKrista":5241,"Ġarchite":5242,"ĠzvÃ½Å¡enie":5243,"gÃ¡":5244,"oro":5245,"Ġobchodu":5246,"Ġpohla":5247,"dom":5248,"rab":5249,"Ġprogramov":5250,"teÄ¾ne":5251,"ĠniÅ¾":5252,"ĠÅ¾iadnu":5253,"ĠtradÃŃ":5254,"ExistujÃº":5255,"ĠMat":5256,"ĠkrÃ¡sne":5257,"ĠoktÃ³bra":5258,"Ġstrana":5259,"tivÃ¡":5260,"ĠprekÃ¡Å¾":5261,"Ġpova":5262,"ĠvÃ½sledok":5263,"ĠmnohÃ©":5264,"Ġdrah":5265,"Ġovo":5266,"ĠnaznaÄį":5267,"nali":5268,"teÄ¾nÃ¡":5269,"Ġmojich":5270,"toÄįnÃ½":5271,"ĠpÃŃÅ¡e":5272,"Ã´l":5273,"ĠpÃ¡Äįi":5274,"vanje":5275,"uÅ¾ÃŃ":5276,"Nikto":5277,"ĠtvÃ¡r":5278,"ÅĪte":5279,"Ġknihu":5280,"ĠzÃ¡ru":5281,"ĠNi":5282,"Ġkama":5283,"ĠmalÃ½ch":5284,"ĠTrum":5285,"Ġproto":5286,"tiek":5287,"NA":5288,"pol":5289,"ano":5290,"Ġisto":5291,"Ġsloven":5292,"ĠvÃ½Å¾i":5293,"Ġposte":5294,"ĠbojovaÅ¥":5295,"Ġcestov":5296,"Ġrepubliky":5297,"Ġmotor":5298,"ĠWindows":5299,"Å¡nÃ©":5300,"Ġlogi":5301,"vala":5302,"ĠpokoÅ¾":5303,"Ġrozm":5304,"Ġzasad":5305,"Ġpotraviny":5306,"CO":5307,"Ġdata":5308,"Slov":5309,"Sku":5310,"ĠmyÅ¡lienky":5311,"Ġochorenia":5312,"leÅ¾ÃŃ":5313,"ĠzvyÅ¡uje":5314,"teÄ¾mi":5315,"dou":5316,"nostiach":5317,"ĠvykonaÅ¥":5318,"Ġjazd":5319,"kor":5320,"Ġvlastnosti":5321,"ĠpoÄįÃŃtaÄį":5322,"ĠdoÄįas":5323,"stich":5324,"Ġsused":5325,"Ġkm":5326,"21":5327,"raziÅ¥":5328,"oun":5329,"bok":5330,"VÃ½sled":5331,"vajÄįiar":5332,"Ġpapie":5333,"Ġprebieha":5334,"Ġcelosvetov":5335,"vlÃ¡Å¡Å¥":5336,"Ġvodu":5337,"ĠÃºvahy":5338,"ĠkaÅ¾dÃ¡":5339,"Ich":5340,"ĠakÃ¡":5341,"ĠvyskÃº":5342,"ĠstanovenÃ©":5343,"lÃ³g":5344,"ĠaktÃŃv":5345,"Ġautori":5346,"EB":5347,"ĠorganizÃ¡cia":5348,"Ã´Å¾":5349,"timi":5350,"esti":5351,"HÄ¾ad":5352,"zdrav":5353,"Ġtur":5354,"Ġkroky":5355,"ĠÅ¡Å¥astie":5356,"ĠpovinnosÅ¥":5357,"beÅ¾":5358,"ĠvylÃº":5359,"ĠnovÃ¡":5360,"Ġpoduj":5361,"let":5362,"ĠzhromaÅ¾Äı":5363,"ĠblÃŃz":5364,"Ġchoroby":5365,"Ġjasne":5366,"Ani":5367,"omo":5368,"Ġosem":5369,"ĠlieÄįby":5370,"ĠtretÃŃch":5371,"Ġrozdie":5372,"atÃŃ":5373,"ĠÅ¾ijÃº":5374,"ĠvyhlÃ¡sil":5375,"eru":5376,"ĠGu":5377,"vÃ©d":5378,"novi":5379,"ĠpodporovaÅ¥":5380,"Stre":5381,"ĠpodpÃŃs":5382,"vam":5383,"ĠvÃ¤ÄįÅ¡inu":5384,"Ġaugu":5385,"Ġmier":5386,"Ġvidel":5387,"ĠefektÃŃvne":5388,"Ġkoncent":5389,"Ġvybud":5390,"KeÄıÅ¾e":5391,"ĠpÃ¡n":5392,"Ġskoro":5393,"vanÃ½ch":5394,"ĠmuÅ¾a":5395,"Ġlimi":5396,"ĠkonaÅ¥":5397,"mart":5398,"ĠtÃ½mito":5399,"Ġadministra":5400,"ot":5401,"ĠstrÃ¡v":5402,"ĠlÃ¡tok":5403,"Ġvysvetli":5404,"ĠaprÃŃla":5405,"org":5406,"mej":5407,"ujÃºca":5408,"Ġmieru":5409,"ĠtrvÃ¡":5410,"Ġstrie":5411,"ĠzÃ¡kladnÃ½ch":5412,"ĠpotrebovaÅ¥":5413,"Ġokami":5414,"Ġmater":5415,"ĠpoÄįtu":5416,"PS":5417,"Ġpodpory":5418,"ĠkrÃ¡Ä¾":5419,"rien":5420,"stala":5421,"Ġplatob":5422,"ĠumoÅ¾nÃŃ":5423,"kych":5424,"Ġuverej":5425,"EurÃ³pska":5426,"ĠrÃ½chlejÅ¡ie":5427,"MÃ´Å¾em":5428,"ĠnÃ¡kladov":5429,"Al":5430,"Ġklini":5431,"ĠFor":5432,"ĠduÅ¡ev":5433,"ĠsituÃ¡cia":5434,"Rovnako":5435,"ted":5436,"ĠdediÄį":5437,"Ġzap":5438,"ĠhlavnÃ½ch":5439,"Ġfotografi":5440,"Ġtypy":5441,"gh":5442,"ĠlieÄįbu":5443,"ĠobchodnÃ½ch":5444,"Ġochrane":5445,"ĠpriÅ¡li":5446,"Ġozna":5447,"Ġrakoviny":5448,"Ġas":5449,"rgi":5450,"Ġmeta":5451,"Ġpracuje":5452,"net":5453,"pracov":5454,"form":5455,"ĠspÃ¡ja":5456,"ĠÄįÃŃsla":5457,"Ġbezplat":5458,"Ġsem":5459,"Ġinde":5460,"Ġreferen":5461,"Ġnedostat":5462,"ĠaktÃŃvne":5463,"ĠÄĮo":5464,"ĠsprÃ¡vanie":5465,".,":5466,"ĠspÃ´soby":5467,"NemÃ¡":5468,"Ġpriestoru":5469,"Å¾iad":5470,"ĠdesaÅ¥ro":5471,"Ġtouto":5472,"dali":5473,"Ġzomrel":5474,"stÃ¡va":5475,"lec":5476,"ĠÅ¡tÃ¡tmi":5477,"Ġ29":5478,"opis":5479,"Å¾iaÄ¾":5480,"Ġinteligent":5481,"Ġmarca":5482,"ĠnÃ¡dher":5483,"ĠBra":5484,"Ġseptembra":5485,"Ã¡rd":5486,"ĠposkytovateÄ¾":5487,"Ġpes":5488,"prez":5489,"ĠkoneÄįne":5490,"ilozo":5491,"Sna":5492,"ĠakÃ½ch":5493,"nilo":5494,"skÃŃ":5495,"ĠÄįlenom":5496,"Ġmikro":5497,"Ġtehoten":5498,"Ġpodoz":5499,"Ġudalosti":5500,"ĠVaÅ¡e":5501,"tÃºr":5502,"votnÃ©":5503,"Äįte":5504,"obili":5505,"sparent":5506,"ĠpredstaviÅ¥":5507,"ĠdobrÃ¡":5508,"ĠskutoÄįnosÅ¥":5509,"Ġpobre":5510,"ĠÅ¡portov":5511,"Ġriadenia":5512,"Ġdop":5513,"Ġ2006":5514,"ĠzÃŃskal":5515,"Osob":5516,"Ġlac":5517,"rn":5518,"ĠpracovnÃ©":5519,"Ġkomen":5520,"ujÃºcim":5521,"âĢĭ":5522,"Ġmul":5523,"Poved":5524,"enu":5525,"ĠtÃŃmu":5526,"ĠoficiÃ¡lne":5527,"ĠnajvÃ¤ÄįÅ¡ÃŃch":5528,"Dokonca":5529,"Ġakoby":5530,"ĠÃºrovne":5531,"stil":5532,"Ġautomaticky":5533,"Ġvytvorenie":5534,"Ġakcie":5535,"ĠpÃŃsom":5536,"nutÃ¡":5537,"ĠmetÃ³dy":5538,"Ġktorou":5539,"ĠÅ¡tatisti":5540,"bude":5541,"ĠzamestnÃ¡va":5542,"ĠvÃ½dav":5543,"Ce":5544,"Ġsvia":5545,"znaÅ¥":5546,"KaÅ¾dÃ¡":5547,"kÃ¡r":5548,"ĠprostredÃŃ":5549,"ĠcÃŃti":5550,"ĠPor":5551,"ĠnÃ¡rodov":5552,"Äįnou":5553,"Ġnapr":5554,"ĠtÃ½kajÃºcich":5555,"ĠkÃºpe":5556,"Ġ31":5557,"ĠnemusÃŃ":5558,"Äºb":5559,"zerÃ¡":5560,"ĠaktualizÃ¡":5561,"ĠmiliÃ¡rd":5562,"ĠstrÃ¡nkach":5563,"ĠdÅĪoch":5564,"Ġneuveri":5565,"ĠzaloÅ¾enÃ¡":5566,"Ġpest":5567,"inky":5568,"ĠÅ¡tudentov":5569,"avyÅ¡e":5570,"ĠveÄ¾kosÅ¥":5571,"ĠspoluprÃ¡cu":5572,"ĠmnohÃŃ":5573,"Ġprezidenta":5574,"ell":5575,"Ġkniha":5576,"Å¡ila":5577,"Ġenvironmen":5578,"Ġvozidla":5579,"nÃŃctvo":5580,"ĠspÃ´sobov":5581,"huÅ¾iaÄ¾":5582,"ĠAust":5583,"ĠschopnÃŃ":5584,"Nasled":5585,"ĠzvieratÃ¡":5586,"Ġhlavy":5587,"ĠsÃºÄįasÅ¥":5588,"vku":5589,"Ġmozgu":5590,"praved":5591,"ĠposkytovaÅ¥":5592,"Ġpremi":5593,"Ġinvestor":5594,"ĠvyuÅ¾ÃŃvaÅ¥":5595,"ĠobsahujÃº":5596,"Ġkapito":5597,"Ġkomisia":5598,"ĠMicrosoft":5599,"ĠdruhÃ©ho":5600,"Nez":5601,"ĠOn":5602,"Ġhum":5603,"rneho":5604,"Ġspravodli":5605,"any":5606,"ita":5607,"Ġobmedzenia":5608,"Ġfede":5609,"Ġvoda":5610,"fÃ³":5611,"port":5612,"ĠnÃ¡vrhu":5613,"Ġlegisla":5614,"Ġvybra":5615,"Ġpodiel":5616,"loÅ¾il":5617,"Ġpodstate":5618,"Ġverejnosti":5619,"ĠiP":5620,"wit":5621,"ĠakejkoÄ¾vek":5622,"ĠmiliÃ³na":5623,"Ġpiatich":5624,"ĠmÅķtvy":5625,"CieÄ¾om":5626,"ffi":5627,"ĠplÃ¡nu":5628,"NavyÅ¡e":5629,"ĠnajvÃ¤ÄįÅ¡ÃŃ":5630,"ĠkonÅ¡truk":5631,"ĠnÃ¡kup":5632,"Ġdomnie":5633,"ĠdÃ´stoj":5634,"dÃŃ":5635,"Ġrelevan":5636,"Ġfutbal":5637,"ĠvÃ¤ÄįÅ¡inou":5638,"ĠnavzÃ¡jom":5639,"Ġtroj":5640,"Ġlist":5641,"Ġ2000":5642,"Ġrozsia":5643,"tiky":5644,"Ġslobody":5645,"lÃ¡m":5646,"ĠsÃºvisiace":5647,"ĠznÃŃÅ¾enie":5648,"ĠuplatÅĪ":5649,"ĠskÃºsenosÅ¥":5650,"Ã¤tov":5651,"mestn":5652,"Ġdoh":5653,"Ġchcela":5654,"ĠneÃº":5655,"Å¡ka":5656,"Åłt":5657,"ĠmyslÃŃm":5658,"Ġzlom":5659,"Ġprechod":5660,"ĠmedzinÃ¡rodnÃ½ch":5661,"ĠmenÃŃ":5662,"Å¡ta":5663,"ĠvÃ½voja":5664,"Ġviery":5665,"ĠmusÃŃm":5666,"Ktor":5667,"ĠvzÅ¥ahuje":5668,"ĠÄįokoÄ¾vek":5669,"hnÃºÅ¥":5670,"Ġform":5671,"hnuteÄ¾":5672,"Ġtretej":5673,"Ġnadobud":5674,"dajte":5675,"Ġzriad":5676,"stickÃ©":5677,"Ġpolicaj":5678,"Ġdosiahnutie":5679,"ĠvzdelÃ¡vania":5680,"chom":5681,"ĠÅ¾iv":5682,"Ġleho":5683,"ĠtrÃ¡v":5684,"VzhÄ¾adom":5685,"Ġhran":5686,"ph":5687,"tmi":5688,"ĠslÃ¡":5689,"tkov":5690,"klady":5691,"ĠprenÃ¡":5692,"Ġpokry":5693,"ĠzaslÃº":5694,"Ġaspek":5695,"ĠnajskÃ´r":5696,"ĠnÃ¡strojov":5697,"Ġcirkev":5698,"sok":5699,"ĠspÃ´sobuje":5700,"ĠsituÃ¡ciu":5701,"Ġzameria":5702,"Ġvlastnej":5703,"ĠJu":5704,"kladÃ¡":5705,"ĠOt":5706,"RA":5707,"int":5708,"II":5709,"ĠhÄ¾adaÅ¥":5710,"ĠPÃ¡na":5711,"broj":5712,"kÃ¡zala":5713,"Ġsever":5714,"ĠZa":5715,"Neza":5716,"Ġslu":5717,"porÃºÄįa":5718,"inte":5719,"PouÅ¾ÃŃva":5720,"ĠðŁ":5721,"inÅ¡t":5722,"Ġnespo":5723,"Ġdopravy":5724,"ĠveÄ¾kej":5725,"ĠÄįoskoro":5726,"ĠdatabÃ¡":5727,"Ġpostupy":5728,"ĠinÅ¡titÃºcie":5729,"ĠktorÃ©mu":5730,"ĠagentÃºra":5731,"znamenÃ¡":5732,"ĠmÃ´Å¾eÅ¡":5733,"ĠSpojenÃ©":5734,"vosti":5735,"ĠspÃ¡n":5736,"Å¡k":5737,"ĠakÃ©hokoÄ¾vek":5738,"Ã©f":5739,"ĠstrÃ¡nka":5740,"Ã½tal":5741,"Ã¡lov":5742,"ĠÄįÃŃtaÅ¥":5743,"iaÅ¥":5744,"anec":5745,"ĠsluÅ¾bu":5746,"Ġnesta":5747,"Ġnapo":5748,"ĠudrÅ¾aÅ¥":5749,"ĠOb":5750,"ĠvitamÃŃ":5751,"ski":5752,"23":5753,"Ġkame":5754,"HS":5755,"ĠcentrÃ¡l":5756,"Ġdest":5757,"adu":5758,"ĠzaloÅ¾enÃ©":5759,"Ġvyrov":5760,"Ġsadz":5761,"Ġkata":5762,"Ġblog":5763,"Ġdvoma":5764,"reÅĪ":5765,"ĠPoÄ¾":5766,"ĠÄ¾udskej":5767,"koÄ¾ko":5768,"Ġtvoria":5769,"Ġosla":5770,"Ġsne":5771,");":5772,"avi":5773,"ĠkatolÃŃ":5774,"zaÅ¥":5775,"ĠvlastnÃ½ch":5776,"dam":5777,"ĠsÃºbory":5778,"Ġseku":5779,"Ã½taÅ¥":5780,"cin":5781,"Ġ35":5782,"Keby":5783,"rekven":5784,"ĠvÃ¤ÄįÅ¡ÃŃ":5785,"Ġdome":5786,"ĠnovÃ½m":5787,"ĠnesÃº":5788,"Ġnovembra":5789,"Ġrozhodol":5790,"Ġdizajn":5791,"ĠdestinÃ¡":5792,"Ġukazuje":5793,"ĠzakÃ¡z":5794,"ujÃºcej":5795,"chÃ½":5796,"Ġvidi":5797,"vedom":5798,"ĠrÃ¡di":5799,"TÃ¡":5800,"ĠveÄ¾kÃ½m":5801,"ĠVe":5802,"Ġslne":5803,"Ġpriori":5804,"toval":5805,"ĠoÄį":5806,"Ġtk":5807,"ĠGrÃ©":5808,"ĠradÅ¡ej":5809,"Å½iad":5810,"DP":5811,"ĠmÃºze":5812,"ĠFa":5813,"Ġstrategi":5814,"rovi":5815,"Ġtlak":5816,"Äįite":5817,"ĠvÅ¡etkÃ©ho":5818,"Ġalkoho":5819,"ĠobchodnÃ©":5820,"ĠZe":5821,"KrÃ¡":5822,"blÃŃ":5823,"pati":5824,"ark":5825,"ĠprÃŃznaky":5826,"Ġteles":5827,"ĠavÅ¡ak":5828,"ĠkrÃ¡tko":5829,"roÄįnÃ½":5830,"Neviem":5831,"Ġuvid":5832,"ĠÃºpri":5833,"Ġpovol":5834,"ĠrieÅ¡iÅ¥":5835,"Ġtakej":5836,"hone":5837,"Ġpostupne":5838,"Ġmiliardy":5839,"Ġtransparent":5840,"Ġslobodu":5841,"Ġpochyb":5842,"ĠsituÃ¡cii":5843,"ĠdiaÄ¾":5844,"Ġstaro":5845,"ĠspotrebiteÄ¾ov":5846,"ĠblÃŃzkosti":5847,"istite":5848,"ĠmÃ³":5849,"ĠChar":5850,"Ġatmos":5851,"ĠdÃ´very":5852,"ĠEn":5853,"prave":5854,"Ġnezabud":5855,"Ġvzduchu":5856,"ZÃ¡roveÅĪ":5857,"Nepo":5858,"ĠÄ¾ahkÃ©":5859,"ĠvziaÅ¥":5860,"Ġzlyh":5861,"Ġexperi":5862,"wer":5863,"ĠdospelÃ½ch":5864,"Ġdvere":5865,"Ġchyby":5866,"ĠÃºzko":5867,"ĠprvÃ½m":5868,"Mi":5869,"ID":5870,"nejÅ¡ÃŃm":5871,"areb":5872,"Ġpodnikov":5873,"ĠÄĮe":5874,"ĠJuÅ¾":5875,"ĠzÃ¡sob":5876,"Ġmimoriadne":5877,"ip":5878,"ĠveÄ¾kosti":5879,"PamÃ¤":5880,"rova":5881,"ĠspoluprÃ¡ci":5882,"Ġhre":5883,"ĠÄĮÃŃne":5884,"ĠNemecku":5885,"Ġhodnota":5886,"ĠÅ¡pi":5887,"Ġstimu":5888,"sor":5889,"pec":5890,"ĠtisÃŃ":5891,"Ġposlan":5892,"lÃ¡ciu":5893,"ĠzvlÃ¡d":5894,"riem":5895,"ĠdeÅ¥om":5896,"iera":5897,"ĠSer":5898,"kÃ¡t":5899,"Ġpie":5900,"ĠsprÃŃ":5901,"kujÃº":5902,"Deti":5903,"Ġsc":5904,"ĠrozhodnÃºÅ¥":5905,"ĠpouÅ¾itia":5906,"Ġklad":5907,"stou":5908,"Ġkarty":5909,"ĠvyÅ¡e":5910,"enti":5911,"Ġfilozo":5912,"zrael":5913,"ĠvedÄ¾aj":5914,"ĠumoÅ¾ÅĪujÃº":5915,"Ġtechnologi":5916,"AÅ¾":5917,"Ġspe":5918,"ĠzÃ¡hra":5919,"teÄ¾ovi":5920,"Ĥ¬":5921,"BudÃº":5922,"ox":5923,"graf":5924,"omÃ¡":5925,"Ġsekto":5926,"Ġkandi":5927,"Ã³r":5928,"Ġodmiet":5929,"ĠpozitÃŃvne":5930,"ovoÄ¾":5931,"ĠsignÃ¡":5932,"Ġmesiace":5933,"inÅ¡tal":5934,"Ġmiery":5935,"Ã´t":5936,"Ġkru":5937,"Ġklik":5938,"ĠrÃ½chle":5939,"Ġtzv":5940,"Ġposkytne":5941,"ĠvyhnÃºÅ¥":5942,"ood":5943,"kÃ³":5944,"liada":5945,"ĠsÃºÅ¥aÅ¾e":5946,"Ġmiestnosti":5947,"Ġum":5948,"ĠÅ¡kole":5949,"ĠmateriÃ¡lov":5950,"Ġsex":5951,"tiku":5952,"nor":5953,"Ġspre":5954,"Ġurobili":5955,"cieÅ¥":5956,"Ġspis":5957,"ĠÃºÄįelom":5958,"Viete":5959,"Ġzadarmo":5960,"ĠprÃŃkaz":5961,"Ġstavu":5962,"Ġprenos":5963,"ĠAd":5964,"Ġtakisto":5965,"Min":5966,"ĠzÃ¡ujme":5967,"Boli":5968,"PÃ¡":5969,"Ġl":5970,"Ġdopad":5971,"ĠÄįoraz":5972,"ĠtakÃ½m":5973,"lÃ½m":5974,"40":5975,"Ġodi":5976,"IC":5977,"ĠzahraniÄįnÃ½ch":5978,"treba":5979,"ĠÅ¡ancu":5980,"Ġvideli":5981,"Ġzav":5982,"Ġplast":5983,"ĠsÃ©ri":5984,"ĠchvÃŃÄ¾u":5985,"Podob":5986,"ĠpÃ´jde":5987,"Au":5988,"Ä¾ovanie":5989,"ĠtÃ½Å¾dÅĪa":5990,"Ġslovami":5991,"Ġprezen":5992,"ĠvoÄ¾by":5993,"ĠneznÃ¡":5994,"Ġuply":5995,"rii":5996,"ĠzÃ¡visÃŃ":5997,"VaÅ¡e":5998,"vyÅ¡e":5999,"Ġliekov":6000,"ĠagentÃºry":6001,"lovÃ©":6002,"ĠhlavnÃ½m":6003,"Ġdetail":6004,"Ġimuni":6005,"avÃ½":6006,"ĠMon":6007,"ĠopÃ¤tov":6008,"leb":6009,"ĠzabrÃ¡niÅ¥":6010,"Jednodu":6011,"ĠsÃºstred":6012,"Ġdodal":6013,"Ġmoju":6014,"Ġmuseli":6015,"ĠmedzinÃ¡rodnej":6016,"Ġopis":6017,"Ġhranice":6018,"zvlÃ¡Å¡Å¥":6019,"ĠkultÃºry":6020,"ĠprvÃº":6021,"sÃŃ":6022,"Ġoslobod":6023,"Ġsud":6024,"Ġinternet":6025,"ĠbezpeÄįnÃ©":6026,"Ġdoteraz":6027,"ary":6028,"ĠpoÅ¾iadaÅ¥":6029,"Ġvedia":6030,"Ġreg":6031,"Ġutrp":6032,"mky":6033,"ĠdÃ½ch":6034,"Å¡Å¥astie":6035,"lÃ¡si":6036,"ĠpÃ´vodu":6037,"ĠzÃ¡chran":6038,"ĠtÃ½kajÃº":6039,"Ġnasledov":6040,"VeÄ¾a":6041,"zbud":6042,"ĠpomÃ¡hajÃº":6043,"Ġparlament":6044,"Ġdozved":6045,"Ġtan":6046,"Ġpodniky":6047,"cieho":6048,"hodnÃ©":6049,"ĠÄįasopis":6050,"Ġpotrebujeme":6051,"akÃº":6052,"Ġpote":6053,"Posled":6054,"Ġfarby":6055,"ĠÅ¡kodli":6056,"Ġkus":6057,"ĠnÃ¡ku":6058,"ĠmilovaÅ¥":6059,"Ġbli":6060,"Ex":6061,"ĠmoÅ¾nostÃŃ":6062,"rity":6063,"ET":6064,"ĠvtÃ¡":6065,"ÄįÃŃtajte":6066,"wa":6067,"Ġkomer":6068,"Ġpercen":6069,"lexi":6070,"ĠprÃŃsluÅ¡nÃ½ch":6071,"ĠskutoÄįnÃ©":6072,"roblÃ©":6073,"Ġcirkvi":6074,"NajlepÅ¡ie":6075,"ĠuteÄįen":6076,"ĠveriÅ¥":6077,"Ġ>":6078,"ĠroÄįne":6079,"ĠhistÃ³rii":6080,"Äįera":6081,"ĠKon":6082,"Ġudalo":6083,"ĠnavyÅ¡e":6084,"ney":6085,"mena":6086,"Ġkrajinu":6087,"Ġnajprv":6088,"Ġtalian":6089,"Ġkas":6090,"ĠvzÅ¥ahov":6091,"ĠchcieÅ¥":6092,"nania":6093,"ĠproblÃ©mom":6094,"Ġkolek":6095,"ĠPod":6096,"Ġcentra":6097,"kajÃº":6098,"rin":6099,"lon":6100,"ĠsÃºÄįasne":6101,"Å¡ine":6102,"ĠrovnakÃ½":6103,"ĠnÃ¡mor":6104,"Ġvojak":6105,"ĠpoÄįuÅ¥":6106,"Ġbla":6107,"Ġinov":6108,"27":6109,"Ġzane":6110,"ĠvÄıa":6111,"Tam":6112,"Ġbre":6113,"lovej":6114,"ĠIzrael":6115,"unk":6116,"Ġautobus":6117,"schop":6118,"razÃŃ":6119,"ĠMc":6120,"Ġdiel":6121,"vaniu":6122,"Ġprospech":6123,"Äįanov":6124,"Ġzlo":6125,"Ä¾ud":6126,"ĠmyseÄ¾":6127,"PÃ´vod":6128,"ĠnemÃ´Å¾ete":6129,"Ġhore":6130,"ĠnÃ¡sledne":6131,"rem":6132,"Prie":6133,"ĠinÃ¡":6134,"ĠvyzeraÅ¥":6135,"Å¾eh":6136,"ĠSi":6137,"Ġzmena":6138,"Ġnepotreb":6139,"The":6140,"ĠÃºÄįinok":6141,"ĠprimÃ¡":6142,"ĠmedzinÃ¡rodnÃ©":6143,"komu":6144,"Ġslab":6145,"kone":6146,"Ġumel":6147,"ĠurÄįitÃ½ch":6148,"Ġfalo":6149,"Â´":6150,"Ġprogramy":6151,"Ãįr":6152,"Ġzhor":6153,"Ġopa":6154,"Ġkosto":6155,"ĠkÄ¾ÃºÄįov":6156,"ĠrieÅ¡enÃŃ":6157,"ĠpÃ´Å¾i":6158,"Ġdokona":6159,"ĠnehnuteÄ¾":6160,"ĠJeho":6161,"ĠklÃŃm":6162,"Ġvodi":6163,"Iba":6164,"ĠmiliÃ³ny":6165,"Ġmiestach":6166,"AT":6167,"ĠpouÅ¾itÃ©":6168,"ĠvÃ½nimkou":6169,"ĠfebruÃ¡ra":6170,"Ġzub":6171,"Äįat":6172,"ĠBoÅ¾e":6173,"Ġsyna":6174,"Ġregula":6175,"zmi":6176,"har":6177,"Ġnepod":6178,"Moja":6179,"taj":6180,"ĠpredstavujÃº":6181,"Ã©ria":6182,"Ġlok":6183,"rÃ¡m":6184,"ĠsÄ¾ub":6185,"Ġdruhu":6186,"Ġimple":6187,"Ġotca":6188,"MusÃŃme":6189,"Ġdepre":6190,"Ġpozd":6191,"Ġdokonal":6192,"ĠspÄºÅĪa":6193,"Ġpan":6194,"ps":6195,"ĠobyvateÄ¾":6196,"ĠsnÃŃm":6197,"ĠpoÅ¾iadaviek":6198,"pravedl":6199,"Ġosobu":6200,"ĠnejakÃº":6201,"tan":6202,"ĠnaÅ¡im":6203,"Ġneve":6204,"ĠhorÃº":6205,"ĠzÃ¡zna":6206,"ĠvÃ¤ÄįÅ¡iu":6207,"ĠsÃºbor":6208,"enosÅ¥":6209,"Ġpomerne":6210,"Ġzmi":6211,"Ġtakom":6212,"ĠoblastÃŃ":6213,"lenÃ½ch":6214,"ĠVeÄ¾kej":6215,"Ġreprez":6216,"Ġposudz":6217,"ĠÃºro":6218,"Ġprojekty":6219,"ĠplatiÅ¥":6220,"ĠTa":6221,"Ġdisku":6222,"MnohÃŃ":6223,"ĠÄįerv":6224,"Ġplatby":6225,"ĠpripravenÃ½":6226,"Ġosobne":6227,"Ġevanje":6228,"ĠatmosfÃ©":6229,"Ġcivili":6230,"ĠnemoÅ¾no":6231,"tickÃ½m":6232,"rÃ¡d":6233,"ĠNo":6234,"Ġrozhovor":6235,"ĠÅłpaniel":6236,"ĠorgÃ¡nu":6237,"ĠostatnÃ½mi":6238,"ĠvrÃ¡ti":6239,"Ġodoh":6240,"pili":6241,"Ġdobro":6242,"Ġ2005":6243,"Ġuzat":6244,"ĠpodnikateÄ¾":6245,"Ġ195":6246,"Ġorigin":6247,"ĠskupÃŃn":6248,"Ġnajhor":6249,"Ġ2004":6250,"Ġtrvalo":6251,"Ġprinie":6252,"ĠvyrÃ¡ba":6253,"Ġbunky":6254,"ĠÃºsilie":6255,"ĠzÃ¡kaznÃŃkom":6256,"Pon":6257,"ĠÄįastÃŃ":6258,"ovanÃ½mi":6259,"Ġtop":6260,"ĠmajiteÄ¾":6261,"IT":6262,"Ġseri":6263,"ĠinvestÃŃcie":6264,"pto":6265,"Ġverzia":6266,"Ġpsa":6267,"ĠpoÄįia":6268,"ĠokolnostÃŃ":6269,"ĠAir":6270,"ĠSvetov":6271,"ĠdÃ¡t":6272,"ĠvyhlÃ¡senÃŃ":6273,"OtÃ¡z":6274,"las":6275,"DÃ´":6276,"dr":6277,"Ġpost":6278,"ĠprÃ¡vomo":6279,"hrani":6280,"tiny":6281,"ĠEurÃ³pska":6282,"ÄįenÃ¡":6283,"ĠCi":6284,"nav":6285,"Ġosved":6286,"ĠÅ¾idov":6287,"Ġ'":6288,"ĠnechaÅ¥":6289,"ĠprÃŃs":6290,"Äįkou":6291,"Ġvzniku":6292,"vÃŃjaÅ¥":6293,"Ġzbrane":6294,"ĠBoÅ¾ÃŃ":6295,"Ġfakt":6296,"Zd":6297,"Ġorien":6298,"tvÃ¡ra":6299,"ĠpredloÅ¾":6300,"Oba":6301,"Ġpovrch":6302,"ĠES":6303,"niÅ¾":6304,"Ġtrpe":6305,"hnutÃ½":6306,"Ġvyprac":6307,"Ġpozem":6308,"ĠzastaviÅ¥":6309,"tuje":6310,"Ġdruhom":6311,"Ġdosah":6312,"rovÃ©":6313,"tisla":6314,"Ġzoh":6315,"ĠOd":6316,"Ã¡cia":6317,"ĠÄįinnostÃŃ":6318,"ĠorgÃ¡nom":6319,"Ġtal":6320,"jÃŃm":6321,"ĠsilnÃ©":6322,"Ġzachy":6323,"ĠakÃ½koÄ¾vek":6324,"ĠtabuÄ¾":6325,"vÃ¡t":6326,"ĠchceÅ¡":6327,"skytuje":6328,"28":6329,"ĠdÃ´leÅ¾itÃ½":6330,"ĠdoÅ¡lo":6331,"ĠvÅ¡eobecne":6332,"26":6333,"ĠÃºÄįinnosÅ¥":6334,"Ġmojom":6335,"Ġprvky":6336,"tech":6337,"ĠdeÅ¥mi":6338,"had":6339,"siÃŃ":6340,"ĠsystÃ©me":6341,"ĠpreskÃºm":6342,"ĠverejnÃ½ch":6343,"ĠrevolÃº":6344,"Ġpodobne":6345,"Ġkredi":6346,"Ġmetrov":6347,"ode":6348,"Ã¡vame":6349,"ĠprehÄ¾ad":6350,"Å¡ku":6351,"Ġinternete":6352,"IF":6353,"Ġvzd":6354,"ĠdÃ´vody":6355,"ĠovlÃ¡da":6356,"ĠprÃŃpadne":6357,"Ġpredpisy":6358,"ĠkategÃ³rie":6359,"vÃ¤Å¥":6360,"ĠÅ¡kol":6361,"Ġvymedz":6362,"wn":6363,"ĠintenzÃŃv":6364,"Ġdostatok":6365,"Ġzby":6366,"Ġrodine":6367,"prÃ¡va":6368,"ĠBohom":6369,"Ġmani":6370,"Ġslad":6371,"Ġrozum":6372,"Ġtable":6373,"ces":6374,"Ġ45":6375,"ĠvysokÃ©":6376,"Ġhier":6377,"ham":6378,"Ġsest":6379,"Ġproduktu":6380,"??":6381,"Ġodos":6382,"ĠnavÅ¡tÃŃviÅ¥":6383,"ĠvÃ½sledkov":6384,"ĠdruhÃ©":6385,"rizon":6386,"Ġote":6387,"ĠpridaÅ¥":6388,"ĠmyslieÅ¥":6389,"ĠÄįita":6390,"TakÃ©":6391,"ĠdÃ´leÅ¾itÃ¡":6392,"tus":6393,"Ġcud":6394,"Ġcentrum":6395,"Ġcol":6396,"Ġvia":6397,"ĠvÅ¡e":6398,"ĠgenerÃ¡cie":6399,"MÃ´Å¾eme":6400,"ĠtakÃ©ho":6401,"Ġkamp":6402,"inov":6403,"tika":6404,"stavy":6405,"Ġinterak":6406,"ĠmÃºdro":6407,"Ġmusel":6408,"vanej":6409,"Rad":6410,"ĠÃºsta":6411,"Ġnu":6412,"ĠÅ¾al":6413,"ĠdiÃ©":6414,"ĠfungovaÅ¥":6415,"ĠposlednÃ©":6416,"Ġklientov":6417,"irtu":6418,"verz":6419,"ware":6420,"Ġnohy":6421,"Ġsvad":6422,"ĠrozÅ¡i":6423,"seli":6424,"ĠpripomÃŃna":6425,"ĠÃºÄįasÅ¥":6426,"Ġ300":6427,"kÃ¡n":6428,"StÃ¡le":6429,"lizmus":6430,"Ġkatastro":6431,"ĠsprÃ¡ve":6432,"riedka":6433,"ĠzbranÃŃ":6434,"Ġarg":6435,"ĠdvakrÃ¡t":6436,"Ġliek":6437,"ĠLo":6438,"nostiam":6439,"Ġkombin":6440,"Ġvysokej":6441,"ĠspracÃº":6442,"Ġpriesku":6443,"ĠchuÅ¥":6444,"Ġpane":6445,"Ġbiologi":6446,"lania":6447,"Ġspracov":6448,"ĠrealizÃ¡":6449,"Ġformy":6450,"ĠuÄįiÅ¥":6451,"Ġrozhodli":6452,"Mnoho":6453,"ĠNÃ¡rod":6454,"ZaÄį":6455,"ĠrÃ´znymi":6456,"ĠspoÄįÃŃ":6457,"Ġnakup":6458,"ĠAmerike":6459,"Ġriadenie":6460,"Ġpoky":6461,"nutÃ½ch":6462,"ĠzdruÅ¾":6463,"ĠkrÃ¡Ä¾ovstvo":6464,"ĠvÅ¡eobecnosti":6465,"Ã¨":6466,"Budete":6467,"ĠÄįlenskÃ½":6468,"Ġverejnej":6469,"sexu":6470,"Ġhmotnosti":6471,"Ġodol":6472,"ĠurÄįiÅ¥":6473,"ĠprichÃ¡dzajÃº":6474,"ĠvÃ½lu":6475,"ĠnaÅ¡li":6476,"ÄįÃŃm":6477,"Ġdynami":6478,"ON":6479,"ĠdobrÃº":6480,"napr":6481,"ĠrÃ½chlosÅ¥":6482,"ĠstratÃ©gie":6483,"Ġ+":6484,"ashing":6485,"ĠzÃŃskali":6486,"Ġapli":6487,"Stra":6488,"Ġtrp":6489,"ĠotÃ¡zok":6490,"ĠÅ¡peciÃ¡l":6491,"kÃ½mi":6492,"Å½e":6493,"ĠspoloÄįenstva":6494,"mka":6495,"Ġtretie":6496,"ĠYor":6497,"nenÃ½ch":6498,"cel":6499,"ĠnormÃ¡lne":6500,"Ġnepred":6501,"Ġmatka":6502,"ĠIS":6503,"Ġnebudete":6504,"Ġobavy":6505,"Ġdiagnosti":6506,"Ġnariadenie":6507,"Ġzomre":6508,"Ġstaveb":6509,"Ġterori":6510,"ĠsÃºdu":6511,"Ã½ba":6512,"ĠzaÄįiatok":6513,"ĠinÃº":6514,"ĠÄ¾udu":6515,"ÄįastejÅ¡ie":6516,"DÃ¡":6517,"Ġponuky":6518,"ĠposlednÃ½":6519,"ĠorganizÃ¡ciÃŃ":6520,"29":6521,"ezpe":6522,"ÃºÅ¡Å¥":6523,"Ġbodov":6524,"Ġzasia":6525,"idov":6526,"dÃº":6527,"rievod":6528,"ĠnajvÃ¤ÄįÅ¡ÃŃm":6529,"Ġporozu":6530,"MA":6531,"ĠtvorÃŃ":6532,"UrÄįite":6533,"ĠmÃŃ":6534,"Ġ|":6535,"Äıme":6536,"tari":6537,"Ġvybran":6538,"ĠvychÃ¡dza":6539,"ĠsystÃ©mom":6540,"Ġfrekven":6541,"ĠhrÃ¡Äį":6542,"ĠvozidlÃ¡":6543,"Ġatrak":6544,"redi":6545,"Ġtebe":6546,"ĠnedÃ¡vno":6547,"Ġhodinu":6548,"ĠÃºmr":6549,"ĠstoroÄįÃŃ":6550,"Ġzaklada":6551,"Ġklima":6552,"Jedin":6553,"ĠÄıalÅ¡iu":6554,"Ġzodpovednosti":6555,"Äİakujem":6556,"ĠzÃ¡kony":6557,"Ġspu":6558,"Ġsvetla":6559,"Ãºtne":6560,"ĠeurÃ³pskej":6561,"ostÃ¡va":6562,"ĠtÃ½Å¾dne":6563,"Ġemo":6564,"ĠmiliÃ³n":6565,"gre":6566,"ĠsilnÃ½":6567,"vÃ©ho":6568,"Ġpriemyslu":6569,"Ġkoncer":6570,"Ġpon":6571,"dol":6572,".[":6573,"tinu":6574,"nÃŃh":6575,"ec":6576,"Ġdipl":6577,"ĠprÃŃlohe":6578,"ĠÃºloh":6579,"ĠnedeÄ¾":6580,"borat":6581,"ĠvyhlÃ¡senie":6582,"Ä¾ade":6583,"ĠKÃ³re":6584,"Ġkoho":6585,"ÄįnosÅ¥":6586,"Ġbak":6587,"Ġsvie":6588,"ĠBus":6589,"Ġtypov":6590,"Å¾in":6591,"Ġvek":6592,"Ġvode":6593,"ĠwebovÃ©":6594,"ĠpouÅ¾ÃŃvateÄ¾":6595,"poz":6596,"Ġdohodu":6597,"Ġarchitek":6598,"ÅĪaÅ¾":6599,"Ġboja":6600,"ĠzahÅķÅĪajÃº":6601,"lovek":6602,"Ġnef":6603,"xus":6604,"Ġotro":6605,"JeÅ¾iÅ¡":6606,"rajte":6607,"ness":6608,"Ġmiere":6609,"Ġuspokoj":6610,"Ġspracovanie":6611,"Ġekologi":6612,"JednÃ½m":6613,"ĠÄįaj":6614,"ĠnavÅ¾dy":6615,"MajÃº":6616,"ĠvlastnÃ©ho":6617,"ĠzabrÃ¡ni":6618,"Treba":6619,"IP":6620,"ĠAngli":6621,"):":6622,"Ġskry":6623,"Ġkomunika":6624,"listi":6625,"ĠverejnÃ©ho":6626,"ĠvÃ½robku":6627,"Ġnapad":6628,"io":6629,"lh":6630,"ĠvenovaÅ¥":6631,"Ġnaopak":6632,"ffice":6633,"vnÃ©":6634,"Ġnormy":6635,"ĠzaruÄį":6636,"ĠnemÃ¡m":6637,"Ġkil":6638,"ĠzvÃ¡":6639,"Å¡tru":6640,"Ġobrazov":6641,"Ġsied":6642,"Ġrizika":6643,"Die":6644,"tovali":6645,"ĠprijÃŃma":6646,"ĠFacebook":6647,"mene":6648,"sala":6649,"ujeÅ¡":6650,"ĠinovatÃŃv":6651,"ĠvyÅ¾adujÃº":6652,"Ġepi":6653,"Pe":6654,"Ä¾ovaÅ¥":6655,"Ġnemala":6656,"Ġbuniek":6657,"Ġpodmienkach":6658,"Ġpovolenie":6659,"Ġkoncep":6660,"Ġcookies":6661,"ĠrovnovÃ¡":6662,"ĨĴ":6663,"Dod":6664,"ĠloÄı":6665,"Ġkra":6666,"Ġpovzbud":6667,"Ġpani":6668,"ile":6669,"Ġinternetu":6670,"razu":6671,"inÃ¡m":6672,"ab":6673,"zujÃº":6674,"Ġreklamy":6675,"Ġstvor":6676,"ĠsoftvÃ©r":6677,"Ġpostupov":6678,"ĠtrvaÅ¥":6679,"ink":6680,"ĠfÄ¾a":6681,"ica":6682,"ĠYorku":6683,"Ġzvyk":6684,"ĠÅ¾elezni":6685,"kladaÅ¥":6686,"Ġsoli":6687,"Ġzare":6688,"chajte":6689,"Ġhovoril":6690,"hode":6691,"Takto":6692,"ĠzlÃº":6693,"Ġvrch":6694,"Ġzmier":6695,"ĠGro":6696,"Ġfotografie":6697,"ĠMer":6698,"ĠzodpovednÃ½":6699,"Ġtriedy":6700,"ĠBoÅ¾ieho":6701,"Ġpolitiku":6702,"Å¾itie":6703,"tÃŃk":6704,"Viem":6705,"oman":6706,"ĠvÃ½poÄį":6707,"Ġzdrojom":6708,"ĠinÅ¡talÃ¡":6709,"Ġdopy":6710,"Ġnim":6711,"Ġkov":6712,"Ġkontex":6713,"Ġrefor":6714,"ĠkaÅ¾dÃ©mu":6715,"ĠlepÅ¡ÃŃ":6716,"IE":6717,"Ġodpovede":6718,"cs":6719,"tisÃŃc":6720,"Ġjednotky":6721,"pera":6722,"ĠknÃŃh":6723,"ĠvyÅ¡et":6724,"ĠRusko":6725,"ĠÄ¾udskÃ©ho":6726,"ÄĮasto":6727,"Ġstretnutie":6728,"tÃ¡cii":6729,"Ġpravidel":6730,"rantov":6731,"ĠvÃ½vo":6732,"Ġzisk":6733,"lay":6734,"Ġcestou":6735,"lÃ¡rne":6736,"ĠnazÃ½":6737,"ĠsociÃ¡lnej":6738,"ĠnutnÃ©":6739,"ÄįenÃŃm":6740,"Ġzbra":6741,"vel":6742,"ĠobsahovaÅ¥":6743,"TaktieÅ¾":6744,"ĠsprÃ¡vny":6745,"NovÃ½":6746,"enosti":6747,"BuÄı":6748,"Ã³z":6749,"ĠhlÃº":6750,"ĠSp":6751,"ĠprÃŃtomnosÅ¥":6752,"Ġ2003":6753,"itco":6754,"ĠYou":6755,"ĠtakÃ½to":6756,"By":6757,"ĠuÅ¾itoÄįnÃ©":6758,"Ġvopred":6759,"Ġobvyk":6760,"ĠprevÃ¡dzky":6761,"ĠspraviÅ¥":6762,"Ġumiest":6763,"Ġodva":6764,"Ġflexi":6765,"Ġrozp":6766,"Ġvozidlo":6767,"Ġboji":6768,"ĠvÃ¤ÄįÅ¡ine":6769,"Ġmilos":6770,"ĠskutoÄįnÃ½":6771,"Ġkomisie":6772,"ĠViano":6773,"Äįke":6774,"toÄįnÃ¡":6775,"ĠzaujÃŃmavÃ©":6776,"Ġskr":6777,"ĠÃºÄįtu":6778,"ĠuÅ¾ÃŃ":6779,"tovÃ©ho":6780,"Äįuje":6781,"ĠplnÃ½":6782,"ĠponÃºkajÃº":6783,"Ġfilmu":6784,"ĠnenÃ¡vi":6785,"Ġfunkciu":6786,"tina":6787,"Ġ=":6788,"Ġanje":6789,"Ġrozsah":6790,"ĠpracujÃº":6791,"Ġvedel":6792,"ĠâĢĭ":6793,"lite":6794,"Ġzoznamu":6795,"ĠfunkciÃŃ":6796,"Ġoslav":6797,"ĠnajvÃ¤ÄįÅ¡ie":6798,"Å¡ky":6799,"raÅ¾":6800,"ĠakÃ½chkoÄ¾vek":6801,"vÃº":6802,"Ġpovedali":6803,"ĠsprÃŃstup":6804,"ĠzdravÃ©":6805,"Ġneroz":6806,"Asi":6807,"ĠnedokÃ¡Å¾e":6808,"Ġvytvorili":6809,"NaÅ¡a":6810,"tnÃ½m":6811,"Ġ:)":6812,"rami":6813,"Ġpoch":6814,"ĠspÃ¡nku":6815,"Vide":6816,"ĠdlhÃ©":6817,"onal":6818,"Ġdvaja":6819,"ozaj":6820,"ĠvÃ½sledkom":6821,"Ġlin":6822,"Ġbiskup":6823,"ĠSpoloÄįenstva":6824,"Ġpies":6825,"Nav":6826,"Ġkoncov":6827,"ĠaplikÃ¡ciÃŃ":6828,"Ġzistili":6829,"ĠÄįlenovia":6830,"chodom":6831,"orld":6832,"ĠÃºspo":6833,"Ġpredaja":6834,"ĠAs":6835,"Ġodhali":6836,"MÃ´Å¾u":6837,"ĠregiÃ³ne":6838,"Å¾te":6839,"ĠemÃ³":6840,"ĠÄįoho":6841,"ĠneznamenÃ¡":6842,"lovÃ½ch":6843,"ĠpoÅ¾eh":6844,"lila":6845,"ĠÃįr":6846,"siÅ¥":6847,"Spolu":6848,"Ã¡lnou":6849,"AC":6850,"ĠÅ¡tandar":6851,"organi":6852,"Ã½chod":6853,"Ġmobili":6854,"ĠreÅ¥az":6855,"oto":6856,"bel":6857,"ĠnÃºd":6858,"Ġaka":6859,"Ġznie":6860,"lieb":6861,"ĠQu":6862,"ĠpÃŃsaÅ¥":6863,"Ġprehliada":6864,"ĠkÃ³d":6865,"mar":6866,"stili":6867,"Ġpodvod":6868,"Ġhlu":6869,"DÃºfam":6870,"ĠCirkev":6871,"Ġplynu":6872,"tenÃ½":6873,"ĠÅ¾enu":6874,"ĠÅ¡o":6875,"Ġproro":6876,"ĠBu":6877,"ĠnÃ¡po":6878,"ĠobyÄįaj":6879,"Ġdohovoru":6880,"ĠnaÅ¡iel":6881,"titu":6882,"tenÃ©":6883,"ÅłtÃº":6884,"Ġfesti":6885,"Ġveciach":6886,"ĠZmlu":6887,"Ġgi":6888,"60":6889,"cvi":6890,"Ġpodobe":6891,"Ġprehliad":6892,"Ġumele":6893,"ĠkandidÃ¡":6894,"ĠSta":6895,"ÄįÃŃt":6896,"Tr":6897,"ĠreÅ¡pekt":6898,"avÃ¡":6899,"tovÃ¡":6900,"ĠGre":6901,"ĠsÃºÄįasnej":6902,"ĠStar":6903,"ĠverejnÃ©":6904,"ĠpouÅ¾itÃŃm":6905,"Ġakti":6906,"kovia":6907,"ĠnainÅ¡tal":6908,"ĠsprÃ¡vania":6909,"ĠUSD":6910,"ĠkomunikÃ¡cie":6911,"Ġvyhov":6912,"ProsÃŃm":6913,"ĠplÃ¡ny":6914,"Ġsrdci":6915,"IV":6916,"Äįko":6917,"Ġkona":6918,"ĠÃºspechu":6919,"Urob":6920,"oviet":6921,"ĠIndi":6922,"Å¡ne":6923,"ariad":6924,"ĠvytvÃ¡raÅ¥":6925,"meny":6926,"ĠTurec":6927,"ĠdÃ¡ta":6928,"Ġdostala":6929,"rac":6930,"iete":6931,"Ġrealiz":6932,"ĠvzdelÃ¡va":6933,"how":6934,"stÃºpil":6935,"ĠCO":6936,"Ä¾ujÃº":6937,"nap":6938,"lympi":6939,"Ġjazyku":6940,"Ġdiskri":6941,"mil":6942,"ĠBla":6943,"dsia":6944,"ĠneprÃŃjem":6945,"Ġharmo":6946,"Ġpodpora":6947,"Ġprenasled":6948,"tva":6949,"ĠÅ¡Ã©f":6950,"ĠdÃ´ver":6951,"ĠbliÅ¾Å¡ie":6952,"Ġstrednej":6953,"ĠAustrÃ¡":6954,"Ġpostihnut":6955,"ĠgrÃ©":6956,"MS":6957,"very":6958,"Ġplod":6959,"ĠmetÃ³da":6960,"Ġskontro":6961,"ĠodÃ´vod":6962,"Ġkompon":6963,"Ġkalend":6964,"Predstav":6965,"ĠnemÃ´Å¾em":6966,"ĠÅ¾iaden":6967,"ĠhovorÃŃm":6968,"iru":6969,"ĠamerickÃ½":6970,"Ġzriedka":6971,"Ġstud":6972,"ĠpripraviÅ¥":6973,"ĠpohÄ¾adu":6974,"ĠpovaÅ¾ovaÅ¥":6975,"ovou":6976,"Ġsektor":6977,"ĠnemÃ¡te":6978,"ĠÃºverov":6979,"ward":6980,"ĠnapÃ¤":6981,"pine":6982,"35":6983,"vrÃ¡t":6984,"ĠPh":6985,"Ġlaborat":6986,"ĠÄįakaÅ¥":6987,"Ġpen":6988,"MusÃŃte":6989,"vÃŃt":6990,"ĠPrÃŃ":6991,"ĠchodiÅ¥":6992,"ser":6993,"ĠstretÃ¡":6994,"Ġpopred":6995,"Ġpartnerov":6996,"ĠemisiÃŃ":6997,"ĠmlÃ¡":6998,"Ġstvo":6999,"Zna":7000,"ĠjuÅ¾":7001,"ĠkrÃ¡Ä¾ovstva":7002,"valo":7003,"fy":7004,"Ġnerv":7005,"Ġneh":7006,"ĠdÃ´kazy":7007,"Ġstroj":7008,"ĠvolÃ¡":7009,"Ġprofil":7010,"Ġstraty":7011,"Ġdobrod":7012,"ĠdokÃ¡Å¾u":7013,"ĠKan":7014,"Ġstres":7015,"Ġbudovy":7016,"Ġinom":7017,"voje":7018,"Jedna":7019,"Ġpotrebu":7020,"Ġoku":7021,"jas":7022,"trvÃ¡":7023,"ĠsÃŃl":7024,"ĠBru":7025,"ĠklÃ¡":7026,"ĠvylepÅ¡":7027,"ĠnajbliÅ¾":7028,"ĠrÃºk":7029,"hovo":7030,"ĠsluÅ¾ba":7031,"ĠvypoÄį":7032,"ĠrozÅ¡ÃŃr":7033,"Ġknihe":7034,"ĠtÃ©mu":7035,"tych":7036,"ĠBM":7037,"Ġhodnotenie":7038,"Ġkvalita":7039,"Vtedy":7040,"ĠvzhÄ¾ad":7041,"âĢĺ":7042,"paÅ¥":7043,"ĠpovedanÃ©":7044,"tik":7045,"kovÃº":7046,"Ġvodou":7047,"Ġtebou":7048,"ĠpopulÃ¡r":7049,"Ġservis":7050,"jÃºcim":7051,"Ġniekde":7052,"ĠsÃºborov":7053,"ĠÄįlenskom":7054,"ĠprÃ¡vni":7055,"ĠmeniÅ¥":7056,"Ġakom":7057,"ĠinÃŃ":7058,"ĠpÃ¡peÅ¾":7059,"zol":7060,"ĠdigitÃ¡lne":7061,"Ġdane":7062,"ĠpÃ´sobÃŃ":7063,"stÃŃn":7064,"Ġkonanie":7065,"ĠbrÃ¡":7066,"rovanÃ©":7067,"tnÃŃ":7068,"ony":7069,"Ġelektr":7070,"kovo":7071,"Ġmenom":7072,"MedzinÃ¡rod":7073,"ĠÄıakujem":7074,"ĠurÄįenÃ½":7075,"ĠpiÅ¥":7076,"ĠVal":7077,"ĠobzvlÃ¡Å¡Å¥":7078,"Ġvedeli":7079,"ĠvÃ½boru":7080,"ĠtechnickÃ©":7081,"ĠprejsÅ¥":7082,"ĠreÅ¡pek":7083,"ĠuvedenÃ©ho":7084,"ĠzÃ¡ujmy":7085,"ĠInter":7086,"raku":7087,"Ġjapon":7088,"ĠdÃ¡tum":7089,"teli":7090,"ĠhospodÃ¡rskej":7091,"ĠopÃŃs":7092,"ĠbezpeÄįnostnÃ©":7093,"Ġpoby":7094,"ĠnÃ¡hra":7095,"ĠudalosÅ¥":7096,"Ġspravodlivosti":7097,"ĠskÃºsenostÃŃ":7098,"enta":7099,"stero":7100,"ĠlÃŃd":7101,"jeme":7102,"Ġaudi":7103,"ĠpopulÃ¡cie":7104,"Ġeli":7105,"ĠUniver":7106,"Ġpriatelia":7107,"ĠpomÃ´Å¾u":7108,"Ġvybe":7109,"Nakoniec":7110,"ĠDr":7111,"ĠHospod":7112,"ĠmomentÃ¡lne":7113,"Å¡tev":7114,"Ġvojne":7115,"Ġperfek":7116,"Ġmg":7117,"Ġbiel":7118,"ĠâĢĭâĢĭ":7119,"ĠvnÃºtroÅ¡tÃ¡tne":7120,"ĠstarÃ©":7121,"Ġstrav":7122,"Ġcudz":7123,"ĠpeÅĪaÅ¾":7124,"Ġmesa":7125,"roti":7126,"ĠmÃ©diÃŃ":7127,"ĠsnaÅ¾ia":7128,"Ġuch":7129,"Ġhorm":7130,"ZÃ¡klad":7131,"zist":7132,"Ġdosiahli":7133,"Ġdiela":7134,"ĠtlaÄįi":7135,"ĠslÃºÅ¾iÅ¥":7136,"niu":7137,"Ġdohoda":7138,"Ġfareb":7139,"rÃ¡ch":7140,"Ġprekon":7141,"ĠvÃ½konu":7142,"Ġadresu":7143,"kÃºnd":7144,"ienky":7145,"ĠhorÅ¡ie":7146,"NÃ¡Å¡":7147,"ĠzachrÃ¡niÅ¥":7148,"ĠmateriÃ¡ly":7149,"ĠorgÃ¡nmi":7150,"ĠpÃ´vodne":7151,"Pozri":7152,"lÃ¡va":7153,"ĠdistribÃº":7154,"ĠklÃŃmy":7155,"poÅ¡":7156,"Nee":7157,"ĠbudÃºci":7158,"ĠostatnÃŃ":7159,"Ġalbum":7160,"DA":7161,"razi":7162,"tÃºre":7163,"Ru":7164,"Ġpoznamen":7165,"Ġhudbu":7166,"Ġnerob":7167,"Ġnedostatok":7168,"ĠnedÃ¡":7169,"%.":7170,"PrvÃ¡":7171,"onus":7172,"ĠsietÃŃ":7173,"ĠzniÅ¾uje":7174,"Dom":7175,"tÃŃn":7176,"Man":7177,"Ġpotra":7178,"slan":7179,"Ġzajtra":7180,"ĠnÃ¡hod":7181,"ĠdruhÃº":7182,"mere":7183,"ĠEu":7184,"ory":7185,"Ġzmluvu":7186,"ĠspolupracovaÅ¥":7187,"ĠÃºÄįastnÃŃkov":7188,"ĠNaj":7189,"ĠÅ¡kody":7190,"Ġpremie":7191,"Ġimplemen":7192,"novÃ©":7193,"cker":7194,"ĠnasledujÃºce":7195,"Ġrovno":7196,"ĠSh":7197,"Ġzle":7198,"ĠpreÄį":7199,"ĠmalÃ¡":7200,"ĠrizikÃ¡":7201,"gal":7202,"Ġdrog":7203,"latÃŃ":7204,"rÃ¡lneho":7205,"ĠuvedenÃ½":7206,"Ġrozumie":7207,"RO":7208,"Ġturisti":7209,"Ġargu":7210,"Teda":7211,"ĠvyvÃŃja":7212,"Ġsmart":7213,"Ġkonkurencie":7214,"ĠtrÃ©":7215,"ĠrÃ¡mec":7216,"Ġpopis":7217,"ĠmÃ½":7218,"tine":7219,"Ġhypo":7220,"ĠvÃ½hrad":7221,"ĠzaloÅ¾enÃ½":7222,"teÄ¾nÃ½ch":7223,"apa":7224,"Ġmajetku":7225,"loÅ¾ÃŃ":7226,"ĠÄ¾ad":7227,"ĠvzruÅ¡":7228,"ĠvÃŃk":7229,"stnÃ©":7230,"ĠspÃ´sobenÃ©":7231,"ĠFrancÃºzsku":7232,"veÄ¾":7233,"ĠvyrobenÃ©":7234,"Ġposkytova":7235,"ĠWashing":7236,"ĠpriateÄ¾mi":7237,"Ġviacero":7238,"Ã©ra":7239,"ovanom":7240,"ĠOffice":7241,"ĠÄįakÃ¡":7242,"pel":7243,"Ġzrejme":7244,"ĠdievÄįatÃ¡":7245,"Ġtren":7246,"ĠrozhodnutÃŃ":7247,"olÃŃ":7248,"ĠpovaÅ¾ujÃº":7249,"AkÃ¡":7250,"Ã©rov":7251,"Ġvysky":7252,"ĠabsolÃºtne":7253,"ĠMac":7254,"Ġdostanete":7255,"âĢĿ,":7256,"ĠzdieÄ¾aÅ¥":7257,"Ġpride":7258,"zali":7259,"ĠslÃºÅ¾i":7260,"ĠVi":7261,"Ġwe":7262,"ĠÃºÄįinnÃ©":7263,"Ġislam":7264,"Ġsobo":7265,"ckÃŃ":7266,"Ġslova":7267,"roÄįnÃ©":7268,"ĠuvaÅ¾":7269,"Ġexper":7270,"Namiesto":7271,"pora":7272,"Ġexter":7273,"Ġzase":7274,"Ġradu":7275,"ĠOrgani":7276,"ĠzbaviÅ¥":7277,"Chcel":7278,"xy":7279,"Ġcien":7280,"Ġsprostred":7281,"ĠRusku":7282,"ĠzdieÄ¾a":7283,"rovanie":7284,"ĠotvorenÃ©":7285,"gresÃŃv":7286,"Ġdokument":7287,"tovanie":7288,"ĠeurÃ³pskeho":7289,"ase":7290,"Ġkles":7291,"Ġstranu":7292,"Ġ2002":7293,"ĠodstrÃ¡nenie":7294,"ĠzaujÃŃma":7295,"tÃŃvu":7296,"Ġbode":7297,"ĠPan":7298,"ternational":7299,"ĠsekÃºnd":7300,"Ġmetabo":7301,"ĠBritÃ¡nii":7302,"Ġvojna":7303,"Ġusmer":7304,"zÃŃk":7305,"ĠnaÅ¡imi":7306,"ĠdohÄ¾adu":7307,"volu":7308,"ĠtechnolÃ³gia":7309,"avid":7310,"37":7311,"ĠzaÄįalo":7312,"Ġinteligen":7313,"InformÃ¡cie":7314,"Ġnaraz":7315,"nete":7316,"ĠoperÃ¡cie":7317,"Ġchrb":7318,"ĠRuska":7319,"ĠtvÃ¡re":7320,"ilu":7321,"ĠaktivÃŃt":7322,"ĠBel":7323,"rah":7324,"ĠMin":7325,"ĠpolitickÃ©":7326,"ĠkÅķ":7327,"Ã³riÃŃ":7328,"Por":7329,"zli":7330,"mestnan":7331,"ĠjedinÃ¡":7332,"SP":7333,"ĠpoznaÅ¥":7334,"ĠpamÃ¤ti":7335,"ĠoÄįakÃ¡vaÅ¥":7336,"Ġbom":7337,"ĠÃºlohou":7338,"alifor":7339,"Ġklub":7340,"Ġtenden":7341,"Ġpriesto":7342,"80":7343,"Å¥ou":7344,"Ġperson":7345,"ĠsÃºvisiacich":7346,"ĠBratisla":7347,"Ġspie":7348,"Ġplatnosti":7349,"Ġhro":7350,"ĠSch":7351,"Ġmodelu":7352,"ĠvykonÃ¡vanie":7353,"Ġpobo":7354,"Ġga":7355,"PÃ¡n":7356,"ÄįnÃŃ":7357,"ĠpoÄįÃŃtaÄįov":7358,"Ġ2001":7359,"moc":7360,"rden":7361,"Ġtext":7362,"ĠminulÃ½":7363,"ĠsÃŃd":7364,"ĠlieÄįi":7365,"Ġrecep":7366,"ĠÅ¡iro":7367,"Ġpocity":7368,"Ġpredpoved":7369,"TakÃ©to":7370,"ĠvysokÃº":7371,"ĠÃºtok":7372,"Ġenergi":7373,"Ġgeo":7374,"Ġpreprav":7375,"Ġpsycho":7376,"maz":7377,"Ġfan":7378,"Ġasist":7379,"obou":7380,"ĠMy":7381,"ĠprÃŃspevok":7382,"ritu":7383,"ĠmedzinÃ¡rodnÃ©ho":7384,"ĠÃºzemia":7385,"ĠnÃ¡zory":7386,"ĠÅ¡tvor":7387,"ĠvyrieÅ¡iÅ¥":7388,"Ġkilomet":7389,"Ġkole":7390,"âĢĶ":7391,"ovÃ½mi":7392,"ĠmnoÅ¾stva":7393,"Â»":7394,"Ġvedci":7395,"ĠpripravenÃŃ":7396,"ĠznÃ¡ma":7397,"vodaj":7398,"ĠzaÄįiatkom":7399,"ĠAc":7400,"Ġryb":7401,"ĠvÃ½robok":7402,"Ġvyslov":7403,"Ġzu":7404,"ĠzÃ¡sady":7405,"ĠpamÃ¤Å¥":7406,"Ġano":7407,"ĠBen":7408,"Ġnarodil":7409,"ĠskvelÃ½":7410,"ï¿":7411,"stupe":7412,"ĠzdravotnÃ©":7413,"ĠvzdelÃ¡vanie":7414,"ĠprechÃ¡dza":7415,"Ġteroristi":7416,"Ġverziu":7417,"ovin":7418,"Ġposkytovanie":7419,"ĠspÃ¤":7420,"stv":7421,"Ġhudby":7422,"ĠdÃºf":7423,"Ġvirtu":7424,"Ġzamie":7425,"Ġuve":7426,"ï¿½":7427,"Ġrepro":7428,"33":7429,"Ġposlednej":7430,"ĠeurÃ³pske":7431,"ĠzneuÅ¾ÃŃ":7432,"stava":7433,"ĠodsÃºd":7434,"Ġzaist":7435,"AL":7436,"Ġpodniku":7437,"Ġznepokoj":7438,"inami":7439,"ĠvesmÃŃr":7440,"sho":7441,"ĠsÃŃce":7442,"ĠstÃ¡Å¥":7443,"Ġzavo":7444,"ĠtakÃº":7445,"Ġpolitika":7446,"Ġtitul":7447,"ĠnemÃ´Å¾eme":7448,"Ġmenia":7449,"kÃ¡zalo":7450,"Ġodhod":7451,"lian":7452,"Ġrozdiely":7453,"Ġusil":7454,"Naozaj":7455,"ĠodÃŃsÅ¥":7456,"Ġjav":7457,"orge":7458,"ĠRakÃº":7459,"Co":7460,"Ġzozname":7461,"ĠÅ¾alo":7462,"Ġap":7463,"ĠÄįlenskÃ½mi":7464,"Jedno":7465,"jete":7466,"ĠÅ¡Å¥astnÃ½":7467,"Fi":7468,"NÃ¡zov":7469,"Ġochrana":7470,"skymi":7471,"Ġ150":7472,"Be":7473,"staÅ¥":7474,"ĠuÅ¾ÃŃvateÄ¾ov":7475,"ĠobleÄįenie":7476,"ĠokamÅ¾i":7477,"ĠvÃ½robcov":7478,"Ġskupinu":7479,"Ni":7480,"Ġsurov":7481,"OR":7482,"Ġsprievod":7483,"Ãºr":7484,"Ġbody":7485,"nesie":7486,"ĠotvoriÅ¥":7487,"ĠMu":7488,"ĠPer":7489,"Ġzabezpe":7490,"ĠYork":7491,"Ġmora":7492,"Ġaktiv":7493,"Ġstabil":7494,"Ġjazyka":7495,"Ġskupine":7496,"ĠnedeÄ¾u":7497,"Ġbav":7498,"beh":7499,"dite":7500,"Ġprinies":7501,"OV":7502,"dala":7503,"ĠVol":7504,"Ġvieru":7505,"chovÃ¡va":7506,"ĠKristus":7507,"Ġpreklad":7508,"Ġuto":7509,"menty":7510,"ĠÅ¡pecializ":7511,"Ġdokumenty":7512,"ĠNie":7513,"ĠodporÃºÄįania":7514,"nÃŃcke":7515,"lekt":7516,"ĠKrÃ¡":7517,"ĠmedicÃŃ":7518,"can":7519,"ĠEgyp":7520,"Ġrozsud":7521,"ĠvÄįas":7522,"Ġsila":7523,"BC":7524,"Ġmyslia":7525,"sÅ¥ah":7526,"ZÃŃ":7527,"ĠveÄ¾kÃ©ho":7528,"Ġspa":7529,"Ġpodlieha":7530,"CÃŃ":7531,"ĠrozpoÄįtu":7532,"sch":7533,"lar":7534,"tÃŃvneho":7535,"Ġvedomie":7536,"Ġtvrdia":7537,"tova":7538,"Ġmesiaca":7539,"romad":7540,"ĠuÅ¡et":7541,"Ġmiluje":7542,"systÃ©":7543,"Ġrastie":7544,"Ġjedla":7545,"VÃ¡Å¡":7546,"199":7547,"kovanÃ½":7548,"Ġruku":7549,"ĠhÄ¾adajÃº":7550,"Ġmysli":7551,"NovÃ©":7552,"delok":7553,"ĠSu":7554,"Ġdali":7555,"Ġole":7556,"ĠlekÃ¡ra":7557,"tÃ¡t":7558,"ĠÅ¾ivoty":7559,"PoÄįet":7560,"ĠproblÃ©mu":7561,"ĠstrÃ¡ca":7562,"ĠpriniesÅ¥":7563,"ĠnovinÃ¡":7564,"ĠspoloÄįnÃ©ho":7565,"ĠâĨĴ":7566,"ĠdodÃ¡v":7567,"ĠPet":7568,"ĠÃºradu":7569,"ĠscÃ©":7570,"ĠvysokÃ½":7571,"ĠukazujÃº":7572,"ĠCor":7573,"Ġosvet":7574,"ĠmateriÃ¡lu":7575,"Ġhan":7576,"ĠTwit":7577,"ĠskvelÃ©":7578,"Ġverzie":7579,"Tri":7580,"Ġreakcie":7581,"ProblÃ©":7582,"obchod":7583,"ĠoÄįa":7584,"Ġkomu":7585,"Äįiach":7586,"ĠvyuÅ¾ÃŃvajÃº":7587,"EO":7588,"skÃ©mu":7589,"Ġsamov":7590,"ĠcviÄįenie":7591,"ĠpredÃ¡va":7592,"ĠhlÃ¡s":7593,"Ġsynov":7594,"ĠchrÃ¡ni":7595,"Ġzostane":7596,"Ġmatky":7597,"Ġ$":7598,"ĠpouÅ¾ÃŃvanÃ©":7599,"ralo":7600,"Ġkonver":7601,"ĠpoÄįÃºvaÅ¥":7602,"ĠâĤ¬":7603,"ÄįÃº":7604,"Ġpotvr":7605,"Dva":7606,"ĠWe":7607,"Oni":7608,"Ġhr":7609,"kohol":7610,"ĠukÃ¡zaÅ¥":7611,"ĠnadÅ¡":7612,"loud":7613,"ĠEurÃ³pa":7614,"Ä¾Ãºbenej":7615,"ĠpodporiÅ¥":7616,"ĠBro":7617,"Ġdokumentov":7618,"OdporÃºÄįa":7619,"Ġkoleg":7620,"Ġamerickej":7621,"NeskÃ´r":7622,"ĠsluÅ¾ob":7623,"Ġprocese":7624,"zale":7625,"Ã¡lnymi":7626,"tÃŃvnu":7627,"ĠnosiÅ¥":7628,"gÃ©":7629,"Ġplynov":7630,"ĠhistÃ³rie":7631,"Ġhlavu":7632,"predu":7633,"ĠÅ¡paniel":7634,"ĠprijatÃ©":7635,"Ġrokom":7636,"Ġnekone":7637,"meno":7638,"Ġab":7639,"Ġpsov":7640,"Ġsek":7641,"olÃ³g":7642,"ĠÃºtoÄį":7643,"klu":7644,"ĠprÃŃpravy":7645,"mb":7646,"ĠÃºprim":7647,"ĠboÅ¾":7648,"Ġkrajinami":7649,"Ġvypo":7650,"Ã½b":7651,"ĠdevÃ¤Å¥":7652,"Ġrastliny":7653,"tkou":7654,"ĠzÃ¡ujmov":7655,"ĠIII":7656,"Ġmon":7657,"ĠmÃ©diÃ¡":7658,"ĠzÃ¡konom":7659,"ĠuÄįenÃŃ":7660,"Ġmanipu":7661,"Ġrokovania":7662,"36":7663,"ÄĮlovek":7664,"Ġport":7665,"ĠnegatÃŃvne":7666,"ĠscenÃ¡":7667,"Ġmodely":7668,"ĠfinanÄįnej":7669,"ĠTy":7670,"Ġnadmer":7671,"ĠchrÃ¡":7672,"sity":7673,"Ġly":7674,"ĠzabezpeÄįenia":7675,"fgan":7676,"ĠdobrodruÅ¾":7677,"tajÃº":7678,"ĠinovÃ¡cie":7679,"Mala":7680,"rchu":7681,"Ġpomaly":7682,"ĠustanovenÃŃ":7683,"Ġospravedl":7684,"ĠvÃ½luÄįne":7685,"ĠkaÅ¾doro":7686,"ĠÃºspeÅ¡ne":7687,"ĠpochÃ¡dzajÃº":7688,"mal":7689,"Ġubyt":7690,"Ġpravdy":7691,"ĠbraÅ¥":7692,"vest":7693,"ĠcviÄįenia":7694,"Ġup":7695,"Ġmesiacoch":7696,"ĠzachrÃ¡ni":7697,"ĠdrÃ¡":7698,"Ġpolovica":7699,"ves":7700,"Nebude":7701,"Ġmiestnych":7702,"ĠÃºst":7703,"Ġfirma":7704,"vtedy":7705,"ned":7706,"ĠinÅ¡titÃºciÃŃ":7707,"rid":7708,"ĠnajvÃ¤ÄįÅ¡ou":7709,"Ġdiva":7710,"rÃ¡tor":7711,"isa":7712,"Ġvizu":7713,"Ġzarad":7714,"stan":7715,"viedol":7716,"pravod":7717,"hal":7718,"Â®":7719,"ĠmyslÃŃte":7720,"Ġnajstar":7721,"BohuÅ¾iaÄ¾":7722,"Ġtich":7723,"rÃ¡ciou":7724,"ĠÄıalÅ¡ÃŃm":7725,"Ġzmene":7726,"ĠinÅ¾in":7727,"ĠÅ¾ivotom":7728,"deli":7729,"soci":7730,"Moje":7731,"ĠrizÃŃk":7732,"Ġpodne":7733,"PrvÃ©":7734,"ĠvÃ½zvy":7735,"ĠÃºdrÅ¾":7736,"avÃ½ch":7737,"ĠtÃ½Å¾den":7738,"Ġig":7739,"NiÄį":7740,"zou":7741,"Ġ75":7742,"smi":7743,"berte":7744,"Ġpredmetom":7745,"Ġseve":7746,"ĠdruhÃ¡":7747,"Ġevanjeli":7748,"Ã¡li":7749,"ĠIP":7750,"rania":7751,"ĠkomentÃ¡":7752,"ĠchvÃŃli":7753,"Ġsrdcov":7754,"demi":7755,"ĠKeÄı":7756,"ĠprÃŃtomnosti":7757,"ĠkdekoÄ¾vek":7758,"Ġhomo":7759,"kyÅĪa":7760,"ĠjednoduchÃ½":7761,"ĠtelevÃŃz":7762,"Ġspust":7763,"tici":7764,"nÃ´t":7765,"Ġpriamy":7766,"ĠinfraÅ¡truktÃºry":7767,"ĠSam":7768,"Ġinteri":7769,"ĠvrÃ¡til":7770,"lovÃ¡":7771,"Ġpodnikania":7772,"Mie":7773,"ĠpolitickÃ½ch":7774,"Ġpomen":7775,"pustiÅ¥":7776,"ĠdievÄįat":7777,"nenÃŃm":7778,"ĠCan":7779,"Ġkontin":7780,"Ġdeleg":7781,"Ġosud":7782,"VÃŃ":7783,"ĠkoordinÃ¡":7784,"Ġhumani":7785,"ĠGroup":7786,"ĠpoÅ¾i":7787,"Spoj":7788,"ĠamerickÃ©":7789,"Ġhu":7790,"Ġbizni":7791,"ĠurÃ½ch":7792,"kovi":7793,"loÅ¾ili":7794,"ZaujÃŃm":7795,"Ġcezhrani":7796,"Ġlode":7797,"ÃŃnu":7798,"Äİalej":7799,"Ġnehovor":7800,"ĠfÃ³":7801,"Ġrozli":7802,"Ġabsolv":7803,"HovorÃŃ":7804,"ĠÅ¡iestich":7805,"Zob":7806,"istiÅ¥":7807,"ĠhraÄį":7808,"ĠÄįlovekom":7809,"ĠveÄ¾kou":7810,"ĠraÅĪaj":7811,"ĠzvyÅ¡ok":7812,"chÃ¡":7813,"EHS":7814,"lizmu":7815,"ĠnapÃŃ":7816,"Ġvonku":7817,"ĠzÃŃskala":7818,"ling":7819,"Ġpravdi":7820,"ĠMicha":7821,"ĠplnÃ©":7822,"Ġ)":7823,"ĠprÃŃprav":7824,"Ġstoli":7825,"Ġjem":7826,"Ġhladiny":7827,"ĠovplyvniÅ¥":7828,"EL":7829,"Ġor":7830,"ĠÅ¾l":7831,"ĠprÃŃlohy":7832,"tek":7833,"Ġstretnutia":7834,"pal":7835,"ĠangliÄį":7836,"ĠnepriateÄ¾":7837,"Ã³nom":7838,"ban":7839,"Å½ivot":7840,"ery":7841,"Ġmiestom":7842,"ĠÅ¡am":7843,"ĠÅ¡tudent":7844,"ĠkÃºpeÄ¾":7845,"ĠdÃ´veru":7846,"ĠprijÃŃmaÅ¥":7847,"Ġkolo":7848,"ame":7849,"ĠbÃ½":7850,"ciona":7851,"ĠKe":7852,"Ġkontra":7853,"ristov":7854,"ĠpotenciÃ¡lne":7855,"tip":7856,"Budeme":7857,"Ġodd":7858,"ĠmladÃŃ":7859,"ĠposvÃ¤":7860,"fu":7861,"rovali":7862,"Ġtypi":7863,"ĠEurÃ³psky":7864,"Ġvyjadr":7865,"ĠvieÅ¡":7866,"ĠvÅ¡etkom":7867,"ĠdrÅ¾aÅ¥":7868,"brid":7869,"ĠmÃ¤so":7870,"Ġspojenie":7871,"Ġfotoapa":7872,"Nemus":7873,"ĠdomÃ¡cnosti":7874,"nova":7875,"Ġstanovuje":7876,"ĠdajÃº":7877,"Ġusporiad":7878,"Ġbar":7879,"ĠÅ¡ia":7880,"ĠMaÄıar":7881,"31":7882,"Ġtva":7883,"Ġcentre":7884,"ĠÃºÄįinnosti":7885,"Ġpoklad":7886,"Ġspon":7887,"HO":7888,"Ġsmu":7889,"ĠvyuÅ¾ÃŃvanie":7890,"Ġtrhy":7891,"FrancÃºz":7892,"Ġovocie":7893,"Ġnebe":7894,"ĠTrump":7895,"ĠvykonÃ¡vajÃº":7896,"ĠsoftvÃ©ru":7897,"Å¾iv":7898,"ĠodpovedaÅ¥":7899,"ĠdomÃ¡ce":7900,"ĠdÃ´raz":7901,"Ġvak":7902,"ĠÃºnia":7903,"Ġbielkov":7904,"covaÅ¥":7905,"Ġvytr":7906,"tovi":7907,"Rob":7908,"Ġumenie":7909,"ĠoÄįÃŃ":7910,"ach":7911,"Ġomnoho":7912,"Ġzhod":7913,"ĠÄįiastoÄįne":7914,"ĠzdÃ´razÅĪuje":7915,"ĠpodporujÃº":7916,"Ġnemohol":7917,"ĠkreatÃŃv":7918,"ĠÄįomu":7919,"iss":7920,"ĠponÃºknuÅ¥":7921,"obÄ¾Ãºbenej":7922,"34":7923,"Ġstranami":7924,"Vid":7925,"Ġjaz":7926,"Ġnovom":7927,"Ã¡ria":7928,"ĠVo":7929,"ĠspoÄįÃŃva":7930,"ladu":7931,"ĠprÃŃrody":7932,"Ġvola":7933,"Tech":7934,"Ġpartnerom":7935,"Ġpoj":7936,"ĠvlÃ¡k":7937,"zÃ¡cii":7938,"Ġana":7939,"ĠminulÃ©ho":7940,"ĠzabiÅ¥":7941,"teÄ¾nosÅ¥":7942,"Ġpondelok":7943,"ĠWar":7944,"Ġaugusta":7945,"Star":7946,"ĠnÃ¡rodnÃ½ch":7947,"ĠInternational":7948,"Ġdiploma":7949,"ĠRi":7950,"ĠmaximÃ¡lne":7951,"ĠdostÃ¡va":7952,"Å¥ahuje":7953,"ĠzabÃŃ":7954,"ĠpÃ´dy":7955,"Ġozbroj":7956,"Ġ#":7957,"Ġzjednodu":7958,"Ġmilosrden":7959,"Ġodpadu":7960,"ĠzÃ¡Å¾itok":7961,"Obe":7962,"Ġnajne":7963,"ĠÄĮÃŃny":7964,"ĠEd":7965,"ĠÃºstav":7966,"pin":7967,"ĠsnÃŃ":7968,"ĠnebezpeÄįnÃ©":7969,"ĠkonÅ¡ta":7970,"ĠÃºc":7971,"ĠÄįasom":7972,"ĠNATO":7973,"ĠEC":7974,"TÃ½mto":7975,"ĠpriÅ¡la":7976,"ĠZem":7977,"ĠexistovaÅ¥":7978,"Ġpocho":7979,"ĠjedinÃ½m":7980,"ĠmenÃ¡":7981,"Ġpiatok":7982,"ovateÄ¾ov":7983,"ĠobnoviteÄ¾":7984,"Hod":7985,"isÅ¥ov":7986,"ĠhodnÃ´t":7987,"plan":7988,"Ġkilometrov":7989,"Ġkvap":7990,"ĠBoÅ¾ej":7991,"Ġmama":7992,"div":7993,"kal":7994,"Å¡nÃ½":7995,"ĠÅ¡tÃºdiÃŃ":7996,"Ġtajomstvo":7997,"Ġbonus":7998,"Ġpresu":7999,"rand":8000,"'s":8001,"Mar":8002,"ĠLondÃ½ne":8003,"Chceme":8004,"ĠEl":8005,"Ġnesko":8006,"ĠdochÃ¡dza":8007,"vka":8008,"ĠspravodlivosÅ¥":8009,"Ġhodnotenia":8010,"nÃ¡Äı":8011,"TÃºto":8012,"ĠZemi":8013,"ĠschopnÃ©":8014,"esÅ¥":8015,"Ġkore":8016,"ĠiPhone":8017,"ĠuÅ¾ÃŃvaÅ¥":8018,"Jednoducho":8019,"Ġkvalifi":8020,"ĠzakÃ¡zanÃ©":8021,"Ġpokrok":8022,"ĠtÃ¡bo":8023,"ĠÄıalÅ¡ÃŃmi":8024,"statnÃ©":8025,"rÃ¡ti":8026,"ĠrastlÃŃn":8027,"kazujÃº":8028,"ĠvynÃ¡":8029,"ĠtrÃ©ning":8030,"ĠdÃ´leÅ¾itej":8031,"ĠzahraniÄįÃŃ":8032,"Ġekonomiky":8033,"Ġmm":8034,"Ġrecyk":8035,"Ġdosiahnu":8036,"ĠzameranÃ©":8037,"spie":8038,"ĠprestaÅ¥":8039,"Ġvytvoril":8040,"Ġzastup":8041,"ĠmanÅ¾elstvo":8042,"ĠrukÃ¡ch":8043,"fo":8044,"ĠzaplatiÅ¥":8045,"ĠlÃ¡ske":8046,"Budem":8047,"ĠzakÃºp":8048,"ĠMal":8049,"ĠnajvÃ½":8050,"ĠstarÃ½":8051,"ĠvyuÅ¾itie":8052,"stalo":8053,"Ġgrafi":8054,"dar":8055,"ĠpÃ¤":8056,"ĠrozprÃ¡vaÅ¥":8057,"ĠÄįlÃ¡nkov":8058,"Ġnijak":8059,"ĠpozeraÅ¥":8060,"tke":8061,"kÃ¡cii":8062,"Ġmine":8063,"ĠnÃ¡vrhy":8064,"zom":8065,"hoval":8066,"ĠoceÃ¡":8067,"ĠvysokÃ¡":8068,"ĠprÃŃstav":8069,"Ġobchode":8070,"eruzale":8071,"ĠdoruÄį":8072,"Ġopera":8073,"Ġpredpokladu":8074,"ĠAndro":8075,"Ġrozmani":8076,"edia":8077,"ĠvÃŃru":8078,"ĠostatnÃ½m":8079,"ĠMus":8080,"Ġ400":8081,"ĠzvlÃ¡Å¡t":8082,"ĠAlex":8083,"Å¡ajÃº":8084,"Ġlov":8085,"Ġpodpis":8086,"ĠspÃ¡ch":8087,"Ġrozh":8088,"chut":8089,"lii":8090,"Ġpobyt":8091,"Ġx":8092,"vateÄ¾":8093,"ĠakÃºkoÄ¾vek":8094,"ĠlieÄįba":8095,"poli":8096,"ĠWEB":8097,"ĠcelÃ¡":8098,"Ġfaktory":8099,"Äįlen":8100,"SÃºÄįas":8101,"PonÃº":8102,"32":8103,"Ã½r":8104,"ĠcestovaÅ¥":8105,"bytok":8106,"Ġprekro":8107,"ĠautÃ¡":8108,"ĠhlavnÃ½":8109,"Ġcukru":8110,"ĠenvironmentÃ¡l":8111,"ĠzmenÃŃ":8112,"ĠIT":8113,"ĠbeÅ¾nÃ©":8114,"Ġveter":8115,"Ġspotre":8116,"vÅ¡et":8117,"ĠÅłvajÄįiar":8118,"ĠoficiÃ¡l":8119,"Ġrozhodla":8120,"ĠgÃ©":8121,"ĠzaÄįÃŃnajÃº":8122,"ĠprÃŃsluÅ¡nÃ½":8123,"Ġzaregist":8124,"Ġy":8125,"Ġumenia":8126,"ĠaktuÃ¡lne":8127,"Ġml":8128,"ĠdruhÃ½m":8129,"ĠprÃŃrodnÃ©":8130,"Ġtkani":8131,"ĠpreÄįÃŃtaÅ¥":8132,"ĠchorÃ´b":8133,"rovanÃ½":8134,"opak":8135,"ĠHoland":8136,"ĠoÄįakÃ¡":8137,"interes":8138,"ĠvhodnÃ½":8139,"ĠÄįisto":8140,"ctva":8141,"ĠformulÃ¡":8142,"ĠbezpeÄįnostnÃ½ch":8143,"ĠBMW":8144,"nutiu":8145,"ĠsociÃ¡lny":8146,"Ġaud":8147,"Ġcelo":8148,"ĠHu":8149,"buz":8150,"Ġpohybu":8151,"ĠodrÃ¡Å¾":8152,"Ġuniverz":8153,"ĠdodrÅ¾iavaÅ¥":8154,"ĠvstÃºpi":8155,"Ã¡t":8156,"Ġtechniky":8157,"Ġspravodaj":8158,"ĠÅ¡tÃŃ":8159,"ĠriadiÅ¥":8160,"ĠuplatÅĪovaÅ¥":8161,"kladne":8162,"39":8163,"ĠsociÃ¡lneho":8164,"Ġhviezd":8165,"ĠobrovskÃ©":8166,"ĠoÄįakÃ¡vania":8167,"ĠpoÄıak":8168,"Ġcookie":8169,"Ġ*":8170,"ĠdovoliÅ¥":8171,"Ġzjedno":8172,"ng":8173,"tÃ¡n":8174,"Ġnere":8175,"kry":8176,"Ġpresadz":8177,"Ġprotoko":8178,"Ap":8179,"tras":8180,"kluzÃŃv":8181,"ĠakciÃŃ":8182,"ĠprÃŃjmov":8183,"sl":8184,"ĠnemusÃŃte":8185,"ĠÃºsme":8186,"Ġforma":8187,"Ġpartnera":8188,"ĠanalÃ½zy":8189,"Ġalkoholu":8190,"ĠzruÄįnosti":8191,"Ġradik":8192,"ĠnaruÅ¡":8193,"ĠmenÅ¡ie":8194,"ĠsnaÅ¾iÅ¥":8195,"ĠZeme":8196,"Äįan":8197,"ĠpomÃ¡haÅ¥":8198,"rovej":8199,"NieÄįo":8200,"Ġdanej":8201,"slÃŃ":8202,"ĠinvestÃŃciÃŃ":8203,"Ġboha":8204,"Ġles":8205,"Ġrovnakej":8206,"ĠuÅ¾ÃŃvateÄ¾":8207,"Ġfiriem":8208,"ĠnÃ¡rast":8209,"ĠÃºzemie":8210,"omi":8211,"LÃ¡":8212,"Ġprograme":8213,"ĠÃºloha":8214,"Ġdistribu":8215,"ĠuteÄįencov":8216,"Ġbio":8217,"Ġpostoj":8218,"Ġdole":8219,"DÃ´vod":8220,"RÃ½ch":8221,"PP":8222,"Ġmag":8223,"ĠÄ¾udstva":8224,"ĠnÃ¡rok":8225,"Ġviano":8226,"ĠhÄºb":8227,"Ġsmie":8228,"ĠtechnickÃ½ch":8229,"ros":8230,"uÄį":8231,"sÅ¥a":8232,"ĠpotrebnÃ¡":8233,"ĠkÄ¾ÃºÄįovÃ©":8234,"tive":8235,"Ġbytosti":8236,"ĠpozÃŃcie":8237,"ĠnavÅ¡tÃŃ":8238,"ĠkrÃŃzy":8239,"ĠNor":8240,"ĠzloÄįin":8241,"KÃ½m":8242,"Ġokamihu":8243,"Ġauta":8244,"Ġprocesov":8245,"Ġzbo":8246,"ĠÃºÅ¾asnÃ©":8247,"ĠFacebooku":8248,"ĠnesprÃ¡vne":8249,"Ġemocion":8250,"bÃ¡m":8251,"Ġkontaktu":8252,"AM":8253,"Ġspad":8254,"Ġ%.":8255,"ĠPC":8256,"ĠpouÅ¾ÃŃvate":8257,"ĠdefinÃŃ":8258,"lovÃ½":8259,"bol":8260,"ÅĪami":8261,"Ġet":8262,"pustenie":8263,"Ġluxus":8264,"ĠstanoviÅ¥":8265,"mÃ½Å¡Ä¾aÅ¥":8266,"ÃŃnov":8267,"US":8268,"Ġstredu":8269,"enÃºÅ¥":8270,"Ġsieti":8271,"ĠMexi":8272,"Ġkonkurencieschop":8273,"ĠjednotlivÃ©":8274,"Ġkrokom":8275,"ĠsÃ©rie":8276,"Ġhlboko":8277,"ĠTV":8278,"kovali":8279,"ĠvaÅ¡i":8280,"ovane":8281,"ruba":8282,"Ġosobe":8283,"vrÃ¡tane":8284,"ostÃŃ":8285,"Ġtoxi":8286,"ĠBud":8287,"Ġmilujem":8288,"tkami":8289,"Ġnom":8290,"kord":8291,"ĠkritÃ©riÃ¡":8292,"ĠpreruÅ¡":8293,"ÅĪovania":8294,"ĠHarry":8295,"ĠprihlÃ¡s":8296,"Ġdielo":8297,"Ġinterpre":8298,"ĠÅ¾ivoÄįÃŃ":8299,"Ġjednozna":8300,"ĠreagovaÅ¥":8301,"Ġvin":8302,"Ġzme":8303,"jazd":8304,"Ġharmoni":8305,"Ġjar":8306,"tajte":8307,"ĠÅ¡kÃ´l":8308,"ĠspaÅ¥":8309,"Ġmori":8310,"Vyh":8311,"ĠSlovenskej":8312,"skemu":8313,"Ġtlaku":8314,"Ġneurob":8315,"OtÃ¡zka":8316,"ĠdiskriminÃ¡":8317,"Ġproble":8318,"ĠnÃ¡rodnej":8319,"MusÃŃm":8320,"Ġkontakt":8321,"ĠvÅ¡im":8322,"Ġmechaniz":8323,"ĠuÄįiteÄ¾":8324,"cit":8325,"ĠÅ¡tÃ¡tnej":8326,"Ġ32":8327,"ĠdÃ¡vno":8328,"ÃºÅ¥":8329,"Ġizrael":8330,"ms":8331,"Ġobsahom":8332,"ĠvyhraÅ¥":8333,"Ġbru":8334,"Ġzostav":8335,"ĠnapÃŃsaÅ¥":8336,"Ġvyhodno":8337,"Ġcharakteristi":8338,"Ġprirodzene":8339,"Ġtehotenstva":8340,"bio":8341,"Ġnepov":8342,"ĠodbornÃŃkov":8343,"ĠprimeranÃ©":8344,"MyslÃŃ":8345,"pev":8346,"ĠpozÃŃciu":8347,"Ġmozog":8348,"ĠFi":8349,"ĠvytvÃ¡rajÃº":8350,"ener":8351,"ĠprÃŃrodnÃ½ch":8352,"ĠvyskÃºÅ¡aÅ¥":8353,"ĠmlÃ¡de":8354,"Ä¾ovania":8355,"mun":8356,"ĠJeruzale":8357,"ĠvÃ½znamnÃ©":8358,"Ġobrany":8359,"Ġpy":8360,"Ġobsta":8361,"Ġdemon":8362,"jme":8363,"ĠpotrebnÃ½":8364,"Ġzmenil":8365,"Ġmate":8366,"Povedal":8367,"Ġsv":8368,"ĠokolÃŃ":8369,"tivity":8370,"Ġbodu":8371,"ĠUniversity":8372,"ĠhÄ¾adÃ¡":8373,"ĠzÃ¡pal":8374,"Lie":8375,"Ġzanech":8376,"ĠSÃ½rii":8377,"Ġchiru":8378,"OdpoveÄı":8379,"Ġprispe":8380,"Ġzved":8381,"Ġponuku":8382,"ĠmilujÃº":8383,"Ġazy":8384,"Aktu":8385,"ĠJack":8386,"Ġfondu":8387,"Ġodstra":8388,"rt":8389,"ĠWi":8390,"Go":8391,"ĠlÃº":8392,"pila":8393,"ĠDucha":8394,"rÃŃp":8395,"ĠMart":8396,"ĠÄıalÅ¡ieho":8397,"Ġcharakter":8398,"Ġponech":8399,"way":8400,"VÃ½skum":8401,"vate":8402,"ĠhmotnosÅ¥":8403,"ĠnÃ¡vÅ¡tevnÃŃkov":8404,"ĠÃºnii":8405,"ĠBie":8406,"ĠvytvorÃŃ":8407,"ĠAnd":8408,"ÅĪom":8409,"Ġzainteres":8410,"jako":8411,"Ġpoza":8412,"Ġbit":8413,"Ġtvoja":8414,"vami":8415,"Ġhosti":8416,"sol":8417,"par":8418,"Ã©mi":8419,"kri":8420,"Ġtrhoch":8421,"ĠdcÃ©ra":8422,"Ġregul":8423,"38":8424,"Ġprijatie":8425,"Ġenergia":8426,"Ġnemusia":8427,"ĠrÃŃ":8428,"ula":8429,"Ġnasad":8430,"ĠAmeriky":8431,"naprÃŃklad":8432,"Ġlegen":8433,"berg":8434,"AP":8435,"Ġprvkov":8436,"Ġbanka":8437,"Ġzabi":8438,"ĠhrÃ¡Äįi":8439,"Ġnaro":8440,"strÃ¡n":8441,"ĠÄ¾ahÅ¡ie":8442,"hajÃº":8443,"Ġjazykov":8444,"ĠÄ¾udstvo":8445,"EM":8446,"ĠNemecko":8447,"Ġobjem":8448,"ĠpeknÃ©":8449,"ĠIzraela":8450,"ĠsÃºhlasu":8451,"xt":8452,"ĠpokraÄįuje":8453,"Ġdoj":8454,"Ġformou":8455,"matickÃ©":8456,"rozprÃ¡":8457,"ĠzÃ¡ujmu":8458,"ĠspÃ´sobmi":8459,"Ġpolovici":8460,"Vedci":8461,"vode":8462,"vol":8463,"ĠÄįlÃ¡nky":8464,"ÅĪujeme":8465,"ĠamerickÃ©ho":8466,"kosÅ¥":8467,"ĠdruhÃ½ch":8468,"ĠmorÃ¡l":8469,"Spom":8470,"Ġfinancovania":8471,"ĠuÄįÃŃ":8472,"ĠÄįloveku":8473,"ĠzostÃ¡vajÃº":8474,"ovanou":8475,"platok":8476,"Ġvojnu":8477,"ĠPra":8478,"jednodu":8479,"Ġobaja":8480,"Ġkomunity":8481,"ĠWorld":8482,"Ġkompli":8483,"ĠkameÅĪ":8484,"ĠhospodÃ¡rstva":8485,"Ġdosiahne":8486,"Å¾ÃŃm":8487,"ÅĪoch":8488,"ĠstaÄįÃŃ":8489,"ĠSto":8490,"Ġkedysi":8491,"ĠrovnakÃº":8492,"ĠpovinnostÃŃ":8493,"Ã¼":8494,"nosÅ¥ami":8495,"mÃ©":8496,"Ġuzdrav":8497,"con":8498,"Ġpamia":8499,"ĠÄįlenskÃ½m":8500,"ĠÄįastejÅ¡ie":8501,"ĠÃºdajne":8502,"pozi":8503,"Ġprakticky":8504,"ĠKu":8505,"Ġfilmy":8506,"ĠpouÅ¾ÃŃvateÄ¾a":8507,"Ġvyjadril":8508,"ĠprÃŃpady":8509,"Ġzarob":8510,"Ġaktualiz":8511,"ĠlÃ¡skou":8512,"Ġmodelov":8513,"Tra":8514,"ĠTra":8515,"ĠÃºÄįasti":8516,"Ġprijali":8517,"enty":8518,"Ġeuroz":8519,"Svet":8520,"ĠstÄº":8521,"ĠverejnosÅ¥":8522,"ĠtlaÄį":8523,"mp":8524,"Ġpilo":8525,"ĠdÃ¡vaÅ¥":8526,"ĠvlÃ¡du":8527,"ĠIraku":8528,"ĠnajdÃ´leÅ¾itejÅ¡ie":8529,"ĠniekoÄ¾kÃ½mi":8530,"ĠkrÃŃÅ¾":8531,"kli":8532,"ĠvyvÃ¡Å¾":8533,"ĠÅ¾enÃ¡":8534,"itcoin":8535,"ĠdÃ´sledky":8536,"ĠÅ¡tÃ¡tne":8537,"ĠprÃŃbehy":8538,"isku":8539,"ĠvystÃºp":8540,"ĠprÃ¡vomoci":8541,"ĠrÃ¡sÅ¥":8542,"ĠdvadsaÅ¥":8543,"ĠprÃŃno":8544,"ĠovplyvÅĪuje":8545,"Ġpodla":8546,"ĠÅ¡tÃ¡di":8547,"ĠprevÃ¡dzkovateÄ¾":8548,"ĠnemoÅ¾nÃ©":8549,"ĠblÃ¡":8550,"Ġodbo":8551,"ĠnÃºt":8552,"ĠRober":8553,"ĠrezervÃ¡":8554,"Ġuznes":8555,"ziou":8556,"ĠspevÃ¡":8557,"ĠJuÅ¾nej":8558,"Ba":8559,"Ġobsia":8560,"komuni":8561,"ĠrobÃŃte":8562,"ĠzneÄįist":8563,"roval":8564,"Ġextra":8565,"Ġpovolenia":8566,"Ġzlat":8567,"tav":8568,"ice":8569,"klop":8570,"ĠAfrike":8571,"OpÃ¤Å¥":8572,"ĠrozvÃŃjaÅ¥":8573,"Takmer":8574,"ovek":8575,"tiaÄ¾":8576,"zerva":8577,"ĠÃºtoku":8578,"ĠnajÄįastejÅ¡ie":8579,"SprÃ¡v":8580,"ĠMad":8581,"Ġzbier":8582,"Ġprebud":8583,"kop":8584,"NovÃ¡":8585,"aku":8586,"ĠoznÃ¡mil":8587,"ĠukÃ¡zali":8588,"ĠprÃŃbuz":8589,"Ġuniverzity":8590,"Ġodvahu":8591,"Ġolympi":8592,"ĠobnoviÅ¥":8593,"ĠmnohÃ½mi":8594,"Nad":8595,"Ġbur":8596,"cal":8597,"omie":8598,"Ġobjed":8599,"Organi":8600,"ĠmanaÅ¾Ã©r":8601,"ĠprÃŃbehu":8602,"ĠjednoduchÅ¡ie":8603,"Neu":8604,"ĠprÃŃchod":8605,"ĠpÃ¡ch":8606,"ĠnÃ¡vrat":8607,"ĠnahradiÅ¥":8608,"ĠOs":8609,"ĠPi":8610,"ĠplÃ¡nuje":8611,"ĠrÃ½chly":8612,"Ġzrka":8613,"Ġparlamen":8614,"gii":8615,"CelÃ½":8616,"Ã¡Å¾":8617,"ĠvysvetliÅ¥":8618,"Ġ37":8619,"olf":8620,"Ġpovrchu":8621,"Ġsmer":8622,"TA":8623,"ĠsluÅ¾be":8624,"Ġobjavili":8625,"Ġhviezdy":8626,"ĠmuÅ¾om":8627,"ovacÃŃch":8628,"Nedo":8629,"ĠnariadenÃŃ":8630,"Ġsmernica":8631,"konÃ¡":8632,"cimi":8633,"Ġoproti":8634,"Ġhomosexu":8635,"ĠÅ¡ir":8636,"keÄı":8637,"Svoj":8638,"ĠvÃ½slov":8639,"ĠmestÃ¡":8640,"ĠstarÃ¡":8641,"iness":8642,"leran":8643,"Ġsvadob":8644,"Ġ34":8645,"Ġsocia":8646,"Ġposol":8647,"Å¡ajte":8648,"Ġprijme":8649,"ĠdneÅ¡nej":8650,"Ġnajkraj":8651,"ĠautonÃ³":8652,"Ġslo":8653,"Poli":8654,"ĠnajrÃ½ch":8655,"ĠvÃŃna":8656,"Ġvojakov":8657,"Ġvraj":8658,"Ġstovky":8659,"Ġdovoz":8660,"ubli":8661,"Ġchorob":8662,"Ġnerov":8663,"ĠOba":8664,"Ġdoslov":8665,"ĠodkiaÄ¾":8666,"ĠapoÅ¡":8667,"mazon":8668,"jÃºca":8669,"ĠnaÅ¡ou":8670,"ĠpoloÅ¾ky":8671,"ĠÄıalÅ¡ia":8672,"Ġstretne":8673,"Ġfaktorov":8674,"ĠÅ¡kÃ¡":8675,"ĠskrÃ½va":8676,"ĠpriateÄ¾om":8677,"ĠstretnÃºÅ¥":8678,"ĠprÃ¡vneho":8679,"ĠtopÃ¡n":8680,"niach":8681,"ĠzÃŃskanie":8682,"Ġcivil":8683,"ĠhÃ¡d":8684,"ĠpovaÅ¾ovanÃ©":8685,"entu":8686,"Ġspek":8687,"ĠportfÃ³":8688,"Ġreklam":8689,"PreÄįÃŃtajte":8690,"alizÃ¡cia":8691,"ĠinformovaÅ¥":8692,"ĠZÃ¡pad":8693,"ĠAndroid":8694,"ĠrozpoÄįet":8695,"ĠzdravotnÃŃc":8696,"ĠÅ¡peciali":8697,"ĠfinanÄįnÃ©ho":8698,"bolov":8699,"zovanÃ©":8700,"pan":8701,"poch":8702,"ĠÅłvÃ©d":8703,"ĠvesmÃŃru":8704,"ĠcestujÃºcich":8705,"ĠzÃ¡kaznÃŃka":8706,"OM":8707,"ĠzÃ¡konov":8708,"ĠvÃŃÅ¥azstvo":8709,"lenÃŃm":8710,"ĠpracovnÃ©ho":8711,"ruÄįiÅ¥":8712,"ĠsexuÃ¡lne":8713,"ĠdvanÃ¡":8714,"Ġsymp":8715,"raÄįov":8716,"Ġeta":8717,"ĠprÃŃÄįiny":8718,"upe":8719,"Ġzim":8720,"ĠrelatÃŃvne":8721,"Ġvedy":8722,"Ġastro":8723,"ĠukÃ¡zal":8724,"ĠpreÅ¾iÅ¥":8725,"Å¡pe":8726,"stia":8727,"dalo":8728,"ÃŃk":8729,"ĠkonanÃŃ":8730,"Ġodha":8731,"Ġmierne":8732,"ĠvoÄ¾nÃ½":8733,"ĠzÃ¡ver":8734,"ĠnÃŃzky":8735,"ĠhovorÃŃme":8736,"ĠposÃº":8737,"Ġprocesy":8738,"ĠvysvetÄ¾uje":8739,"ĠzlÃ½":8740,"ĠMosk":8741,"ĠodvetvÃŃ":8742,"Rozd":8743,"Ġdozor":8744,"ĠCity":8745,"Ġvplyvu":8746,"znÃ¡mej":8747,"ĠnaÅĪ":8748,"Ġzlep":8749,"ĠdlhÃº":8750,"utin":8751,"Pres":8752,"ZvyÅ¡":8753,"ĠnÃ¡jd":8754,"ĠpouÅ¾ÃŃvanÃŃ":8755,"Ġsvetu":8756,"ĠpoÄįÃŃtaÄįa":8757,"Ã¡lni":8758,"hneÄı":8759,"ĠtÃŃto":8760,"Ġkle":8761,"rieb":8762,"ĠpostaviÅ¥":8763,"Ġchoroba":8764,"Ġosa":8765,"ĠzaobchÃ¡dz":8766,"Ġtou":8767,"ĠSlovensko":8768,"ĠdÃ¡vky":8769,"tt":8770,"ĠvyhlÃ¡senia":8771,"cÃ©r":8772,"Ġnajpo":8773,"Ġpostavenie":8774,"ĠdlhÃ½":8775,"Ġspracovania":8776,"Li":8777,"Ġpne":8778,"Ġnastavenia":8779,"ĠudrÅ¾iavaÅ¥":8780,"ĠOne":8781,"caÅ¥":8782,"ByÅ¥":8783,"Ġvlaj":8784,"Mod":8785,"ujÃºcimi":8786,"ĠochorenÃŃ":8787,"ĠdrÅ¾i":8788,"ĠÄįÃŃt":8789,"ĠprÃº":8790,"Ġeuro":8791,"paÅĪ":8792,"ĠPeter":8793,"stami":8794,"ĠrobÃŃme":8795,"Ġpredseda":8796,"Ġberie":8797,"Ġsl":8798,"Ġtrend":8799,"Ġimi":8800,"ĠzÃ¡zra":8801,"ĠnÃ¡silia":8802,"ĠjedinÃ©":8803,"ree":8804,"ĠstarÃ½ch":8805,"Ġhes":8806,"chovÃ¡vaÅ¥":8807,"Ã¡rne":8808,"Ġprovin":8809,"ĠobrovskÃ½":8810,"Ġohrom":8811,"Ġbiele":8812,"ĠSevernej":8813,"Vlast":8814,"ĠKomisii":8815,"ĠdialÃ³g":8816,"hovore":8817,"ĠkonÃ¡":8818,"Ġvyhrad":8819,"Ġprispieva":8820,"ĠsvetovÃ½ch":8821,"dateÄ¾":8822,"Ġunav":8823,"Ġmodu":8824,"ĠSha":8825,"ĠÃ´":8826,"Ġtransakcie":8827,"ÄĮlÃ¡nok":8828,"vÃ¡ch":8829,"ĠplanÃ©ty":8830,"nejÅ¡iu":8831,"Ġmulti":8832,"ĠÅ¡pecifickÃ©":8833,"ĠprechÃ¡dz":8834,"anÃ½m":8835,"Ġnaroden":8836,"Ġsny":8837,"ĠCol":8838,"Ġkape":8839,"Ġrozpore":8840,"Ġdizajnu":8841,"Ġbiely":8842,"Ġparku":8843,"Ã³m":8844,"ĠkrÃ¡tky":8845,"Kone":8846,"Ġmotiv":8847,"ĠzahÅķÅĪaÅ¥":8848,"ĠvÃ½robe":8849,"Ġrozsiah":8850,"Ġrozme":8851,"ĠrozvÃŃja":8852,"ĠreÅ¾im":8853,"OP":8854,"ĠpripravenÃ©":8855,"Ġpodozri":8856,"stri":8857,"Ġodpovedal":8858,"Ġropy":8859,"roÄįnÃ¡":8860,"EA":8861,"tickom":8862,"Ġpomohli":8863,"ĠudalostÃŃ":8864,"zÃŃn":8865,"Ġpriame":8866,"ĠosobitnÃ©":8867,"ĠveÄı":8868,"ovacÃŃ":8869,"ĠnÃº":8870,"Ġprofi":8871,"ĠvlastnÃŃctva":8872,"Ġfotky":8873,"Ä¾av":8874,"Ġvoli":8875,"Ġfinancovanie":8876,"vejÅ¡ie":8877,"ion":8878,"90":8879,"ĠhistÃ³riu":8880,"ĠWillia":8881,"Ġtepl":8882,"toÄįnÃ½ch":8883,"Ġvysiel":8884,"Ġlib":8885,"ĠchrÃŃp":8886,"desiat":8887,"ĠvÃ½bu":8888,"Å¡tne":8889,"tovala":8890,"Ġrepublike":8891,"rans":8892,"Ġfond":8893,"nÃ¡hle":8894,"ĠParÃŃÅ¾i":8895,"ĠprÃŃkladom":8896,"Ġpoistenie":8897,"ĠnÃ¡rodnÃ©":8898,"Ġkrokov":8899,"Ġzbie":8900,"ĠopustiÅ¥":8901,"ĠAu":8902,"Kni":8903,"ĠnemÃ¡me":8904,"ĠKomisiu":8905,"Ona":8906,"Ġosobou":8907,"Ġpoly":8908,"Ġrekord":8909,"ĠÄįoko":8910,"bera":8911,"Ġpredpismi":8912,"ÃŃtaÅ¥":8913,"pria":8914,"Ġpostupu":8915,"budÃº":8916,"Ã¤t":8917,"ĠodiÅ¡iel":8918,"ers":8919,"ĠsprÃ¡vnu":8920,"Ġnene":8921,"ĠzvÃ¤z":8922,"kÃ©ho":8923,"Ġdosiahol":8924,"ĠstaraÅ¥":8925,"Ġpacienta":8926,"2013":8927,"ries":8928,"Ġneprav":8929,"Ġhotov":8930,"Rus":8931,"Ġ1999":8932,"ĠnÃ¡vra":8933,"ĠdodÃ¡":8934,"ĠAt":8935,"Ġhlb":8936,"zdvi":8937,"Ġposu":8938,"Ġhorizon":8939,"Ã¶":8940,"Ġalkohol":8941,"ĠÅ¡tvrÅ¥":8942,"Ġaku":8943,"Ġtuku":8944,"Ġkompati":8945,"Ġprax":8946,"ĠmÅķtvych":8947,"Ġparame":8948,"stvÃ¡ch":8949,"ĠRÃŃm":8950,"ĠchÃ½b":8951,"Ġhodnote":8952,"ĠumoÅ¾niÅ¥":8953,"ĠobetÃŃ":8954,"ĠvzÃ¡c":8955,"ĠSÃºd":8956,"Ġ48":8957,"tÃ³mov":8958,"pres":8959,"ĠzaÅ¥aÅ¾":8960,"Ġkve":8961,"ĠzloÅ¾ky":8962,"Ġverejne":8963,"ktorÃ©":8964,"Ġkyse":8965,"ĠVie":8966,"Åłpe":8967,"Ġvyna":8968,"ĠvaÅ¡im":8969,"ĠzodpovedajÃº":8970,"ĠkrÃ¡Ä¾a":8971,"Å¾el":8972,"ĠpriateÄ¾a":8973,"bia":8974,"ĠpravdepodobnosÅ¥":8975,"Ġpoplatky":8976,"ĠvyjadriÅ¥":8977,"ĠÃºÄįinkov":8978,"lina":8979,"obo":8980,"ĠstanovenÃ½ch":8981,"ĠsezÃ³ny":8982,"ĠpretrvÃ¡":8983,"Ġigno":8984,"ĠnÃ¡zoru":8985,"iv":8986,"ĠÄįerven":8987,"?âĢĿ":8988,"dap":8989,"ĠverÃŃ":8990,"ĠAnge":8991,"ĠoÄįami":8992,"Ġrake":8993,"Ã©ry":8994,"Ġpriazni":8995,"viedli":8996,"ĠexpozÃŃ":8997,"ĠdobrÃ½ch":8998,"DÃ´leÅ¾i":8999,"Ġistej":9000,"Fil":9001,"ĠVÅ¡et":9002,"Ġrobili":9003,"stickej":9004,"Ã¡rom":9005,"ĠmilosÅ¥":9006,"cest":9007,"ĠÄįlenmi":9008,"Nezabud":9009,"tÃŃvnym":9010,"Ġke":9011,"kÃ¡ciÃŃ":9012,"gar":9013,"ĠÃºni":9014,"ĠIrÃ¡":9015,"lÃ¡cii":9016,"Ġchroni":9017,"ĠÅ¡tvrtok":9018,"ĠÅ¡kola":9019,"ĠhranÃŃc":9020,"Ġoznam":9021,"ĠPark":9022,"ÄĮa":9023,"ĠobjednÃ¡vky":9024,"nem":9025,"Å½eny":9026,"Ġbankov":9027,"Ġusad":9028,"ĠUN":9029,"zij":9030,"ĠidÃº":9031,"ĠidentifikovaÅ¥":9032,"âĢ¦]":9033,"ĠfyzickÃ©":9034,"Ġizby":9035,"Ġkoncom":9036,"ĠvÃ¤ÄįÅ¡ia":9037,"MusÃŃ":9038,"Ġnebudem":9039,"ĠaplikÃ¡ciu":9040,"Ġobsad":9041,"Neexistuje":9042,"Ġobid":9043,"vice":9044,"hÃ¡ch":9045,"Vytvor":9046,"ĠtÃ©my":9047,"plej":9048,"Ġpolovicu":9049,"Nes":9050,"ĠPreÄįo":9051,"Ġuplynu":9052,"Ġkontrolou":9053,"ĠindividuÃ¡lne":9054,"iou":9055,"ĠprÃºd":9056,"ĠÄįeliÅ¥":9057,"Ġpotrieb":9058,"ĠÄ¾a":9059,"Ġmak":9060,"ĠpracovnÃ½":9061,"ĠnajÃº":9062,"nejÅ¡ou":9063,"biÅ¥":9064,"Ġrybolov":9065,"Ġuprostred":9066,"ĠobyvateÄ¾stva":9067,"Ġtendenciu":9068,"Ġprvou":9069,"ĠcieÄ¾a":9070,"VaÅ¡a":9071,"ĠSvÃ¤tÃ©ho":9072,"ĠkamarÃ¡t":9073,"kovania":9074,"ĠvlastnÃ½m":9075,"ĠkontaktovaÅ¥":9076,"Ġochorenie":9077,"Ġzdravotnej":9078,"Ġprebe":9079,"JednÃ¡":9080,"ĠvyhÄ¾adÃ¡va":9081,"spÃ¤Å¥":9082,"ĠukÃ¡Å¾e":9083,"ĠMil":9084,"ĠÅ¾iadnom":9085,"ĠmladÃ½":9086,"tugal":9087,"Ġtvojho":9088,"Ä¾ou":9089,"ĠplÃ¡nov":9090,"Ġkozme":9091,"Ġtakejto":9092,"Ġskrze":9093,"ĠpozostÃ¡va":9094,"Nau":9095,"rÅ¾ia":9096,"plne":9097,"ĠhlavnÃ©ho":9098,"ĠbezpeÄįne":9099,"ĠdobrÃ½m":9100,"Ġpreva":9101,"Ġstero":9102,"prom":9103,"ĠÄıalÅ¡ej":9104,"70":9105,"Ġ33":9106,"chÃ¡dzajÃºci":9107,"Ġobchodnej":9108,"ĠpovolenÃ©":9109,"Ġuvedenej":9110,"ĠistÃŃ":9111,"pozri":9112,"sona":9113,"ĠzdravÃ½":9114,"kel":9115,"ĠpeÄį":9116,"ĠneÃºspe":9117,"Ġpredo":9118,"ĠÃ":9119,"Ġjazdy":9120,"ance":9121,"Podobne":9122,"ĠkresÅ¥anov":9123,"ĠHospodin":9124,"ĠÃºz":9125,"ĠkoÅ¾e":9126,"ĠkÄ¾ÃºÄįovÃ½ch":9127,"ĠnezÃ¡kon":9128,"ĠsklenÃŃ":9129,"ĠzastÃºp":9130,"ĠoznÃ¡menie":9131,"Ġkrypto":9132,"Ġfarbu":9133,"stali":9134,"ĠdcÃ©r":9135,"vajte":9136,"ĠhosÅ¥":9137,"ĠHer":9138,"ĠnasledovaÅ¥":9139,"stickÃ½":9140,"isk":9141,"Ġsamostatne":9142,"ĠzÃ¡vÃ¤zky":9143,"ĠarmÃ¡dy":9144,"ĠsplniÅ¥":9145,"ĠoznÃ¡mila":9146,"ĠÄįerst":9147,"Ġkvalifik":9148,"ĠprÃŃpravu":9149,"Ġrovnakom":9150,"ZdÃ¡":9151,"ĠzaÄįnÃº":9152,"ĠnajobÄ¾Ãºbenej":9153,"NÃ¡sled":9154,"Ġobjavil":9155,"VÃ½rob":9156,"ĠÅ¤":9157,"Ġrecen":9158,"Ġfarma":9159,"Ġsan":9160,"Ġriadne":9161,"ĠdÃ´vodom":9162,"ĠmanÅ¾elstva":9163,"gÃ©n":9164,"Ġmoslim":9165,"rmi":9166,"Ġstrachu":9167,"ĠcestÃ¡ch":9168,"ĠstretnutÃŃ":9169,"Vod":9170,"Ġryby":9171,"ĠWal":9172,"dilo":9173,"hotov":9174,"ĠprispÃ´sobiÅ¥":9175,"Ġnikoho":9176,"Ġmajetok":9177,"Ġvrcho":9178,"ĠzhorÅ¡":9179,"rovÃ½ch":9180,"ĠpredstaviteÄ¾":9181,"Å¾iu":9182,"Ġvrav":9183,"tickÃ½mi":9184,"ĠvoÄ¾ba":9185,"ĠvzÅ¥ahujÃº":9186,"ziÃŃ":9187,"Äįina":9188,"ise":9189,"roÄįnÃ©ho":9190,"Ġcelkovej":9191,"ĠIs":9192,"ĠpredÃ¡vaÅ¥":9193,"Ġmestom":9194,"Ġblaho":9195,"ĠnepouÅ¾ÃŃva":9196,"ĠnastaviÅ¥":9197,"niny":9198,"Ġdisci":9199,"tions":9200,"Ġneskoro":9201,"Ġpodnikanie":9202,"han":9203,"Ġasoci":9204,"loÅ¾enÃ©":9205,"ĠotvorenÃ½":9206,"Ġelektrom":9207,"Bi":9208,"ĻĤ":9209,"noÅ¾":9210,"viaz":9211,"ĠTech":9212,"ĠiniciatÃŃvy":9213,"Nechce":9214,"ĠFlo":9215,"ĠinvestovaÅ¥":9216,"nerg":9217,"Ġgar":9218,"ĠspokojnÃ½":9219,"ĠÃºrady":9220,"vyÄįajne":9221,"ĠreÅ¾imu":9222,"ĠstratiÅ¥":9223,"ĠbatÃ©rie":9224,"Ġpale":9225,"ĠnabÃŃ":9226,"ĠzÃ¡kladom":9227,"ĠprÃŃsluÅ¡nÃ½mi":9228,"Ġmenu":9229,"ĠvyzerajÃº":9230,"ĠuviesÅ¥":9231,"Ġnato":9232,"ĠodstrÃ¡ni":9233,"Ġpriz":9234,"Ġhrub":9235,"ĠlieÄįbe":9236,"encov":9237,"Ġhudba":9238,"ĠspoloÄįnÃ½":9239,"tivitu":9240,"Ġdopredu":9241,"Vyberte":9242,"ĠzraniteÄ¾":9243,"Ġfilme":9244,"Ġprevod":9245,"ĠvÃ½beru":9246,"ĠvÅ¡eobecnÃ©":9247,"ĠobmedzenÃ©":9248,"ĠNemecka":9249,"ĠÅ¡aty":9250,"ĠdemonÅ¡t":9251,"ilip":9252,"45":9253,"ĠPlay":9254,"NÃ¡rod":9255,"ĠspoloÄįnej":9256,"ĠkomunikÃ¡ciu":9257,"novej":9258,"ĠvyÄįer":9259,"tovanÃ©":9260,"Ġnavi":9261,"Ġroman":9262,"].":9263,"vÃ¡dzaÅ¥":9264,"Ġproku":9265,"ĠmestÃ¡ch":9266,"NajvÃ¤Äį":9267,"ariadenie":9268,"ww":9269,"ĠkontrolovaÅ¥":9270,"ndrÃ³":9271,"LenÅ¾e":9272,"ĠÅ¡truktÃºry":9273,"ĠpoÄįasie":9274,"ĠVÃ¡Å¡ho":9275,"Ġrodinou":9276,"Ġtab":9277,"Ġobra":9278,"Ġkrajinou":9279,"Ġneba":9280,"ĠprÃŃÄįinou":9281,"Ġ65":9282,"ime":9283,"ĠzapÃ¡":9284,"ĠvytvorenÃ©":9285,"Ġpracoval":9286,"ĠzniÄįiÅ¥":9287,"Ġvidie":9288,"Kre":9289,"Ġveli":9290,"Ã¡vajte":9291,"ĠÅ¡tÃ½lu":9292,"Ġautomobilov":9293,"daje":9294,"Å¥te":9295,"Ä¾ach":9296,"siel":9297,"Ġkampane":9298,"Ġobete":9299,"Ġstrojov":9300,"ĠsamÃ©ho":9301,"ĠvÃŃno":9302,"ĠstarÅ¡ÃŃch":9303,"tnom":9304,"neme":9305,"Ġnevin":9306,"Ġmien":9307,"ĠJed":9308,"Ġpotravin":9309,"ĠzmluvnÃ½ch":9310,"Ġrisk":9311,"Å¾aduje":9312,"Ġ190":9313,"Ġarab":9314,"Rada":9315,"VerÃŃm":9316,"ĠzvlÃ¡Å¡Å¥":9317,"ĠspomÃŃn":9318,"Ġmiestne":9319,"ĠÄ¾Ãºto":9320,"nel":9321,"nÃ¡h":9322,"SystÃ©":9323,"Ġzve":9324,"Ġmodlitby":9325,"ĠvÃ½davky":9326,"Ġsvalov":9327,"Pria":9328,"Ġutorok":9329,"Ġpraktiz":9330,"Ġzistil":9331,"teru":9332,"ĠzachovaÅ¥":9333,"Ġpozastav":9334,"Ġtvrdo":9335,"ĠpredbeÅ¾":9336,"He":9337,"ĠpreÅ¾ÃŃva":9338,"janie":9339,"Ġobklop":9340,"Ġrobil":9341,"ĠosobÃ¡m":9342,"zard":9343,"ĠCy":9344,"Ġmimoriad":9345,"Ġdobrej":9346,"ĠmotivÃ¡":9347,"rÃ¡lnych":9348,"ĠGra":9349,"ĠuÄįenie":9350,"ĠBul":9351,"Ġstanice":9352,"olÃ³gie":9353,"liv":9354,"Povedz":9355,"gon":9356,"ĠPred":9357,"ĠpokrÃ½va":9358,"Ã¡vam":9359,"Ġpotrebujem":9360,"ĠvÃ½voji":9361,"Ġpole":9362,"ĠuloÅ¾enÃ©":9363,"ĠfinanciÃŃ":9364,"ĠobmedziÅ¥":9365,"nickÃ©":9366,"Äįmi":9367,"StaÄįÃŃ":9368,"ranÃŃ":9369,"Pat":9370,"ĠvÃ½voz":9371,"ĠrÃ¡dio":9372,"Mat":9373,"ĠneÅ¾iad":9374,"Ã³noch":9375,"Ġzmluva":9376,"Ġlitera":9377,"Ġlegi":9378,"Ġpraxi":9379,"Ġkola":9380,"Ġkompe":9381,"ĠdostanÃº":9382,"Par":9383,"Ġnekon":9384,"Ġpomal":9385,"ĠschopnÃ¡":9386,"KtorÃ©":9387,"ĠdÃ´leÅ¾itÃº":9388,"BezpeÄį":9389,"kar":9390,"Ġ38":9391,"ĠpouÅ¾ÃŃvateÄ¾om":9392,"koval":9393,"ĠupraviÅ¥":9394,"Ġvylie":9395,"Ġcudzin":9396,"Ġsobotu":9397,"Ġhlave":9398,"ĠÄįÃŃtanie":9399,"ĠzÃ¡leÅ¾itosti":9400,"ĠmobilnÃ½ch":9401,"Ġabsor":9402,"Ġfas":9403,"Ġpokles":9404,"ĠpremiÃ©r":9405,"Cho":9406,"Ġdohode":9407,"ĠTom":9408,"Ġspolupracov":9409,"Pok":9410,"Obaja":9411,"ĠbudÃºce":9412,"padne":9413,"Ġchole":9414,"Äįiny":9415,"ĠpohÃ¡":9416,"Ġobhaj":9417,"Ġref":9418,"Momen":9419,"bit":9420,"ĠzÃ¡kaznÃŃci":9421,"ĠglobÃ¡lne":9422,"Ġpripojenie":9423,"Ġoblie":9424,"Ġpolitike":9425,"Ġpracovnej":9426,"Ta":9427,"ĠVaÅ¡ej":9428,"ĠTak":9429,"ĠbÃ¡b":9430,"EF":9431,"ĠTaliansku":9432,"Sloven":9433,"Ġbicyk":9434,"ĠpoznÃ¡m":9435,"sig":9436,"Ġopra":9437,"ning":9438,"Os":9439,"heÅĪ":9440,"ĠnÃ¡roÄįnÃ©":9441,"ight":9442,"Vieme":9443,"Ġplatformy":9444,"ĠRada":9445,"Ġkartu":9446,"ĠpolÃŃcia":9447,"Ġneop":9448,"atal":9449,"Ġpriemysle":9450,"Ġnosi":9451,"ĠprihlÃ¡":9452,"Ġtvojej":9453,"rÃ¡dza":9454,"Ġzameriava":9455,"KaÅ¾dÃ©":9456,"ĠkalÃ³riÃŃ":9457,"ĠzÃ¡leÅ¾ÃŃ":9458,"Ġ[âĢ¦]":9459,"hynu":9460,"Ġakcep":9461,"ĠKalifor":9462,"ya":9463,"ĠBal":9464,"ĠnesmÃº":9465,"Ġnevz":9466,"LA":9467,"ĠspoluprÃ¡ca":9468,"ĠEurÃ³pu":9469,"Ġdala":9470,"Ġzamestnanci":9471,"ĠDavid":9472,"ĠnaznaÄįuje":9473,"Ä¾te":9474,"Ġdohovor":9475,"lali":9476,"ĠBlack":9477,"ls":9478,"Ġzlato":9479,"lenej":9480,"ture":9481,"ĠÄĮÃŃna":9482,"ĠGeorge":9483,"ĠexistujÃºcich":9484,"ĠreÄį":9485,"ĠvÃ½chodnej":9486,"ĠpieseÅĪ":9487,"Ġsubjekt":9488,"Ġmore":9489,"ĠpoisÅ¥ov":9490,"ĠvidÃŃ":9491,"ĠfÃ¡ze":9492,"Ġtesty":9493,"Ġfilozof":9494,"Du":9495,"stila":9496,"ĠprispieÅ¥":9497,"ĠvyÅ¡Å¡ia":9498,"Ġcelkovo":9499,"piu":9500,"Ġviacer":9501,"SS":9502,"Ġtvar":9503,"Ġdoba":9504,"lÃŃz":9505,"Ġvracia":9506,"Ġvzduch":9507,"ĠduÅ¡u":9508,"hali":9509,"ĠZmluvy":9510,"Ġnechcem":9511,"nÃŃku":9512,"Ġhromad":9513,"ĠnavrhnutÃ©":9514,"ĠðŁĻĤ":9515,"ĠnezÃ¡vislosÅ¥":9516,"BA":9517,"Ġpomohol":9518,"ĠprÃ¡vny":9519,"ĠkaÅ¾dÃ½ch":9520,"ĠvÃ½chode":9521,"Ġpobytu":9522,"ĠposilniÅ¥":9523,"Ġplu":9524,"Ġmajstrov":9525,"kovanÃ¡":9526,"ĠnÃ¡me":9527,"Ġfestiva":9528,"Ġfaktor":9529,"Ġmigrantov":9530,"Ġlop":9531,"ĠdÅĪom":9532,"kladanie":9533,"ĠprÃŃjmu":9534,"Ġnemocnice":9535,"Ġtesto":9536,"Cest":9537,"ĠAm":9538,"ĠkaÅ¾dÃ½m":9539,"ĠkultÃºra":9540,"Ġzhruba":9541,"ĠnÃ¡boÅ¾enstvo":9542,"Rod":9543,"movia":9544,"tilo":9545,"Ġneobmedz":9546,"Ġdoktor":9547,"strÃ¡":9548,"ĠmnoÅ¾stvom":9549,"ĠvÃ½Å¡ky":9550,"Ġlokality":9551,"Ġ95":9552,"vlÃ¡d":9553,"Ġviera":9554,"prednost":9555,"ĠfaloÅ¡":9556,"Ġzaplat":9557,"VÃ½sledky":9558,"Ġnovo":9559,"Ġjednotlivcov":9560,"Ġticho":9561,"onald":9562,"ĠbeÅ¾ne":9563,"PoznÃ¡mka":9564,"Å¾nÃ©":9565,"NemÃ´Å¾em":9566,"Ġznalosti":9567,"MnohÃ©":9568,"dex":9569,"Ġchlapec":9570,"Ġzrej":9571,"Äįik":9572,"ĠvysokÃ½m":9573,"ĠvyhlÃ¡si":9574,"krajin":9575,"jÃºcimi":9576,"Ġ44":9577,"ĠurobÃŃ":9578,"chÃ©":9579,"Ġprofesor":9580,"Ġfunkcia":9581,"Ġveria":9582,"ĠSyna":9583,"EurÃ³psky":9584,"Ġexperimen":9585,"Ġhere":9586,"ĠdÃ¡tumu":9587,"ĠveÄ¾vy":9588,"tnosÅ¥":9589,"Ġkyber":9590,"ĠzabezpeÄįia":9591,"ĠprÃŃsne":9592,"lÃ³gie":9593,"ĠrÃ½chlosti":9594,"ovu":9595,"KÄ¾Ãº":9596,"SprÃ¡va":9597,"ĠveÄ¾kom":9598,"ĠzadrÅ¾":9599,"teÄ¾nÃº":9600,"Vita":9601,"Ġducha":9602,"Ġdovolenku":9603,"MomentÃ¡lne":9604,"Ġperspek":9605,"ĠDis":9606,"Ġodvetvia":9607,"ĠtakÃºto":9608,"Ġplnej":9609,"ĠoznÃ¡menia":9610,"ĠuskutoÄįniÅ¥":9611,"ujÃºcu":9612,"ĠreÃ¡lnom":9613,"Ġdiabe":9614,"ĠnÃ¡hrad":9615,"Ġhotel":9616,"ĠznamenaÅ¥":9617,"seku":9618,"ĠnÃ¡stup":9619,"Ġang":9620,"ĠsÃºkromnÃ©":9621,"Ġtalent":9622,"ĠpouÅ¾ÃŃvame":9623,"ĠvidÃŃme":9624,"ĠtisÃŃce":9625,"Ġdoty":9626,"ĠÅ¡peciÃ¡lny":9627,"Ġniekomu":9628,"ĠosobnÃ½":9629,"ĠAb":9630,"ality":9631,"Ġsmernici":9632,"tle":9633,"PoÄıme":9634,"ÄįnÃ©mu":9635,"novÃ½ch":9636,"hanie":9637,"ĠnepoznÃ¡":9638,"Ġidenti":9639,"rela":9640,"ĠobÄįas":9641,"Ġtakz":9642,"ĠkresÅ¥ania":9643,"ĠkÅĪaz":9644,"ĠvÃŃkend":9645,"ĠtermÃŃ":9646,"lez":9647,"ĠDÃ¡":9648,"99":9649,"Ġneleg":9650,"Ġprijala":9651,"ĠkonÄįÃŃ":9652,"ĠDP":9653,"Ġul":9654,"lanÃŃ":9655,"Ġadres":9656,"ĠvstÃºpiÅ¥":9657,"ĠpoÄįuli":9658,"ĠnariadenÃŃm":9659,"ĠuvedomiÅ¥":9660,"Ġizo":9661,"ĠRoz":9662,"ĠÅ¡kolu":9663,"ÄİalÅ¡ÃŃ":9664,"Ġnezi":9665,"ĠodpoÄį":9666,"artmÃ¡":9667,"Ġspod":9668,"Â·":9669,"Ġprieskum":9670,"Najprv":9671,"ĠpredÄįas":9672,"idy":9673,"NajmÃ¤":9674,"ĠrovnakÃ½m":9675,"ÃŃny":9676,"Ġzvuk":9677,"ĠnaspÃ¤Å¥":9678,"ĠSÃº":9679,"ĠpodaÅ¥":9680,"Ġzatvor":9681,"zach":9682,"ĠVianoce":9683,"ĠpravdepodobnÃ©":9684,"ĠFrancÃºzsko":9685,"Ġsank":9686,"Ġoslov":9687,"ĠregiÃ³nu":9688,"Ġchybu":9689,"gare":9690,"Ġpriemere":9691,"Å¾enie":9692,"Ġkorup":9693,"ĠpolitÃŃk":9694,"ĠkrÃ¡tkodob":9695,"ĠzÃºf":9696,"ĠextrÃ©mne":9697,"lb":9698,"Ġzdo":9699,"Ġvydal":9700,"Ġvystup":9701,"Ġpalu":9702,"ĠÅ¡port":9703,"ĠEurope":9704,"ĠohÄ¾ad":9705,"ĠMoj":9706,"ĠMor":9707,"Ġtm":9708,"Koniec":9709,"kvali":9710,"ĠdÃ´veryhod":9711,"ĠmetÃ³d":9712,"Ġvlh":9713,"ĠodliÅ¡nÃ©":9714,"48":9715,"pier":9716,"ĠsprÃ¡vnej":9717,"Ġbratia":9718,"ĠpalÃ¡":9719,"LÃ¡ska":9720,"Ġpohodl":9721,"ĠvnÃºtroÅ¡tÃ¡tnych":9722,"MuÅ¾":9723,"ĠuplatÅĪuje":9724,"Ġ1000":9725,"Ġsty":9726,"ĠAfgan":9727,"Ġvzdialenosti":9728,"Ġlieku":9729,"akujeme":9730,"NaÅ¡Å¥astie":9731,"ĠzÃºÄįastn":9732,"ĠvÃ½menu":9733,"ĠzÃ¡hrad":9734,"omu":9735,"Ġresp":9736,"Ġpozrite":9737,"ĠaplikÃ¡cia":9738,"ĠfinanÄįnÃº":9739,"Ġpolitickej":9740,"ĠdostupnÃ½ch":9741,"ĠvidÃŃm":9742,"Ġobvykle":9743,"ĠpoÅ¡ko":9744,"Ġteploty":9745,"SpojenÃ©":9746,"ĠzvÃ½Å¡i":9747,"ĠCen":9748,"Ġistom":9749,"tÃºrou":9750,"ass":9751,"ĠkomunikovaÅ¥":9752,"ĠzruÅ¡iÅ¥":9753,"Ġtvori":9754,"Ġrezerv":9755,"cuje":9756,"Inak":9757,"ĠelektrÃ¡":9758,"Ġton":9759,"ĠzaÄįlen":9760,"Dr":9761,"Ġsolida":9762,"Ġenergetickej":9763,"Ġrelax":9764,"ĠstÃ¡vajÃº":9765,"Ġmole":9766,"ĠoÄįiach":9767,"ĠÃļnii":9768,"ĠÅ¥aÅ¾kosti":9769,"Ġsilou":9770,"ĠduÅ¡a":9771,"ĠjanuÃ¡ri":9772,"ĠnavÅ¡tev":9773,"ĠzabezpeÄįÃŃ":9774,"ĠlekÃ¡ri":9775,"ÅĪujem":9776,"Ġodhal":9777,"ĠSln":9778,"ij":9779,"ĠzÃ¡vÃ¤zok":9780,"Ġkonferencie":9781,"ĠdaÅĪov":9782,"ĠnÃŃzke":9783,"ĠpokraÄįov":9784,"ĠÅ¡tÃºdiu":9785,"Ġuviedli":9786,"Ġzranenia":9787,"lene":9788,"ĠSlovenska":9789,"ĠdÃ´jde":9790,"Ġkontexte":9791,"ĠpozitÃŃvny":9792,"arov":9793,"logickÃ©":9794,"Ġnemohli":9795,"ĠdÃ¡vajÃº":9796,"ĠpÄ¾Ãº":9797,"Potrebujete":9798,"Ġnas":9799,"bere":9800,"ĠvyÅ¾adovaÅ¥":9801,"Å¡pi":9802,"celo":9803,"ĠPale":9804,"ÃŃd":9805,"ĠmÃ¤sa":9806,"Ġterorizmu":9807,"zÃ³":9808,"ĠÅ¾ivotu":9809,"Ġmlieko":9810,"Ġjednotiek":9811,"Ġlietadla":9812,"Ġdesiatich":9813,"46":9814,"Ġmono":9815,"ĠpodieÄ¾a":9816,"Ġmilosti":9817,"ĠzabezpeÄįuje":9818,"spon":9819,"jÃºc":9820,"ĠnÃ¡dor":9821,"Ġpropag":9822,"voch":9823,"toma":9824,"Ġpozrie":9825,"ĠKar":9826,"ĠÅ¡tudenti":9827,"rÃ¡lna":9828,"ĠfungujÃº":9829,"ĠBib":9830,"Ġcu":9831,"ĠobrÃ¡zok":9832,"ĠâĢļ":9833,"Ġlet":9834,"ĠpredchÃ¡dzajÃºcich":9835,"stol":9836,"ĠdobrÃ©ho":9837,"plÃ¡":9838,"veru":9839,"Ġnepriazni":9840,"ĠurÄįenÃ¡":9841,"Ġostrove":9842,"Ġcis":9843,"Ġinvestorov":9844,"ĠBlu":9845,"tovÃº":9846,"IL":9847,"horvÃ¡t":9848,"Ġzber":9849,"ĠkaÅ¾doroÄįne":9850,"ielaÅ¥":9851,"ĠSR":9852,"ĠkÃ¡vy":9853,"Priprav":9854,"ĠsamovraÅ¾":9855,"ĠmalÃº":9856,"Ġspas":9857,"rÃ¡lnej":9858,"ĠvÃ½robca":9859,"100":9860,"Ġzauj":9861,"lÃ³gia":9862,"Ġciest":9863,"ĠzvlÃ¡Å¡tne":9864,"ĠkultÃºru":9865,"ĠkategÃ³rii":9866,"kaÅ¾d":9867,"ĠuskutoÄįnÃŃ":9868,"ĠdokÃ¡zali":9869,"ovho":9870,"porov":9871,"?!":9872,"ĠTur":9873,"ĠGar":9874,"Ġpozad":9875,"Ġneviete":9876,"pul":9877,"ĠzbraÅĪ":9878,"Ġslabo":9879,"ĠÃºtoky":9880,"Ġzuby":9881,"sledy":9882,"ĠsÃ½r":9883,"matiky":9884,"ĠotvÃ¡ra":9885,"Äįet":9886,"ĠRich":9887,"ĠspoloÄįnÃ½ch":9888,"Ġove":9889,"ÄįÃŃte":9890,"Ġvysiela":9891,"ĠprirodzenÃ©":9892,"ÄĮÃŃm":9893,"Ġnud":9894,"ĠvoÄ¾bÃ¡ch":9895,"ĠvÃ¤ÄįÅ¡iny":9896,"ĠcelkovÃ©ho":9897,"Ġvedenie":9898,"ĠkvalitnÃ©":9899,"ĠkrÃ¡sny":9900,"ĠfanÃºÅ¡ikov":9901,"Ã©ru":9902,"illa":9903,"Ġprinesie":9904,"Ġhyper":9905,"ĠÅ¾iar":9906,"ĠodchÃ¡dza":9907,"ĠvyuÅ¾ÃŃvania":9908,"Ġodchod":9909,"forma":9910,"ĠpoÄįul":9911,"ĠpovinnÃ½":9912,"Ġnapokon":9913,"the":9914,"enec":9915,"Ġfungovanie":9916,"Ġemisie":9917,"ĠobÄ¾ÃºbenÃ©":9918,"ĠdodÃ¡vateÄ¾":9919,"merom":9920,"stave":9921,"ĠsmÃº":9922,"kul":9923,"entom":9924,"ĠpÃ³":9925,"ĠpredÃ¡vajÃº":9926,"ĠprÃ¡cou":9927,"lÃºv":9928,"stÃ¡v":9929,"Ber":9930,"ĠsyndrÃ³":9931,"Ġpreferen":9932,"ĠvitamÃŃnu":9933,"Ġnechcel":9934,"Ġmusela":9935,"Ġmyslel":9936,"rgen":9937,"Rie":9938,"ue":9939,"ĠKana":9940,"Ġbato":9941,"ĠprevÃ¡dzku":9942,"likt":9943,"ĠnÃ¡vy":9944,"Ġpark":9945,"Ġnemalo":9946,"ĠFer":9947,"udob":9948,"ĠpozerÃ¡":9949,"ĠdÃºfam":9950,"Ġplavid":9951,"ĠihneÄı":9952,"ĠsluÅ¾bÃ¡ch":9953,"ĠspomÃŃna":9954,"ĠkampaÅĪ":9955,"mite":9956,"ĠTh":9957,"ĠÄįiny":9958,"Ġefekt":9959,"ĠpresnÃ©":9960,"Inter":9961,"Program":9962,"ĠgenerÃ¡cia":9963,"Ġnevedia":9964,"Ġsestry":9965,"Pozor":9966,"ĠvÃ½robcu":9967,"ĠjednÃ¡":9968,"ĠWeb":9969,"Ġhovorili":9970,"VÅ¡eobec":9971,"Ġlietadlo":9972,"ĠpodobnÃ½":9973,"âĢľ)":9974,"ĠGene":9975,"ameri":9976,"Ġruke":9977,"toÄįnÃº":9978,"Ġsnahe":9979,"Ġbyt":9980,"ĠnÃ¡sledok":9981,"kladajÃº":9982,"ĠzÃ¡veru":9983,"rez":9984,"Ġ55":9985,"kres":9986,"Ġodvod":9987,"ĠtechnolÃ³giu":9988,"ĠpouÅ¾ÃŃvatelia":9989,"ĠdanÃ½":9990,"ĠzÃ¡z":9991,"ĠzahraniÄįia":9992,"reb":9993,"ĠlepÅ¡iu":9994,"TakÃ½":9995,"Ġzostali":9996,"OL":9997,"ĠÅ¡tÃ¡tnych":9998,"ĠHen":9999}